#version: 0.2
Ġ Ġ
č Ċ
Ġ t
h e
Ġ a
i n
o u
Ġ s
ĠĠ Ġ
Ġ _
Ġ m
r e
Ġ w
o t
Ġt he
ĠĠ ĠĠ
Ġ o
i s
e r
h a
n d
. _
i t
Ġ I
e n
Ġ b
o n
o r
Ġ f
l l
Ġ c
e s
Ġo f
n ot
Ġ d
Ġt o
Ġ p
Ġ l
Ġ y
a r
in g
Ġy ou
Ġ h
Ġ [
a t
e d
Ġt h
Ġa nd
a n
ha t
ĠĠĠĠ ĠĠĠĠ
. ]
Ġ in
s t
Ġ T
a m
e t
v e
o w
o m
o ot
Ġ g
not e
Ġ he
oot note
F ootnote
s e
c e
Ġ A
a y
Ġ H
Ġb e
i m
l e
Ġ n
Ġ is
Ġm y
en t
Ġ it
u t
i on
it h
c h
Ġ e
Ġ ha
a s
Ġ u
Ġm e
l d
g h
Ġ W
H am
- -
Ġ not
i r
' s
e a
r a
Ġh is
c t
_ ,
Ġt hat
or d
Ġ (
Ġw ith
l y
r i
Ġf or
Ġyou r
i ll
ĠI I
gh t
ou r
o o
Ġs t
a l
he r
Ġ O
Ġ re
Ġw e
v er
ĠT he
Ġ k
Ġ S
a d
r o
Ġth is
Ġo n
. )
i d
Ġ L
Ġa s
._ ]
a nd
Ġ M
t er
Ġ C
u r
Ġh im
_ ]
k e
Ġw h
Ġl ord
om e
u e
i f
Ġ B
o l
Ġa n
Ġm o
es t
' d
Ġo r
ĠA nd
c k
Ġ[ _
ĠĠĠĠĠĠĠĠ ĠĠĠĠĠĠĠĠ
ĠII I
e e
u s
ou ld
Ġha ve
Ġ P
g e
es s
Ġd o
Ġc on
Ġs p
_, ]
Ġ R
i l
Ġ F
Ġ G
Ġs u
, [
i ght
Ġd e
._ ,
Ġb y
Ġw as
Ġs o
a in
v en
Ġs ha
Ġw ill
Ġth ou
oo d
r om
ou s
ou t
Ġl i
s s
l et
p p
Ġ N
Ġa re
Ġ v
Ġl o
ar t
an t
. [
er s
ĠĠ ĠĠĠ
a ll
l i
Ġb ut
Ġa ll
Ġs h
Ġsha ll
Ġ D
b le
ar d
q u
in d
l o
Ġ V
se l
Ġn o
u n
Ġm a
Ġf rom
ĠH am
u st
Ġa t
e ar
i ve
Ġp l
Ġu s
ĠHam let
Ġw hat
Ġu n
E N
e nd
u m
i c
u l
u re
ha n
K ing
e ll
r ow
ĠT h
at ion
Ġhe r
in e
Ġk n
i g
i ch
Ġth y
ue en
Ġ '
o s
Ġ r
Ġf a
ĠT o
h o
ĠT hat
Ġu p
T he
e ct
en ce
sel f
Ġe x
E n
Ġc om
ĠB ut
H or
on g
at e
Ġp ro
ver y
Ġ our
a er
im e
ea k
e re
o re
Ġg o
E x
P ol
ou nd
' ll
Ġthe m
Ġd is
at her
Ġs ee
Ġw he
ot her
Ġmo re
in k
ĠW hat
t o
Ġ Y
Ġs e
Ġm ad
Ġwh ich
Q ueen
Ġt ime
Ġm an
on e
Ġpl ay
p h
u d
Ġthe re
Ġk ing
E R
Ġkn ow
R A
Ġg ood
a g
Ġ j
Ġm ay
or t
Ġc an
f f
an ce
a st
Ġa m
ĠI V
Ġc ome
am e
oo k
i es
ĠI t
Ġp o
' t
1 0
_ ;
a ge
e m
Ġa r
ĠĠĠĠĠĠĠĠ ĠĠĠĠ
Ġn e
w e
Ġw ould
an s
Ġhe re
e f
k es
o se
Ġs ay
Ġb l
Ġf ather
Ġlo ve
ĠTh is
Ġ very
Ġt han
as s
Ġwe ll
. --
a u
p re
Ġt r
Ġthe ir
Ġof f
Ġl et
En ter
, --
m ent
t h
Ġ if
Ġp re
Ġmo st
1 1
c i
Ġthe e
Ġthe y
is h
ar k
Ġsp eak
Ġ qu
Ġp r
Ġg ra
Ġn ow
ĠM y
Ġli ke
L aer
a ke
n t
r y
Ġ hat
Ġ out
Ġw or
L E
O ph
a re
i ce
o ld
Ġ im
ĠI n
c c
p t
ou l
Ġto o
ĠW he
a ble
w n
it y
n s
Ġa d
Ġa ct
Ġm ust
Ġf l
Ġc ha
at h
ĠW h
Ġ( _
ĠC lo
Ġsh ould
Ġma ke
Ġup on
1 2
: [
o ll
Ġw ord
is t
Ġd id
ro ss
O N
g ain
Ġ "
Ġha d
U S
i ck
Ġa pp
Ġs he
Ġs ome
ot h
Ġwe re
_; ]
Ġhat h
e l
i re
o d
p er
Ġa b
Ġthe se
Ġo wn
ĠA s
Ġn ight
ea d
if e
a ve
n ess
t he
Ã ĥ
Ġb et
ing s
Ġsu ch
ig n
ho st
: _]
A M
b er
Ġa gain
it s
Ġp er
at i
ow n
ea re
ĠF or
Ġcom m
a k
it t
ĠH ow
ra ct
Ex it
; [
Ġ U
Ġs a
Ġs ir
Ġo b
ĠI f
Ġth ink
Ġhe a
Ġon e
Ġwh o
ĠN o
ĠY ou
LE T
T I
i ous
u ch
re at
AM LET
S T
m s
t is
Ġ en
Ġs oul
Ġh on
ĠS ha
ross es
e p
f ore
h i
h ing
t y
u ll
v es
Ġc all
Ġd es
Ġin to
Ġme ans
1 3
H E
e ed
o p
o st
p eare
Ġa l
Ġthe n
nd er
Ġp ass
at ch
Ġbe en
ĠW ith
Ġwhe n
kes peare
ĠSha kespeare
O RA
T o
p he
r an
u il
w ay
Ġ K
Ġ Q
Ġm other
re e
ĠH e
ĠH AMLET
ĠW e
id e
Ġcon t
ĠWh y
TI O
ORA TIO
A R
a p
Ġ J
in t
re t
Ġp art
Ġg ent
ĠS o
ĠL et
L ON
M ar
f ul
m ark
s ent
t es
Ġ E
Ġ ri
ou nt
Ġs c
Ġl ook
Ġl ife
at ter
Ġg ive
Ġhe art
Ġn at
ea ven
ad y
Ġwhe re
Ġmad e
oll ow
a b
r u
Ġt ell
Ġo ld
it e
Ġb r
or y
Ġd ead
Ġp ur
Ġe y
Ġha nd
ri end
ĠThe re
ĠS t
Ġan y
Ġcon f
un t
row n
Ġhea ven
. "
E EN
I N
I US
U EEN
is e
Ġd ay
at ed
Ġhe ar
ĠH ORATIO
ĠO phe
ĠĠĠĠĠĠĠĠĠĠĠĠĠĠĠĠ ĠĠĠĠ
ĠR O
li a
ear s
ER N
pre ss
ĠOphe lia
O LON
R os
c he
i v
l es
n g
p s
Ġm ar
Ġm ight
Ġm ine
Ġin d
et s
Ġg r
ĠH eaven
le m
ea ve
ct ion
ĠL aer
Ġthou ght
Ġus ed
ĠQ UEEN
OLON IUS
ĠLaer tes
C rosses
d er
i e
Ġ En
Ġt w
Ġs w
Ġm uch
en mark
Ġb re
or ati
Ġh ow
Ġth us
ĠH orati
Ġcon s
Ġde ath
Ġdis c
RA N
Ġcan not
Ġgra ve
ĠHorati o
a ck
i le
l ed
Ġa cc
er y
._ )
en s
on s
Ġc h
Ġc our
Ġd r
ut y
est y
ee p
Ġsp ir
art h
au ght
ĠWhe re
A s
b e
c ed
e unt
s p
Ġd own
Ġl eave
ce ll
Ġe arth
ri ef
Ġre m
ĠB e
ee ch
ĠP OLONIUS
Ġde ar
ĠD enmark
Ġdis t
Ġse en
ff ect
au se
Ġpr ay
Ġwor ld
Ġim p
ĠK IN
ĠKIN G
I n
_ .]
a w
a se
a ch
c y
i al
l and
s w
Ġs et
re ss
it her
Ġb ra
Ġf riend
Ġc ould
Ġp ut
Ġl ong
Ġl itt
om et
Ġg i
Ġbe ing
Ġwith out
ur n
Ġhim self
Ġsu pp
all y
Ġse c
we et
Ġlitt le
D EN
E S
L DEN
T h
T is
g in
i ed
l ay
Ġ ra
Ġ ro
Ġa way
ou gh
Ġm atter
re d
it ion
Ġb od
ar y
Ġth ing
ow s
Ġg reat
ĠA y
ir st
ĠG U
Ġex press
Ex eunt
Ġtr ue
ST ERN
Ġgent lem
Ġnat ure
Ġpur p
ĠEn g
aught er
LDEN STERN
? [
C RAN
G host
I LDENSTERN
O s
S EN
T Z
a le
c ome
g er
i x
j ect
l ess
s er
in ce
Ġs k
Ġm ind
on t
Ġf ear
Ġd one
Ġy et
Ġth ose
Ġin t
Ġha r
as on
ĠO f
ĠO r
Ġan sw
ĠN ay
Ġfa ir
we en
Ġdr ink
ĠGU ILDENSTERN
CRAN TZ
Os r
SEN CRANTZ
: --
? _]
B er
G uil
f t
f or
h ind
l ing
q ueen
Ġ &
Ġ queen
Ġt ra
Ġs weet
er n
er t
en se
Ġb est
or n
Ġf ind
Ġf ell
Ġh old
Ġg rief
Ġhe ad
ent ly
Ġit s
Ġme an
ĠW ho
Ġnot hing
oo l
Ġon ce
ĠM r
ĠC ome
ĠD o
ĠWhe n
Ġbet ween
ĠRO SENCRANTZ
. ,
_ .
c l
g g
i ld
i gh
l t
n ce
o nd
Ġt ake
Ġs ign
Ġw atch
ĠI s
Ġb u
Ġb oth
Ġf ollow
Ġd aughter
Ġp ers
et h
Ġbe a
Ġe ar
al k
ĠĠĠĠĠĠĠĠĠĠĠĠĠĠĠĠ ĠĠĠĠĠĠĠĠĠĠĠĠ
Ġthou gh
Ġli ve
ud e
Ġbl ood
Ġey es
." ]
Ġgr ound
Ġansw er
Ġsign if
I A
S C
T ES
c es
p e
p on
r ant
t ed
v ing
w ard
Â ¨
Ġ i
Ġ ent
Ġ other
Ġt re
ou b
ou ch
Ġs l
Ġs ent
Ġs ame
Ġs omet
Ġw ay
Ġw ind
er m
or s
or row
Ġf ree
Ġc lo
not her
Ġn or
ut h
Ġe nd
Ġha s
Ġfor m
Ġst and
Ġst ate
ver s
ĠĠĠĠĠĠĠĠĠĠĠĠĠĠĠĠ ĠĠĠĠĠĠĠĠ
Ġdo es
ĠG ive
Ġmad ness
Ġsay s
Ġpre sent
Ġword s
Ġind eed
Ġexpress ion
! --
1 4
A ER
F or
L IA
P HE
c on
e y
e ve
n ight
o e
o ck
p os
r ing
t w
v ed
Ġa nother
ou ght
Ġs ense
ha r
Ġf irst
Ġc l
Ġc or
Ġc ar
Ġd re
Ġp h
Ġh um
Ġbe li
Ġit self
ut e
Ġe very
Ġha st
Ġu se
ri ed
ĠS p
Ġas s
if f
Ġan ci
est ion
Ġsp eech
ĠG ood
Ġde f
um p
ic al
Ġcom es
Ġj o
Ġtw o
Ġspir it
AER TES
PHE LIA
1 5
A nd
C E
a ce
f ter
g ed
i an
o ve
o il
r ong
w ell
Ġa ir
Ġs ea
Ġm ur
re n
ĠĠĠĠ ĠĠĠ
Ġo ver
is on
Ġd ra
Ġl ast
Ġl ady
an k
ĠA t
ĠH ere
Ġe m
Ġu nder
ir t
ĠP lay
un n
Ġma j
ust om
um e
row s
Ġfa ce
ere d
ĠY our
ĠĠĠĠĠĠĠĠĠĠĠĠ ĠĠĠ
Ġad v
Ġbet ter
Ġcomm on
Ġsa id
Ġgi ven
Ġbod y
Ġpurp ose
! [
; --
W ith
g et
l ish
r ist
t her
t end
u ra
w s
w ith
Ġ ill
Ġm on
Ġw it
Ġw ar
er c
en er
Ġf ar
Ġf ool
Ġc ause
Ġp le
Ġh o
om an
Ġst ran
ĠO PHELIA
Ġre p
Ġre t
ver b
Ġon ly
ĠL AERTES
ĠM ar
Ġwh ile
ĠG o
ven ge
Ġli e
ĠN ow
Ġsh ow
Ġun c
EN E
Ġpo or
Ġar t
Ġne ver
Ġab out
Ġagain st
hi p
Ġri ght
che s
cell ent
Ġbra in
ĠEng land
for m
SC ENE
) ,
1 8
g ment
k s
l s
o f
o h
r it
u p
Ġt ong
ou d
Ġw is
Ġd uty
Ġh our
Ġg one
Ġg ener
ĠA n
le ep
Ġn ame
Ġe ver
as h
ra se
Ġyour self
Ġre st
Ġk ind
ain t
Ġv i
Ġno ble
un e
un g
Ġma kes
um ent
Ġpro verb
Ġthere fore
Ġj ud
ĠĠĠĠĠĠĠĠĠĠĠĠ ĠĠĠĠĠ
,-- --
Ġgra ce
Ġwor k
pt ion
Ġcomm and
ĠU pon
Ġpass ion
Ġbr other
Ġthought s
Ġsw ord
Ġcons id
Ġsupp os
Ġph rase
2 0
L L
c ri
c ess
d d
e c
f e
f ect
i er
i us
l come
m ir
m ost
s ol
s hip
v our
y ing
Ġ King
Ġt ri
Ġa fter
in ess
ou n
Ġs er
is s
Ġf e
Ġc ol
Ġc han
Ġp ati
Ġth ine
ĠT HE
Ġg all
ce ive
Ġbe fore
ent re
Ġe ven
Ġe ach
our se
ĠO F
Ġwh ose
ĠB y
ĠĠĠĠĠĠĠĠĠĠĠĠĠĠĠĠ ĠĠĠĠĠ
ĠG host
Ġsu b
ĠN ot
ĠN or
Ġv is
ant s
um b
Ġr ound
Ġfa ith
Ġsee m
ag er
Ġbl ess
ci ous
Ġfl ow
Ġcha ract
Ġwho le
Ġhon our
ĠJ oh
ab ly
Ġhand s
Ġrem em
Ġimp ort
Ġgentlem an
Ġpers on
Ġbeli eve
iff ere
ren ch
ura l
Ġstran ge
Ġunc le
Ġtong ue
Ġsuppos ed
! _]
2 4
2 7
3 3
3 7
4 1
4 7
5 0
5 9
C T
H ow
O R
a c
a ct
b ut
c om
d om
o c
o int
r as
r ance
t en
v il
y r
he d
Ġa ff
Ġa uth
ou se
Ġs on
Ġs leep
Ġm en
Ġw alk
Ġo cc
is ter
on ius
Ġf ee
Ġf all
Ġc ame
Ġc ustom
Ġp ow
Ġl ess
Ġl ight
at er
Ġhe ard
ĠH ave
im es
Ġe ffect
ĠW ill
Ġwith in
ill ain
Ġst rong
Ġwe lcome
Ġk eep
ĠL ook
ĠM AR
ĠP ol
Ġcon ce
ĠF rench
Ġsu n
Ġv irt
Ġv illain
Ġlo st
Ġat t
Ġfa vour
The re
Ġplay ers
ag es
Ġpo ison
Ġact ion
Ġob ser
Ġhon est
Ġcour se
Ġbea uty
oub t
Ġsomet hing
CE LL
Ġmur der
Ġmaj esty
ĠMAR CELL
ĠMARCELL US
, "
1 6
1 7
1 9
2 1
2 2
2 3
2 5
2 6
2 8
2 9
3 0
3 1
3 2
3 4
3 5
3 6
3 8
3 9
4 0
4 2
4 3
4 4
4 5
4 6
4 8
4 9
5 1
5 2
5 3
5 4
B e
H e
Y ou
b it
b and
b ably
d e
d u
i ence
k en
m e
n e
n ow
t ra
u ck
Ġ Ex
Ġ Queen
Ġt ill
Ġt ears
he re
Ġs m
Ġs at
Ġs ince
Ġs orrow
Ġw a
Ġw oman
Ġo pp
Ġf al
Ġf ire
Ġc ount
Ġl aw
Ġyou ng
Ġh us
an e
ĠĠĠĠĠĠĠĠ ĠĠ
Ġin ter
Ġg l
Ġg uil
Ġhe l
Ġbe ar
Ġbe hind
Ġmy self
Ġme m
Ġst ill
Ġre l
Ġre venge
ĠThe n
ter s
ur y
ur ns
us ion
ĠR e
ĠF rom
ĠF are
ĠD r
sel ves
ul ar
ure s
Ġex cellent
Ġj ust
Ġoff end
Ġapp ear
Ġcour t
As ide
Ġfriend s
Ġfell ow
get her
rist ian
Ġvi ol
Ġcharact er
ĠPol onius
6 1
A T
B ut
I f
W h
W hat
b ed
e x
g n
i ly
i ke
o ver
u b
u ght
Â ©
Ġ id
Ġ est
Ġt urn
Ġt erm
he s
Ġa ffect
in ation
Ġs im
Ġs ong
Ġm in
Ġm ark
Ġw ater
ĠI N
en e
Ġb on
Ġb ed
Ġb us
Ġf un
Ġf ig
Ġf oil
Ġf ash
Ġc ur
Ġd am
Ġd oth
Ġp i
Ġp ri
at s
Ġth ings
an cy
le ct
as ion
ea ce
Ġst ay
Ġst ory
ĠO ur
Ġre c
Ġre g
Ġk ill
ĠS ir
ad e
ĠM ad
ĠM ake
ĠĠĠĠĠĠĠĠĠĠĠĠĠĠĠĠ ĠĠĠ
ess ion
il t
Ġsu it
Ġde ed
Ġli ber
Ġv o
Ġma id
ul t
ĠTh ou
Ġsee ms
Ġman y
Ġpo int
em p
Ġar ras
Ġqu i
ns on
Ġcha r
ak ing
Ġsa w
hi le
Ġey e
iv ing
Ġro se
Ġgentlem en
Ġsk ull
ert ain
pos ition
tend ants
Ġjud gment
Ġbless ing
ĠJoh nson
Ġhus band
Ġmem ory
Ġfash ion
Ġdam n
5 5
5 6
5 7
5 8
6 0
6 2
6 3
6 4
6 5
6 6
6 7
6 8
6 9
7 0
7 1
7 2
? --
A N
F ran
H is
M y
O M
S t
_ )
a il
c rosses
e ver
g u
g ue
i ble
k ing
l f
l se
m ed
m an
n er
n ers
o nder
r ont
r ude
u nd
u al
u pp
u ff
v ent
y ou
Ġ }
Ġ ut
Ġt able
Ġa ge
Ġa ud
ou p
Ġm er
Ġm om
Ġm ount
re w
re qu
Ġw ife
Ġw oe
Ġw ager
ĠĠĠĠ ĠĠĠĠĠ
Ġo p
is hed
en ber
Ġb es
Ġf it
Ġf oul
Ġf ull
Ġc old
Ġc rown
Ġc unn
Ġof t
Ġd i
Ġd ull
Ġd rown
Ġd oubt
Ġp e
Ġp ast
Ġl ate
ing ly
Ġh or
Ġh ome
at in
at ive
Ġth ri
an ger
Ġin c
et y
Ġhe al
ĠH is
Ġbe ard
le x
Ġn ear
ion s
Ġe re
Ġe lse
Ġha ng
as y
Ġme et
Ġfor t
Ġst op
Ġre ceive
Ġwe ar
ĠThe y
ad ies
id d
ĠM ore
Ġwh y
ĠP r
ĠG ert
Ġsu ff
li c
ĠD id
Ġpl ace
ic ular
Ġr ank
The y
Ġcom p
Ġpro bably
Ġgo es
ĠY et
ud es
ag ant
pre sent
Ġqu ick
Ġqu estion
pt ed
Ġad d
Ġper fect
ĠU n
Ġob ey
Ġdes ire
op e
Ġbr ing
Ġbre ak
Ġch ur
Ġspir its
sp ect
Ġsec ret
Ġsec ond
Th is
Ġhar d
Ġfree ly
Ġclo se
Ġdre am
Ġdre ad
ĠSp eak
Ġanci ent
Ġanci ently
ump et
Ġjo y
ĠAt tendants
Ġunder st
Ġconsid er
Ġpati ence
Ġocc asion
Ġvirt ue
gn ant
Ġbus iness
Ġvo ice
Ġmom ent
enber g
ĠGert rude
7 3
7 4
7 5
8 1
D O
N o
R e
T r
U n
a v
a x
a z
a ut
a ir
a id
a pp
a kes
c um
d o
e w
l as
p ing
p ic
r on
r ung
s on
s et
u se
u ild
Â ¦
Ġ es
Ġt ouch
Ġs it
Ġs ound
Ġs ide
Ġm us
Ġm ist
Ġw onder
ot s
ot ion
Ġo ri
ha ps
nd eed
._ }
it ies
ĠI ndeed
en c
Ġb ook
Ġb orn
on ce
Ġf ur
Ġf ret
Ġf requ
Ġc hi
Ġc ens
Ġc up
Ġd en
Ġd ire
Ġd ie
Ġd eep
Ġd anger
Ġp ard
Ġp ale
Ġl ack
Ġyou th
Ġh igh
ed s
st ant
Ġg host
Ġhe ll
se qu
Ġbe g
Ġbe ll
Ġbe gin
Ġe ase
Ġha bit
as ure
ĠW ould
ir d
Ġhis t
ri age
our s
oo f
oo se
Ġst ar
Ġst age
al m
Ġre ady
Ġre ason
Ġre present
Ġwe ep
ĠThe se
ro du
ĠL atin
Ġlord ship
Ġmo d
ĠĠĠĠĠĠĠĠĠĠĠĠĠĠĠĠ ĠĠ
ĠP ri
ĠP ro
ain s
ous in
out h
Ġlo se
all s
Ġall usion
Ġsh ort
Ġsh ows
ĠD ane
ard ed
ĠV ery
Ġher self
Ġfa re
Ġex p
Ġpro f
Ġpro cess
Ġgo d
ound s
Ġdis position
Ġknow n
em per
Ġar m
Ġar ms
Ġne ws
Ġoff ence
ment s
ci ence
Ġim age
Ġad mir
ĠWh ich
Ġab ove
ign or
ak er
ract ed
Ġhon esty
Ġcall ed
way s
Ġcont in
Ġpart icular
ĠRO OM
che d
iv ed
ction s
Ġch ristian
ĠEng lish
Ġcor ru
With out
Ġmon th
Ġple ase
Ġbrain s
Ġwis dom
Ġcol our
Ġauth or
Ġpow er
Ġobser v
Ġhel p
Ġbon es
Ġfoil s
Ġqui et
Ġaud ience
Ġhor ri
Ġheal th
Ġfort une
Ġori gin
Ġcens ure
Ġpard on
: _
A ll
A ST
B y
F OR
I I
N ot
R I
T w
] --
a is
b l
b let
c st
c han
c ap
c ause
c ourse
d ay
d ig
e pt
f ull
h us
i ers
i ans
k n
k in
m it
m and
n ing
n at
o le
p ro
p art
r ough
r hus
s ha
s ar
t ic
u le
u ous
v y
y m
y al
Ġ ignor
Ġt er
Ġt en
Ġt end
he ns
Ġa w
in es
Ġs y
Ġs ing
Ġs ight
Ġs ister
Ġm is
Ġm ort
Ġm orn
re en
Ġw in
Ġw eak
Ġw ilt
Ġo dd
is ed
it ter
it ation
it ude
en st
Ġb ar
Ġb ent
Ġb row
Ġb ack
or al
Ġf ore
Ġf ound
Ġf ix
Ġc o
Ġc r
Ġc ap
Ġd ust
Ġd ark
Ġd iffere
Ġto ld
Ġto gether
Ġp ract
Ġp eace
Ġy ear
Ġy ears
Ġh ot
Ġh ither
Ġh ope
ĠT ill
ĠT han
am es
ve ll
ow ed
Ġg ave
ce ed
ĠA d
ĠH er
ĠH old
Ġbe cause
Ġn one
Ġn unn
ent er
ch o
as ed
-- --
ea l
ri es
ri ght
Ġfor g
Ġfor ms
Ġst ri
ĠO ne
Ġre f
Ġre ad
ĠS he
ĠS uch
and er
ĠM ust
ĠC on
ĠC Ãĥ
ĠC AST
ur ing
if t
if ied
ĠB ERN
ol es
Ġor der
ck ons
ĠP yr
il ar
ĠG od
ĠG uild
Ġsu cc
Ġde l
Ġde vil
ain ed
ven om
Ġv al
Ġv ice
Ġlo ck
ant ity
li ver
li ke
ard s
Ġpl a
Ġun s
ul ate
ĠTh us
Ġkn ave
Ġfa c
Ġex erc
Ġpro per
Ġsee k
ink s
Ġmad am
Ġar g
Ġne w
Ġthan k
Ġqu antity
Ġwor n
Ġcha ir
oll ect
ON D
Ġapp ears
Ġdes cri
Ġal one
Ġal most
AR DO
ru ck
ĠĠĠĠĠĠĠĠĠĠĠĠĠĠĠĠĠĠĠĠ ĠĠ
ĠĠĠĠĠĠĠĠĠĠĠĠĠĠĠĠĠĠĠĠ ĠĠĠ
Ġmar ry
Ġmar riage
ie ce
Ġbre ed
Ġbre ath
Ġcons cience
Ġdisc ourse
Ġacc ent
ix t
Ġint rodu
Ġbu ried
Ġear s
Ġsignif y
ĠĠĠĠĠĠĠĠĠĠĠĠĠĠĠĠĠĠĠĠĠĠĠĠ ĠĠ
con ce
Ġem p
Ġadv ice
Ġret urn
Ġgener al
Ġproverb ial
Ġser v
Ġsub ject
Ġremem b
Ġremem ber
oint ed
Ġfee ling
Ġfal se
ĠFare well
Ġreg ard
Ġbes eech
Ġcunn ing
Ġpe op
Ġunderst and
Ġfur ther
Ġadmir ation
enst ern
Ġpract ice
Ġnunn ery
ĠCAST LE
ĠBERN ARDO
ĠPyr rhus
ĠGuild enstern
! _
7 6
7 7
7 8
7 9
8 0
8 2
9 5
A n
A ct
A CT
C ome
E D
H ave
I G
I R
I t
L A
a im
a ith
a fe
b led
c an
c entre
e ph
f ollow
g ra
g ation
h is
h ow
i p
i pp
i ance
i vers
k ind
l ow
m on
m aker
n el
o es
o ke
o ard
r ous
r ame
s o
s and
s afe
t ha
u es
u ed
u li
u nder
u gg
v id
v ate
v agant
w k
w hat
w ill
w ise
y p
y ed
Ġ er
Ġ et
Ġ note
Ġ ver
Ġ 15
Ġt imes
he ad
Ġa ught
Ġs ol
Ġs il
Ġs ens
Ġm ed
Ġm et
Ġm eth
Ġm outh
re nt
re ign
re hens
Ġw ed
Ġw ea
Ġw ant
Ġw its
Ġw ret
is es
er ly
er al
nd s
it es
en ance
en ry
Ġb ro
Ġb ur
Ġb os
Ġb itter
Ġf ish
Ġc ent
Ġc ir
Ġc al
Ġc ard
Ġc ho
Ġc ast
Ġc ock
es h
Ġd umb
Ġd ais
Ġto ward
Ġp it
Ġp ol
Ġp os
Ġp iece
Ġl e
Ġl ay
Ġh it
at ing
Ġth row
Ġth rown
ĠĠĠĠĠĠĠĠ ĠĠĠ
ĠĠĠĠĠĠĠĠ ĠĠĠĠĠ
Ġin f
Ġin cl
ĠT ake
et t
ve l
Ġg u
Ġg et
Ġg lo
Ġg rows
ce pt
ĠA r
ĠA re
ĠA ct
ĠA CT
ĠA lex
ĠA las
ĠH ad
ĠH ath
ĠH enry
ent s
Ġe as
Ġha pp
Ġha ving
Ġha lf
Ġha wk
ĠW ell
ĠW itt
ra w
ra ight
ra ble
ord s
ri al
ri ages
Ġfor th
our n
our ish
Ġst art
Ġst ruck
al ent
Ġre ck
Ġre sol
Ġk ept
ĠS ay
ĠS ee
.) ,
ĠL ike
ĠM ay
ĠM ost
ĠC H
ĠC h
ĠC entre
ur p
ur ative
Ġwh oles
if ted
ĠB ern
Ġmo ck
Ġmo der
us h
ĠP l
ĠP el
Ġdo g
Ġcon j
Ġcon ve
ĠR os
ĠF ollow
Ġsu dd
ight s
Ġso ft
Ġthou sand
ous ly
ss a
Ġv ar
Ġv ows
ant age
Ġall udes
ble m
ard o
ard en
qu est
Ġma king
Ġus es
EN D
ĠTh y
ĠTh ough
ation s
Ġthy self
Ġr ue
Ġr ather
Ġex t
ong er
Ġour selves
ound ed
Ġplay ed
ph y
Ġking s
ag o
ag ination
ort h
Ġcan n
ast e
Ġpo et
Ġne g
Ġne ither
ans l
ef t
Ġthan ks
au gh
Ġtr u
Ġtr oub
Ġtr umpet
Ġlet ters
,-- _
th ing
Ġtoo k
Ġact or
Ġfl esh
12 0
el s
the n
Ġper form
Ġper haps
itt ed
ract ion
Ġen c
Ġen ough
ĠJ eph
Ġgent le
Ġsc ene
Ġnat ural
ĠThere fore
ĠSt age
Ġconf ess
Ġheaven s
Ġind iffere
ie u
Ġacc ord
Ġacc ount
be ckons
cell us
Ġdist racted
Ġtra ged
ĠWho se
Ġsignif ied
Ġsignif ying
Ġent reat
ouch safe
Ġsomet imes
Ġpresent ly
con ers
tw ere
Ġcl oud
Ġhum an
Ġhast e
ump ets
Ġdra w
Ġem blem
Ġwit ha
Ġwar rant
Ġrep ort
ĠMar cellus
Ġconsid ered
oun ter
Ġchan ge
Ġaff li
Ġconce it
Be hind
Ġopp ress
Ġcount enance
Ġguil t
Ġguil ty
Ġaffect ion
Ġsim ilar
Ġfun eral
Ġfig urative
Ġpri vate
Ġchar ge
Ġut ter
Ġsuff er
Ġfrequ ently
Ġfare well
Ġcorru ption
FOR M
Not es
full y
kn own
Ġaw hile
Ġrememb rance
Ġpeop le
tha h
Ġet ern
Ġbos om
Ġcir cum
ĠAlex ander
ĠWitt enberg
Ġwholes ome
ĠBern ardo
ĠPel ion
Ġsudd en
Ġtroub les
ĠJeph thah
Ġfigurative ly
* *
1 10
8 3
8 4
8 5
8 6
8 7
8 8
8 9
9 0
9 1
9 2
9 3
9 4
9 6
9 7
9 8
9 9
? _
B ook
C I
C h
E C
E AN
H AMLET
H ORATIO
L et
L ike
M ake
O ur
S e
S o
S ings
S RI
T ra
T HE
U R
W hile
Y our
_ ."]
a h
a ff
b r
b y
b ly
b id
b ated
b les
d ge
d ic
d raw
f old
f ty
g re
g ar
g ers
g ree
g iving
h ich
i ef
i ps
l ast
l ack
m p
m en
m other
m ary
n oc
o b
o ken
p end
p are
r am
r ion
r ust
s h
s ing
t on
u c
u z
w ould
w rung
w hich
y e
z ago
Ã Ħ
â Ģ
Ġ ed
Ġ Enter
Ġt alk
Ġt akes
he n
Ġa v
in s
in ing
in ed
in ore
ou red
ou rable
Ġs ch
Ġs end
Ġs ick
Ġ_ '
Ġm ut
Ġm ouse
Ġm idd
Ġm otion
re ady
Ġw ent
Ġw ood
Ġw ine
Ġw ore
Ġw ont
Ġw ild
Ġw rong
Ġw rit
ot e
ot ten
is ure
ha ve
._ "
ĠI m
en ces
Ġb ul
Ġb ound
Ġb are
Ġb old
on er
on oun
on zago
or ical
Ġf ing
Ġf ain
Ġf eed
Ġf ancy
ll able
Ġc at
Ġc le
Ġc are
Ġc oup
es ter
Ġd ri
Ġd iv
Ġd ress
Ġd ally
Ġd ied
Ġp in
Ġp ar
Ġp at
Ġp rom
Ġp ear
Ġp ick
Ġp ite
Ġp aint
Ġl ow
Ġl ist
Ġl ead
Ġl adies
Ġl aid
Ġl augh
ar ies
ar ition
Ġh id
Ġh ide
at t
at re
at es
at ors
ed y
Ġth ree
Ġth rough
an ge
an gu
Ġin noc
ĠT r
am b
ve reign
Ġg arden
ce ived
ĠA ll
ĠH and
ĠH ence
Ġbe ho
im ation
im ate
ut ified
Ġe le
Ġe qu
Ġe ither
Ġe vil
Ġme ant
Ham let
-- _
ir l
ir ty
ct ure
_, [
_, --
Ġst re
Ġst ith
Ġst ir
Ġst ation
Ġst raight
al s
al ity
ĠO n
ĠO ut
ĠO SRI
Ġre li
Ġre mark
Ġre spect
ĠS T
ĠS aint
ro ach
id s
ĠL adies
ĠC ha
ĠC ould
ĠC ont
Ġwh om
if ic
ĠB oth
Ġmo on
Ġmo ve
Ġmo bled
ck et
ĠP o
ge l
Ġdo st
Ġcon st
Ġcon vers
Ġcon sequ
Ġsp ring
Ġsp ade
ĠR ight
ĠR ep
il st
ĠF RAN
ĠF rance
ĠG et
Ġsu m
Ġsu re
Ġde cl
Ġde mand
Ġso vereign
Ġsha lt
Ġsha pe
Ġsha me
Ġli es
Ġli ving
Ġli ved
ĠN ever
Ġv ile
Ġall ow
Ġsh r
Ġsh ot
qu is
qu estion
lo y
lo gg
Ġun pro
ul es
ell us
Ġkn ew
ig ence
Ġr at
Ġr ange
Ġfa st
ho se
Ġex ist
Ġcom ing
Ġpro v
ere r
ere nce
Ġgo ld
Ġgo blet
Ġwhe ther
Ġse ason
Ġman ners
Ġplay ing
Ġking dom
Ġj u
Ġam ong
Ġam az
Ġpo ss
10 0
10 1
10 2
10 3
10 4
10 5
10 6
10 7
10 8
10 9
em pt
Ġar rant
ĠĠĠĠĠĠĠĠĠĠĠĠ ĠĠ
Ġne ed
ef ore
Ġbl ast
pre t
pre ced
Ġtr uth
Ġlet s
Ġpre ss
Ġpre gnant
11 1
11 2
11 3
11 4
11 5
11 6
11 7
11 8
11 9
ci al
Ġspeak s
Ġqu ill
Ġpr onoun
Ġgra cious
LE S
Ġim per
Ġim agination
Ġfl atter
Ġcha st
Ġshould er
12 1
12 2
12 3
12 4
12 5
gain st
Ġ" _
ick ed
Ġapp are
Ġab sol
Ġper il
ak en
ak ed
ĠU ns
Ġob ject
Ġhea vy
Ġsoul s
Ġal ways
Ġpass age
ĠWith out
ĠK EAN
ĠQ u
ĠHe c
Ġcont ri
AR LES
ĠE ven
ĠE ls
Ġri ch
Ġri dic
Ġlook s
Ġpur s
ĠSt ay
ĠSt ill
Ġconf ession
ĠĠĠĠĠĠĠĠĠĠĠĠĠĠĠĠĠĠĠĠ ĠĠĠĠĠ
Ġgr ass
ie ld
Ġtw ice
Ġdisc lo
sp eak
cell ence
Ġro gue
Ġro yal
ser ve
Ġsk ill
Ġint ell
Ġmean ing
Ġbu ild
Ġbu rial
ĠĠĠĠĠĠĠĠĠĠĠĠĠĠĠĠĠĠĠĠĠĠĠĠĠĠĠĠ ĠĠ
rant z
Ġent ertain
Ġother s
Ġtre asure
Ġsl ain
Ġsl ave
Ġclo set
Ġstand s
tw as
har d
Ġcar ried
Ġcar riages
Ġhum bly
Ġass ume
Ġdef ence
Ġmur d
ĠPlay er
Ġmaj est
Ġmon ument
Ġret urns
ĠMar ry
Ġlie ge
Ġtri ck
Ġfe w
Ġgall ows
Ġvis age
Ġfaith ful
Ġflow er
Ġflow ers
Ġimport s
ac her
com p
Ġauth ors
Ġfall s
Ġpow ers
Ġstrong er
Ġatt ent
tra vagant
Ġsat yr
Ġfal coners
Ġjust ly
ub a
Ġid le
Ġsim p
Ġfig ure
Ġpi cture
ĠMad am
Ġliber ty
emp or
Ġmount ain
Ġop en
Ġthri ce
ĠPr ay
Ġadd ress
Ġchur ches
Ġclose ly
app ointed
ron ic
Ġmus ic
Ġmist ress
enc rantz
Ġchi ef
Ġhist ory
Ġrepresent ation
Ġmod esty
ĠPri am
Ġmonth s
Ġobserv ance
Ġhorri ble
Ġorigin al
cst asy
chan ce
nat ural
Ġignor ance
Ġter ms
Ġsy llable
Ġmort al
Ġmorn ing
Ġodd s
Ġfix ed
Ġdiffere nce
Ġsucc ession
Ġpla ced
Ġexerc ise
Ġproper ty
Ġarg ument
ollect ed
Ġintrodu ced
Ġemp loy
Ġserv ice
follow ing
Ġver se
Ġsil ence
rehens ion
ĠAr m
ĠRos encrantz
Ġindiffere nt
Ġtraged y
Ġcloud s
Ġwitha l
Ġaffli ction
Ġcircum st
Ġmidd le
Ġpite ous
angu age
ĠOSRI C
preced ed
Ġabsol ute
ĠEls inore
Ġridic ule
" _
; _
A L
A t
A LON
C om
D an
D oth
D ost
D oubt
F rom
F aith
G oes
H T
H eaven
L ook
L AT
M ore
M ALON
N aked
O r
P R
P OLONIUS
P oint
Q u
R O
R et
R em
R ead
T hat
T akes
W e
W here
a cy
b en
b es
b us
b ble
b ell
b ig
c or
c ock
c ousin
c hard
d own
e at
e an
e cho
f ord
f ly
f ess
f all
f riend
f irst
f ace
f ume
f ety
f alls
g s
g ence
g th
h ou
h ould
i en
i am
i ven
i ate
i are
i able
i ves
k now
l en
l an
l ve
l ourish
m y
m ble
m ber
m orrow
m iss
m onger
m itted
n o
n y
o id
o very
o ff
o phy
p l
p ut
p ort
p oll
p atch
p ier
q ue
r or
r ut
r ink
r ument
s ed
s ri
s oe
s cri
s urp
t itude
u x
v is
w w
w or
w ord
w ear
x e
x ford
y our
y per
Ġ {
Ġ row
Ġ 10
Ġ vers
Ġ ought
Ġ venge
Ġ 18
Ġ venom
Ġt y
Ġt in
Ġt or
Ġt ed
Ġt ent
Ġt ea
Ġt ro
Ġt ard
Ġt ear
Ġt ame
Ġt we
Ġt ale
Ġt emper
Ġt empt
he e
Ġa c
Ġa h
Ġa xe
Ġs in
Ġs al
Ġs ur
Ġs its
Ġs ets
Ġs igh
Ġ_ "
Ġm atch
Ġm oral
Ġm ixt
re ct
re ation
re sp
re cy
Ġw ou
Ġw an
Ġw om
Ġw ish
Ġw ounded
Ġw aste
Ġw icked
Ġo w
Ġo ath
is ing
is ons
er g
er ve
ha w
nd ar
nd ed
it ing
it ed
it ive
en es
en ef
en ec
en nel
en gth
Ġb le
Ġb ad
Ġb out
Ġb all
Ġb rief
Ġb ase
Ġb orrow
or us
or ous
or ns
or ick
Ġf i
Ġf in
Ġf am
Ġf et
Ġf oot
Ġf ootnote
Ġf ly
Ġf ill
Ġf il
Ġf ight
Ġf ant
Ġf ate
Ġf ru
Ġf oe
Ġf ront
Ġf rame
Ġc e
Ġc he
Ġc ow
Ġc ro
Ġc art
Ġc ere
Ġc reat
Ġc op
Ġc ost
Ġc atch
Ġc lay
Ġc ond
Ġc ertain
Ġc aut
Ġc ousin
Ġc reation
Ġof ten
Ġd er
Ġd row
Ġd ig
Ġd ag
Ġd are
Ġd well
Ġto p
Ġp ot
Ġp or
Ġp ure
Ġp ate
Ġp ort
Ġp ity
Ġp ious
Ġp ause
Ġp upp
Ġl est
Ġl end
Ġl ine
Ġl oose
Ġl ines
Ġl anguage
Ġl ength
ar b
ar n
ing u
Ġh its
Ġh ung
at is
at en
at ten
Ġth ro
Ġth ird
Ġth irty
an el
an ced
Ġin st
Ġin ex
ĠT w
ĠT erm
am ed
am ity
om s
Ġg a
Ġg row
Ġg ather
Ġg ross
Ġg iving
Ġg ift
Ġg irl
Ġhe at
Ġhe ld
Ġhe ra
Ġhe nce
se en
ĠA h
ĠA pp
ĠA gainst
ay s
ĠH a
ĠH yp
Ġbe ck
Ġbe com
Ġbe ating
im ent
le ase
Ġn ay
ent y
ut ion
ut enberg
ch ief
Ġe lect
Ġe vid
Ġu nd
Ġme re
Ġme lan
ir m
ir ous
ir gin
ct ed
ct ly
Ġwith draw
ly mp
Ġfor ce
Ġyour s
our t
Ġst ea
Ġst ood
Ġst ep
Ġst ock
Ġst uck
Ġst oup
Ġst rew
Ġst ole
Ġst eal
ĠO sri
ĠO xford
ĠO lymp
Ġre s
Ġre form
Ġre serve
Ġwe igh
Ġwe eds
ver n
ver ted
Ġk ey
ĠS weet
ĠS ince
ĠS EC
ĠS wear
ad s
ad em
ro ve
id es
id ent
id ence
id night
ĠL ords
ĠL eft
Ġas k
ĠM us
ĠM ah
ĠC l
ĠC han
ĠC har
ur t
Ġwh ite
if ul
ĠB RA
ĠB efore
Ġan t
Ġan on
Ġan im
Ġan tic
est ed
Ġor b
Ġor d
ee l
ee m
us s
us pic
ĠP art
ĠP eace
ĠP LAT
Ġdo or
Ġcon sent
Ġsp ect
Ġsp ort
Ġsp ies
Ġsp eed
Ġsp here
il ing
il os
ĠF IR
ĠG ra
ĠG lo
ĠG RA
ĠG onzago
Ġsu lt
Ġde liver
Ġde gree
Ġso ld
Ġli est
pp ings
ĠN IG
Ġv ent
Ġv ul
Ġv ac
Ġv ouchsafe
Ġlo v
Ġlo ving
Ġlo vers
Ġlo ved
Ġlo fty
all echo
li es
li ve
ĠD is
ĠD oth
qu or
qu ite
lo qu
ĠV II
Ġno se
Ġno ise
Ġma st
Ġma gg
ust ious
Ġpl uck
Ġun w
Ġun pre
Ġun ction
Ġun ivers
Ġun known
Ġun fold
Ġun natural
Ġun seen
end o
ic ine
ul se
ĠTh ought
Ġher n
ig ns
os es
Ġr ing
Ġr ude
Ġr ash
Ġr ites
ĠTo gether
The n
Ġex act
Ġex cept
Ġex cellence
Ġex travagant
Ġpro ve
Ġpro cl
Ġpro dig
Ġpro ceed
ere st
Ġsee ing
Ġwhe el
to p
ĠY orick
Ġse p
Ġplay s
ag on
ag ain
Ġj ig
ort ed
Ġcan on
Ġcan st
ast ic
em ber
Ġne cess
Ġne eds
ans ies
Ġbl ack
Ġbl az
Ġtr ansl
Ġoff er
Ġoff ic
th is
Ġpre tend
Ġpre cious
Ġpre pare
ish ment
Ġqu ite
Ġpr int
Ġpr oud
Ġpr oof
Ġhat e
Ġwor ms
are s
Ġim press
Ġim med
ĠIn to
oul t
ĠWhe ther
Ġact s
Ġfl ood
Ġcha p
Ġcha ri
oll y
ist ory
Ġdid st
Ġapp lic
Ġapp arition
Ġapp rehension
Ġshe et
Ġab oard
the y
Ġper chance
Ġcomm end
Ġsa bles
Ġsa fety
Ġob sequ
TI ON
Ġen s
Ġen act
Ġhon ourable
Ġcall s
Ġdes k
Ġdes irous
ost ulate
Ġal ong
Ġal so
Ġal ready
Ġal titude
Ġpass ing
ĠWith in
Ġwhen ce
Ġcont ent
Ġcont ract
Ġcont empor
AR T
ap s
ĠJ uli
ret ion
ĠE V
Ġri v
Ġsc once
ab les
Ġany thing
Ġhear ing
ng then
Ġmar ch
Ġmar ried
Ġsw ear
Ġhow ever
Ġdisc har
Ġdisc overy
Ġdisc retion
Ġacc ustom
Ġch orus
Ġdr am
ĠWhere in
Ġrem ains
Ġdist in
Ġdist emper
Ġpray ers
Ġimp art
aw ful
ither s
Ġbra ve
Ġlong er
omet hing
Ġgi ves
urn ing
Ġsec recy
Th us
Ġra ven
ale ndar
Ġsk in
Ġfear ful
Ġhar sh
Ġdrink s
Ġtra vell
Ġbest ow
Ġfind s
Ġfell ows
Ġhold s
Ġgrief s
Ġfollow s
Ġpers ons
ĠĠĠĠĠĠĠĠĠĠĠĠĠĠĠĠĠĠĠĠĠĠĠĠĠĠĠĠ ĠĠĠ
SC O
rant s
ward s
Ġent er
Ġother wise
Ġtre ason
Ġtre acher
Ġsl ow
Ġsl ight
Ġway s
erm an
Ġform erly
Ġstand ing
ĠĠĠĠĠĠĠĠĠĠĠĠĠĠĠĠĠĠĠĠĠĠĠĠ ĠĠĠĠĠ
pos ed
tw ill
Ġcl ot
Ġhum ours
Ġbeli ef
Ġjo int
ove red
Ġsea l
Ġdra ws
Ġadv ance
Ġadv antage
Ġwar m
Ġple as
Ġret ire
ĠMar ch
Ġwis hes
Ġhour s
Ġgener ous
Ġgener ally
mir ched
iss ing
Ġfe et
Ġfe ather
Ġcol umb
Ġchan ce
Ġpati ent
Ġsub stant
Ġvis it
Ġseem ing
ĠJoh n
oc ulate
Ġaff air
ĠWill iam
Ġstrong ly
Ġconce ption
Ġvillain y
tra p
ĠEx cellent
Ġsm all
Ġsm iling
Ġsat ir
Ġwa ves
Ġopp os
Ġcount ry
Ġinter course
Ġinter pret
Ġgl ad
Ġgl ass
Ġoffend er
Ġoffend ed
Ġappear ance
Ġviol ent
Ġviol ence
Ġviol ets
AT H
Wh y
Wh ich
Ġid ea
Ġest ate
Ġest imate
Ġmin ister
Ġfun ctions
Ġcur rent
Ġpi pe
lect ed
Ġrec ord
Ġrec over
Ġreg ion
Ġkill ed
Ġliber t
ult ies
emp ered
Ġrose mary
Ġdamn Ãĥ
St and
ail ed
und ays
Ġmer cy
Ġmount ains
Ġcold ly
Ġcrown er
Ġdi adem
Ġthri ft
Ġinc est
idd its
Ġcomp are
Ġadd ed
Ġchur ch
Ġdread ful
av iare
aut us
Ġes pe
Ġmist ake
Ġborn e
Ġfret ful
Ġden y
Ġdire ct
Ġdanger ous
stant ly
Ġstar s
ĠPri est
Ġprof ane
Ġarm our
Ġcontin ent
Ġhorri d
Tw ere
cap e
cap able
Ġtend ers
Ġwin ter
vell ous
ĠAd ieu
cho ly
Ġval anced
Ġfac ulties
Ġdescri bed
Ġunderstand ing
ipp ing
Ġsol ic
Ġsens ible
Ġmed icine
Ġmeth inks
Ġwed d
Ġwant on
Ġwret ch
Ġfish monger
Ġcent ury
Ġcal amity
Ġcho ice
Ġdais y
Ġpol it
Ġle isure
ett le
Ġglo be
Ġeas ily
ĠCH ARLES
Ġmoder n
Ġconve yed
Ġcann on
Ġtru ly
Ġenc ounter
Ġoppress ion
Ġetern al
Ġsudden ly
CI SCO
last ing
Ġav oid
Ġsch ol
Ġfing ers
Ġcoup let
Ġdally ing
Ġpat ches
Ġpear l
Ġinnoc ent
amb ol
Ġstith y
Ġremark s
Ġconvers ation
ĠFRAN CISCO
Ġshr oud
quis ite
logg ats
Ġgold en
Ġquill ets
Ġchast e
Ġappare nt
ĠUns ifted
ĠHec uba
Ġdisclo s
Ġmurd erer
Ġemploy ment
Ġcircumst ance
MALON E
Point ing
Read s
ben on
hou sel
port ion
soe ver
ux ury
yper ion
Ġvers ion
Ġvenge ance
Ġ18 59
Ġtin ct
Ġted ious
Ġtea ch
Ġtard y
Ġtwe lve
Ġmoral ities
Ġmixt ure
enec a
Ġcro aking
Ġdrow ns
Ġpupp ets
Ġthro at
ĠTerm agant
Ġgift s
Ġhera ld
Ġmelan choly
ĠOsri c
ĠOlymp us
ĠSEC OND
ĠChar les
ĠPLAT FORM
Ġspect ators
ilos ophy
ĠFIR ST
Ġsult ry
ĠNIG HT
Ġvul gar
ĠVII I
Ġmagg ots
Ġprocl aim
Ġimmed iate
ĠJuli us
Ġaccustom ed
Ġtravell er
! ]
, )
? ]
A G
A K
A d
A r
B ar
B ER
B ene
B UR
C H
C on
D is
D ies
D enmark
D BUR
E F
E T
F alls
F lourish
G ra
G ain
G ood
G ER
G reen
G ED
H I
I m
I s
J ump
L ay
L ord
L ong
L AERTES
L ying
L arded
M ay
M AR
M eth
N D
N ym
O K
O f
O n
O ut
O ld
O US
O PHELIA
O ne
O OK
P er
P ages
R E
R IN
R ob
R ising
S its
S ince
S upp
S ax
T H
T ER
U D
U surp
V en
V ery
V ED
V ouchsafe
W S
W hose
Y ER
[ _
_ --
a ph
a wn
a fter
a ches
a pted
b s
b re
b on
b ea
b ra
b our
b out
b od
b red
b eth
b ute
b by
c o
c is
c er
c ar
c ing
c ra
c al
c her
c ould
c ame
c ons
c ont
c rows
c up
c ene
c und
c ram
d y
d re
d it
d one
d gment
e g
e v
e es
e am
e ous
e ated
e ffect
e cial
e bus
f it
f oot
f rom
f ound
f ather
f ru
f ied
f ling
g r
g ing
g an
g ent
g al
h ood
h ouse
h ym
i z
i ar
i our
i em
i pe
i que
j ig
k ly
k issing
l er
l ine
l ings
l ady
l awful
m et
m as
m ore
m ast
m ity
m ons
m ix
m aking
n or
n et
n al
n ance
o v
o y
o on
o pp
o be
o yal
p r
p it
p se
p ent
p ri
p id
p ur
p eak
p ose
p ass
p ated
p ial
p enter
p ostulate
r d
r t
r ue
r us
r one
r itt
r ite
r ÃĦ
r fume
s es
t r
t t
t hat
t om
t han
t ell
t ime
t ained
t orted
u g
u ct
u ri
u ven
u ally
u ption
u ries
v ol
v ation
v ious
v irt
v ily
v ail
v otion
v iour
w he
w er
w ood
w ant
w ig
w ho
w ere
w ark
w are
w rit
w here
w ounds
w right
y et
y oke
z en
Â ¡
Â ³
Ġ 3
Ġ ]
Ġ ing
Ġ ve
Ġ ir
Ġ 13
Ġ 20
Ġ ----
Ġt a
Ġt it
Ġt an
Ġt ur
Ġt une
Ġt aken
he t
he ar
Ġa g
Ġa y
Ġa st
Ġa im
Ġa id
Ġa pt
Ġa uspic
in ent
in ion
in ate
in Ãĥ
in ite
in ary
in ning
ou ble
ou ps
ou nce
Ġs or
Ġs our
Ġs ad
Ġs and
Ġs li
Ġs we
Ġs able
Ġs ave
Ġs ings
Ġs ix
Ġs now
Ġs ixt
Ġm ot
Ġm im
Ġm ir
Ġm ould
Ġm ess
Ġm ass
Ġm ason
Ġm ild
Ġm ute
Ġm ult
Ġm allecho
Ġm oult
re g
re l
re m
re s
re y
re ad
re ngthen
Ġw ot
Ġw ha
Ġw est
Ġw ink
Ġw ag
Ġw ake
Ġw ings
Ġw itt
Ġw ise
Ġw ary
Ġw ince
Ġw ring
Ġw har
Ġw ithers
Ġw ritt
ot ed
ot est
ot ous
ot age
ot tom
Ġthe atre
Ġo per
is p
er ing
er top
ha s
ha nd
._ --
it ure
it ings
it ful
it ated
it less
en et
en ious
en cy
Ġb ow
Ġb id
Ġb ore
Ġb reat
Ġb ran
Ġb ount
Ġb ab
Ġb aw
Ġb urns
Ġb ird
Ġb aker
Ġb oard
Ġb ourn
Ġb att
Ġb enef
Ġb ottom
on ed
or ial
Ġf at
Ġf ed
Ġf ut
Ġf our
Ġf ard
Ġf lo
Ġf ine
Ġf ran
Ġf ring
Ġf enc
Ġf ye
Ġf ennel
Ġf irm
Ġf olly
ll o
ll y
Ġc ra
Ġc ue
Ġc row
Ġc ry
Ġc ity
Ġc ross
Ġc aught
Ġc ool
Ġc oil
Ġc oun
Ġc entre
Ġc rew
Ġc ries
Ġc ounter
Ġc ollected
Ġc alendar
Ġc rants
Ġc uri
Ġc oted
not es
Ġd on
Ġd et
Ġd ue
Ġd il
Ġd ign
Ġd eare
Ġd aint
Ġd ying
Ġd upp
Ġd uring
Ġd uc
Ġd otage
Ġto il
Ġto pic
Ġp a
Ġp et
Ġp ith
Ġp our
Ġp est
Ġp il
Ġp un
Ġp eep
Ġp ace
Ġp ub
Ġp alm
Ġp ansies
Ġp enet
Ġl ot
Ġl ion
Ġl ea
Ġl and
Ġl ud
Ġl ab
Ġl oud
Ġl ying
Ġl ifted
Ġl ids
Ġl uxury
Ġl isp
Ġy on
Ġy es
Ġy ield
ar l
ar s
ar ing
ar ch
ar row
ar land
ar med
ing es
Ġh ill
Ġh ig
Ġh ouse
Ġh ilt
Ġh und
Ġh inges
at ri
at ic
at ure
at ute
at form
ed ing
ed ge
ed ience
Ġth ick
Ġth reat
Ġth ither
Ġth under
Ġth rone
an es
an ish
hat h
hat ch
st inate
ĠT ouch
ĠT ellus
am s
am ent
et les
ve al
om p
om in
om ination
Ġg ri
Ġg ro
Ġg ain
Ġg ame
Ġg rown
Ġg ird
Ġg reen
Ġg erman
Ġg ambol
Ġg arland
Ġhe ed
Ġhe els
Ġhe dge
se c
se amed
ce ased
ĠA m
ĠA cc
ĠA way
ĠA poll
ĠA ND
ĠH o
ĠH on
ĠH ap
ĠH erc
ĠH istory
ĠH yperion
ĠH OUS
Ġbe ha
Ġbe nd
Ġbe ast
Ġbe come
im part
le ction
le br
Ġn ill
Ġn ine
Ġn ort
Ġn ice
Ġn eare
Ġn umb
Ġn once
Ġn ames
Ġn erve
Ġn omination
Ġmy st
ent en
ut es
ut ies
ch is
ch ine
ch ment
Ġe ager
Ġe ats
Ġe vent
Ġe Book
Ġe cstasy
Ġe loqu
Ġe pit
Ġha p
Ġha ir
Ġha ps
Ġha lt
as ci
as hes
Ġme w
Ġme lt
Ġme asure
ĠW as
ĠW el
ir ling
ea se
ra ise
ra ws
ra ught
ra iture
ct er
ct or
_, .
ord o
ord er
ri ft
ri but
ri dgment
Ġfor ty
Ġfor ward
Ġfor get
Ġfor bid
Ġyour selves
our ge
oo ping
Ġst er
Ġst ing
Ġst ro
Ġst ud
Ġst ake
Ġst eep
Ġst alk
Ġst up
Ġst uff
Ġst aid
Ġst eel
al t
al most
her ly
her od
ĠO N
ĠO ssa
Ġre b
Ġre ar
Ġre se
Ġre ven
Ġre nder
Ġre ally
Ġre lish
Ġre veal
Ġwe ary
ver t
ĠThe nce
ĠThe ssa
ĠThe atre
Ġk in
Ġk ee
Ġk ettle
ĠS et
ĠS ome
ĠS ave
ĠS ax
ĠS hould
ĠS undays
ĠS eneca
ĠS cene
ro pic
.) ;
.) --
ĠL A
ĠL ord
ĠL ong
ĠL eave
ĠL ove
ĠL OND
ĠL onger
Ġas ide
ĠM ur
ĠM ight
ĠM ine
ĠM other
ĠM ark
ĠM uch
ĠM erc
ĠM iss
ter nal
ĠC an
ĠC low
ur s
ur ch
ur ous
ur lish
ur bed
Ġwh ine
Ġwh iff
Ġwh ips
Ġwh ilst
ue l
ĠB ring
ĠB lack
ol er
ol ume
Ġan gel
Ġmo or
Ġmo de
Ġor chard
Ġor isons
Ġor gan
ck now
ee ven
us es
ĠP A
ĠP er
ĠP ER
ĠP ale
ĠP LA
ĠP RIN
ĠP atri
ge on
ge ls
Ġdo ve
Ġdo ors
Ġdo oms
Ġdo zen
Ġcon c
Ġcon n
Ġcon v
Ġcon ject
Ġcon cl
Ġcon gre
Ġcon verted
Ġcon stantly
Ġsp end
Ġsp ec
Ġsp oke
Ġsp oken
ĠR E
ĠR em
ĠR ap
ĠR oman
ĠR ob
ĠR oyal
il es
il ed
il ess
il ful
il iar
ĠF ard
ĠF ear
ĠF ell
ĠF ort
ĠF ran
ĠF riend
ĠF irst
ĠF rame
ĠF ye
ĠG ree
ĠG utenberg
Ġsu ng
Ġsu gg
ight ed
Ġde w
Ġde er
Ġde lay
Ġde ject
Ġde part
Ġde ceived
Ġde votion
Ġde ceased
Ġso ci
Ġso lem
Ġso oner
ain ing
Ġsha d
Ġsha ke
Ġsha ping
Ġwill ing
Ġwill ingly
ous es
Ġli ef
Ġli ps
Ġli ken
Ġli quor
ss ary
let e
pp er
ĠN one
ĠN ares
Ġv ap
Ġv ie
Ġv antage
Ġv irgin
Ġv olume
Ġlo am
Ġlo ss
Ġlo ves
Ġlo bby
ers ways
li ed
li est
li ance
li eve
li gation
li gence
Ġall owed
Ġall eg
Ġsh own
Ġsh red
Ġsh oe
Ġsh ock
Ġsh uff
Ġsh ip
Ġsh oon
ĠD EN
ĠD ead
ĠD ep
ĠD ost
ĠD AL
ĠD anes
lo g
lo ve
lo gue
ĠV ul
ĠV alent
sel ess
Ġno bl
un ate
un ivers
Ġma chine
ĠHam blet
Ġpl ain
Ġpl atform
Ġpl edge
Ġus urp
Ġus ually
Ġwhat soever
Ġun st
Ġun ion
Ġun sp
Ġun less
Ġun ken
Ġun man
Ġun bated
Ġun anel
Ġun yoke
end s
end ed
ic y
ic ated
ic ians
ic rous
ul ty
ul ted
ĠTh ose
Ġher b
Ġher ns
Ġkn ee
Ġkn ight
Ġkn ock
Ġkn ees
ig ger
ich ing
Ġr ood
Ġr ant
Ġr ul
Ġr ise
Ġr ouse
Ġr ule
Ġr ugg
Ġr otten
Ġr ules
Ġr hym
Ġfa ire
Ġfa ces
ho arded
ho ebus
ect ancy
Ġex c
Ġex quisite
Ġcom b
Ġcom ment
Ġcom edy
Ġpro s
Ġpro phe
Ġpro pos
Ġpro du
Ġpro pri
Ġgo ing
ound ing
Ġthem e
Ġthem selves
Ġdis appointed
Ġmore over
Ġse ated
Ġman ner
Ġplay er
ud ed
ud gel
Ġknow s
Ġgood ly
ag ion
Ġj est
Ġj aw
Ġj ade
Ġj ourn
ort ing
Ġam ble
Ġam bit
Ġam big
ĠIt al
Ġpo st
Ġpo em
Ġpo ets
Ġpo cket
_; [
_; --
em ent
Ġar d
Ġne igh
Ġwould st
ans form
ans wer
Ġsay ing
Ġbl ame
Ġbl unt
Ġbl ank
Ġbl ister
Ġbl ush
Ġtr y
Ġtr ust
Ġtr ansform
Ġoff ences
th row
th rough
Ġpre c
Ġpre ced
Ġpre vent
Ġpre cept
ci ally
Ġqu ot
Ġqu ality
Ġqu iddits
Ġpr im
Ġpr ince
Ġpr ison
Ġgra ces
ry wig
Ġhat chment
Ġout live
Ġad o
Ġad ject
Ġad mit
Ġad ieu
Ġad apted
Ġact ing
Ġact ed
Ġact ors
Ġmust y
Ġfl at
Ġfl our
Ġfl aw
Ġfl ames
Ġfl ourish
Ġcha rit
Ġcha mber
ĠWh ile
Ġshould st
12 6
12 7
12 8
12 9
Ġapp eare
Ġapp roach
Ġshe d
Ġshe lf
oth ing
per ious
per ial
per ien
Ġab ru
Ġab ridgment
Ġnight s
the ir
Ġbet eem
ign ant
Ġper miss
Ġcomm une
ĠU se
Ġsa il
Ġsa fe
Ġsir s
Ġob tained
Ġob edience
Ġob ligation
Ġhea vily
Ġen g
Ġen em
Ġen cum
Ġen venom
Ġen erg
Ġen seamed
hi ef
Ġcall ing
Ġdes ce
Ġdes ign
Ġdes ert
Ġdes patch
13 0
13 1
13 2
13 3
13 4
13 5
13 6
13 7
13 8
13 9
Ġthen ce
Ġpass es
Ġpass eth
ĠK ean
Ġcont est
Ġcont raction
ap las
ĠJ ames
ĠJ uven
int s
Ġgent ry
ĠLet he
tes y
ĠE cstasy
Ġri otous
Ġsc ent
Ġsc old
Ġsc ope
Ġsc enes
Ġsc orns
Ġsc ourge
Ġheart s
Ġnat ive
Ġwhere on
Ġwhere fore
Ġwhere of
ab out
ru ct
Ġbr ook
ĠSt eeven
Ġconf ine
Ġconf usion
Ġconf erence
Ġconf ident
rown er
Ġday s
Ġmar vellous
Ġind icated
Ġgr ant
ĠEn c
Ġtw ain
Ġtw enty
Ġsw orn
Ġsw ift
Ġbre ast
Ġdisc uss
Ġch oose
Ġch oler
Ġcour tesy
ĠWhere on
be ard
be hind
Ġrem ain
Ġrem iss
ĠBe en
ĠBe hind
Ġdist ance
Ġdist rust
Ġdist ingu
Ġdist empered
Ġworld s
Ġimp oned
In oculate
land er
sw ord
Ġbra z
Ġbra cket
Ġfriend ship
Ġput s
urn ish
Ġsupp er
Ġsupp liance
Ġsec ure
Th ou
Th rows
gin s
Ġra re
Ġra ck
Ġra ge
Ġra ised
Ġra pier
Ġbod kin
Ġbod iless
Ġpurp les
Ġpurp oses
Ġint erest
Ġint ended
Ġhar t
Ġhar rows
Ġhar ping
:-- "
Ġtra il
Ġtra de
Ġbest owed
cl ine
Ġbu z
Ġfollow ed
Ġpers Ãĥ
Ġbea ver
Ġbea utified
ĠĠĠĠĠĠĠĠĠĠĠĠĠĠĠĠĠĠĠĠĠĠĠĠĠĠĠĠ ĠĠĠĠĠ
Ġlive liest
Ġblood y
Ġground lings
Ġsignif ies
Ġtre ble
Ġtre mble
Ġsent ence
Ġwind s
erm ine
Ġclo ak
Ġclo sing
Ġform er
ĠĠĠĠĠĠĠĠĠĠĠĠĠĠĠĠĠĠĠĠĠĠĠĠ ĠĠĠ
Ġpresent ment
14 0
14 1
14 2
ey s
Ġcor se
Ġcor oner
Ġcor resp
Ġcar rion
Ġph ilosophy
Ġhum ble
Ġhum orous
Ġevery thing
Ġass ist
estion able
Ġdef end
Ġdef ect
Ġdef eated
Ġjo in
Ġjo cund
Ġsea led
Ġover done
Ġdra ught
Ġlast ing
ĠPlay ers
ume ly
;-- _
Ġmon st
Ġwit ch
Ġwar ning
Ġwar like
Ġfool s
Ġple ased
Ġstran ger
Ġrep ent
Ġrep lies
ĠMar s
ĠGo vern
Ġbrain ish
rit hee
up ied
Ġwis est
ĠAn n
Ġvi ct
Ġjud ge
Ġcommand ment
Ġbrother s
ec uli
fe it
Ġtri al
Ġtri bute
Ġser ious
Ġser pent
Ġgall ed
Ġvis itation
Ġcharact ers
Ġimport ant
Ġimport ance
Ġimport unate
Ġperson age
Ġstrange ly
OR E
ac beth
oc ation
Ġaff ront
Ġsleep ing
Ġocc upied
Ġfee l
Ġlight s
Ġeffect s
Ġstrong est
Ġconce al
Ġvirt ues
Ġatt ach
Ġfavour ite
," --
me an
tra ged
ĠEx torted
Ġwa x
Ġwa iting
Ġfire s
Ġgl im
Ġhel met
Ġrel ation
Ġrel ished
Ġrel ative
ĠRe bell
ĠRe quite
Ġjust if
Ġoffend endo
Ġcourt ier
Ġcourt iers
Ġturn ed
Ġaffect ed
Ġsong s
Ġmin ute
Ġmin utes
Ġbon ny
Ġcur ls
Ġcur sed
Ġpi geon
Ġpri est
Ġsuit ing
Ġliber al
ult ure
Ġpoint s
Ġqui bble
Ġchar m
Ġchar Ãĥ
AN S
gu es
ner ly
Ġut most
Ġmer it
Ġmer ry
Ġop inion
Ġcunn ings
Ġdi p
Ġdrown ed
Ġdoubt ful
Ġinc or
lex ion
Ġnear ly
Ġhang ers
Ġstop s
Ġsuff ers
lic ate
Ġcomp ass
Ġperfect ion
ĠUn mix
Ġbreak s
Ġsecret s
Ġdream ing
Ġunderst ood
Ġconsider ation
Tr umpet
Tr umpets
Un pre
do ing
Ġes cape
Ġes pial
Ġtouch ing
Ġmus ick
Ġwonder ful
once it
Ġfrequ ent
Ġchi ld
Ġden ote
Ġdire ction
Ġdeep est
Ġbell ow
Ġbegin s
Ġhist orical
Ġrepresent ed
ĠPro ject
ĠPro bably
Ġshort ly
Ġexp el
Ġexp ectancy
Ġprof ound
Ġcontin ued
Ġcorru pted
Ġquiet ly
Ġquiet us
Tw as
cst acy
chan ge
nat ure
ole ment
sha w
sha ll
Ġignor ant
Ġtend er
Ġmis ery
Ġmis chief
Ġweak ness
Ġfore head
Ġfore know
Ġco at
Ġcr ime
Ġcr uel
Ġcap able
Ġdark ly
Ġdark est
ĠThan ks
ĠAd mit
ĠHer od
right ed
Ġforg ot
Ġstri ctly
Ġref ers
Ġref lection
ĠCon j
Ġsucc ess
Ġdel ight
Ġdel ights
Ġval ue
Ġpla ces
Ġuns mirched
Ġfac ulty
Ġarg al
Ġdescri bes
Ġbreed er
Ġaccent ed
Ġintrodu ction
Ġsubject s
Ġfeeling ly
IG GER
ip ation
ipp ed
low ers
mon y
mon ious
Ġer ring
Ġer uption
Ġsens es
Ġmeth ought
Ġmouth s
Ġwea sel
Ġwea pon
Ġwret ched
Ġbro ad
Ġbro ken
Ġbur st
Ġcent uries
Ġtoward s
Ġpit iful
Ġpol icy
Ġpos y
Ġpos itive
Ġinf ix
Ġinf inite
Ġincl in
Ġgu est
Ġhapp y
Ġforth with
Ġstart ed
Ġstruck en
Ġreck on
Ġreck less
Ġresol ve
Ġresol ution
ĠPl uck
ĠPl autus
Ġconj ure
Ġconj uring
Ġconve y
Ġvar i
orth y
Ġneg lected
Ġneg ligence
ansl ate
Ġtru ant
Ġperform ed
Ġaccord ing
Ġprivate ly
** *
Se ason
So ft
Tra ppings
âĢ ľ
Ġed ge
ĠEnter s
hen ish
Ġmut ine
Ġwood cock
Ġwild ly
._" ]
Ġbul k
Ġbul wark
Ġcat aplas
Ġcle ar
Ġdri ft
Ġdiv is
Ġdress ed
Ġpick ers
Ġpaint ings
ĠTr umpets
Ġbeho ld
Ġevil s
Ġstre ets
Ġreli ef
ific ations
Ġconst it
Ġconsequ ently
Ġconsequ ences
Ġsum mons
Ġallow ance
Ġunpro fit
Ġexist ence
Ġju ice
Ġamaz ement
Ġposs ess
Ġpress ure
Ġpronoun ced
Ġimper ial
Ġimper fect
Ġobject s
Ġcontri ve
Ġpurs u
Ġintell igence
Ġbuild s
Ġentertain ment
Ġmajest ies
Ġmajest ical
Ġliege men
Ġsimp les
Ġchief ly
Ret urning
fall en
Ġtro phy
Ġwan n
Ġwom b
Ġow l
Ġball ad
Ġfi ery
Ġfam iliar
Ġfet ters
Ġfil m
Ġfant asy
Ġfru its
Ġce lebr
Ġche er
Ġcow ards
Ġcreat ures
Ġcond olement
Ġcaut ious
Ġder ived
Ġdag ger
Ġdwell ing
Ġpot ent
Ġpor cup
Ġport raiture
arn ished
Ġinst rument
Ġinex perien
ĠTw o
ĠHyp ÃĦ
Ġbecom es
Ġelect ronic
Ġevid ently
Ġstea ling
Ġsteal ers
ĠMus icians
ĠMah omet
ĠCl own
ĠChan son
ĠBRA DBUR
Ġant ique
Ġanim al
Ġantic ipation
Ġorb Ãĥ
ĠGlo ssary
ĠGRA VED
Ġvent ages
Ġvac ant
Ġpluck s
Ġunw orthy
Ġunivers ity
Ġexact ly
Ġprodig al
Ġsep ulture
Ġnecess ary
Ġblaz on
Ġprint ed
Ġimpress ed
Ġchari est
Ġapplic able
Ġobsequ ious
TION S
Ġcontempor aries
ĠEV ANS
Ġriv als
Ġdischar ge
Ġdistin ctions
Ġfellows hip
Ġenter pr
Ġtreacher ous
Ġadvance ment
Ġpleas ures
Ġcolumb ines
Ġsubstant ive
Ġsatir ical
Ġcurrent s
Ġrecord ers
Ġlibert ine
Ġincest uous
Ġespe cially
Ġprofane ly
Ġsolic itings
Ġwedd ings
Ġwanton ness
Ġschol astic
Ġcouplet s
Ġshroud ing
Ġproclaim s
AG E
Bene ath
Con fess
MAR K
Nym ph
Rob ustious
Supp orting
Ven om
bea utified
cra ft
dre ams
effect ual
mast er
ov Ãĥ
virt ues
vail ing
whe l
Ġ20 0
Ġast on
Ġsor ry
Ġsour ce
Ġsand al
Ġsli p
Ġswe at
Ġsixt e
Ġmot ive
Ġmess en
Ġmild ew
read ing
Ġwha le
Ġwink ing
Ġwitt ingly
Ġwhar f
Ġwritt en
Ġoper ant
Ġbran ches
Ġbab y
Ġfut ure
Ġfard els
Ġfran kly
Ġfenc ing
Ġcoun sel
Ġcounter feit
Ġcuri ously
Ġdet ermine
Ġdil igence
Ġdign ity
Ġdeare st
Ġdaint ier
Ġpest il
Ġpun ishment
Ġlud icrous
Ġhilt s
Ġhund red
Ġthreat en
ĠTouch ing
Ġgird le
Ġgarland s
ĠApoll o
ĠHap ly
ĠHerc ules
ĠHOUS E
Ġneare r
Ġnumb ers
Ġevent s
Ġepit het
ĠWel come
ribut ed
herod s
ĠThessa ly
Ġkee ps
ropic ally
ĠLOND ON
ĠMur der
ĠMerc ury
ĠClow ns
cknow led
ĠPER FORM
ĠPLA YER
ĠPatri ck
ĠRob in
ĠFran cis
ĠFriend s
ĠGree ks
Ġsoci ety
Ġsolem n
Ġliken ess
Ġalleg iance
Ġshred s
ĠDEN MARK
ĠDAL Y
ĠVul can
ĠValent ine
Ġunken nel
Ġherns haw
Ġrugg ed
Ġrhym es
Ġfaire st
Ġpropos er
Ġpropri ety
Ġambit ious
Ġneigh bour
Ġblunt ed
Ġprecept s
Ġadject ive
Ġcharit able
Ġappeare d
Ġabru pt
Ġpermiss ion
Ġencum ber
Ġenerg ies
ĠJuven al
ĠSteeven s
Ġdistingu ish
Ġcorresp ond
ĠGovern ment
eculi ar
ĠRebell ious
Ġespial s
Ġforeknow ing
Ġcataplas m
Ġunprofit able
Ġcelebr ated
Ġporcup ine
Ġinexperien ced
ĠBRADBUR Y
ĠGRAVED IGGER
