{"<s>":0,"<pad>":1,"</s>":2,"<unk>":3,"<mask>":4,"!":5,"\"":6,"#":7,"$":8,"%":9,"&":10,"'":11,"(":12,")":13,"*":14,"+":15,",":16,"-":17,".":18,"/":19,"0":20,"1":21,"2":22,"3":23,"4":24,"5":25,"6":26,"7":27,"8":28,"9":29,":":30,";":31,"<":32,"=":33,">":34,"?":35,"@":36,"A":37,"B":38,"C":39,"D":40,"E":41,"F":42,"G":43,"H":44,"I":45,"J":46,"K":47,"L":48,"M":49,"N":50,"O":51,"P":52,"Q":53,"R":54,"S":55,"T":56,"U":57,"V":58,"W":59,"X":60,"Y":61,"Z":62,"[":63,"\\":64,"]":65,"^":66,"_":67,"`":68,"a":69,"b":70,"c":71,"d":72,"e":73,"f":74,"g":75,"h":76,"i":77,"j":78,"k":79,"l":80,"m":81,"n":82,"o":83,"p":84,"q":85,"r":86,"s":87,"t":88,"u":89,"v":90,"w":91,"x":92,"y":93,"z":94,"{":95,"|":96,"}":97,"~":98,"¡":99,"¢":100,"£":101,"¤":102,"¥":103,"¦":104,"§":105,"¨":106,"©":107,"ª":108,"«":109,"¬":110,"®":111,"¯":112,"°":113,"±":114,"²":115,"³":116,"´":117,"µ":118,"¶":119,"·":120,"¸":121,"¹":122,"º":123,"»":124,"¼":125,"½":126,"¾":127,"¿":128,"À":129,"Á":130,"Â":131,"Ã":132,"Ä":133,"Å":134,"Æ":135,"Ç":136,"È":137,"É":138,"Ê":139,"Ë":140,"Ì":141,"Í":142,"Î":143,"Ï":144,"Ð":145,"Ñ":146,"Ò":147,"Ó":148,"Ô":149,"Õ":150,"Ö":151,"×":152,"Ø":153,"Ù":154,"Ú":155,"Û":156,"Ü":157,"Ý":158,"Þ":159,"ß":160,"à":161,"á":162,"â":163,"ã":164,"ä":165,"å":166,"æ":167,"ç":168,"è":169,"é":170,"ê":171,"ë":172,"ì":173,"í":174,"î":175,"ï":176,"ð":177,"ñ":178,"ò":179,"ó":180,"ô":181,"õ":182,"ö":183,"÷":184,"ø":185,"ù":186,"ú":187,"û":188,"ü":189,"ý":190,"þ":191,"ÿ":192,"Ā":193,"ā":194,"Ă":195,"ă":196,"Ą":197,"ą":198,"Ć":199,"ć":200,"Ĉ":201,"ĉ":202,"Ċ":203,"ċ":204,"Č":205,"č":206,"Ď":207,"ď":208,"Đ":209,"đ":210,"Ē":211,"ē":212,"Ĕ":213,"ĕ":214,"Ė":215,"ė":216,"Ę":217,"ę":218,"Ě":219,"ě":220,"Ĝ":221,"ĝ":222,"Ğ":223,"ğ":224,"Ġ":225,"ġ":226,"Ģ":227,"ģ":228,"Ĥ":229,"ĥ":230,"Ħ":231,"ħ":232,"Ĩ":233,"ĩ":234,"Ī":235,"ī":236,"Ĭ":237,"ĭ":238,"Į":239,"į":240,"İ":241,"ı":242,"Ĳ":243,"ĳ":244,"Ĵ":245,"ĵ":246,"Ķ":247,"ķ":248,"ĸ":249,"Ĺ":250,"ĺ":251,"Ļ":252,"ļ":253,"Ľ":254,"ľ":255,"Ŀ":256,"ŀ":257,"Ł":258,"ł":259,"Ń":260,"ĠĠ":261,"čĊ":262,"Ġt":263,"he":264,"Ġa":265,"in":266,"ou":267,"Ġs":268,"ĠĠĠ":269,"Ġ_":270,"Ġm":271,"re":272,"Ġw":273,"ot":274,"Ġthe":275,"ĠĠĠĠ":276,"Ġo":277,"is":278,"er":279,"ha":280,"nd":281,"._":282,"it":283,"ĠI":284,"en":285,"Ġb":286,"on":287,"or":288,"Ġf":289,"ll":290,"Ġc":291,"es":292,"Ġof":293,"not":294,"Ġd":295,"Ġto":296,"Ġp":297,"Ġl":298,"Ġy":299,"ar":300,"ing":301,"Ġyou":302,"Ġh":303,"Ġ[":304,"at":305,"ed":306,"Ġth":307,"Ġand":308,"an":309,"hat":310,"ĠĠĠĠĠĠĠĠ":311,".]":312,"Ġin":313,"st":314,"ĠT":315,"am":316,"et":317,"ve":318,"ow":319,"om":320,"oot":321,"Ġg":322,"note":323,"Ġhe":324,"ootnote":325,"Footnote":326,"se":327,"ce":328,"ĠA":329,"ay":330,"ĠH":331,"Ġbe":332,"im":333,"le":334,"Ġn":335,"Ġis":336,"Ġmy":337,"ent":338,"Ġit":339,"ut":340,"ion":341,"ith":342,"ch":343,"Ġe":344,"Ġha":345,"as":346,"Ġu":347,"Ġme":348,"ld":349,"gh":350,"ĠW":351,"Ham":352,"--":353,"Ġnot":354,"ir":355,"'s":356,"ea":357,"ra":358,"Ġhis":359,"ct":360,"_,":361,"Ġthat":362,"ord":363,"Ġ(":364,"Ġwith":365,"ly":366,"ri":367,"Ġfor":368,"Ġyour":369,"ill":370,"ĠII":371,"ght":372,"our":373,"oo":374,"Ġst":375,"al":376,"her":377,"ĠO":378,"Ġre":379,"Ġwe":380,"ver":381,"ĠThe":382,"Ġk":383,"ĠS":384,"ad":385,"ro":386,"Ġthis":387,"Ġon":388,".)":389,"id":390,"ĠL":391,"Ġas":392,"._]":393,"and":394,"ĠM":395,"ter":396,"ĠC":397,"ur":398,"Ġhim":399,"_]":400,"ke":401,"Ġwh":402,"Ġlord":403,"ome":404,"ue":405,"if":406,"ĠB":407,"ol":408,"Ġan":409,"Ġmo":410,"est":411,"'d":412,"Ġor":413,"ĠAnd":414,"ck":415,"Ġ[_":416,"ĠĠĠĠĠĠĠĠĠĠĠĠĠĠĠĠ":417,"ĠIII":418,"ee":419,"us":420,"ould":421,"Ġhave":422,"ĠP":423,"ge":424,"ess":425,"Ġdo":426,"Ġcon":427,"Ġsp":428,"_,]":429,"ĠR":430,"il":431,"ĠF":432,"ĠG":433,"Ġsu":434,",[":435,"ight":436,"Ġde":437,"._,":438,"Ġby":439,"Ġwas":440,"Ġso":441,"ain":442,"ven":443,"Ġsha":444,"Ġwill":445,"Ġthou":446,"ood":447,"rom":448,"ous":449,"out":450,"Ġli":451,"ss":452,"let":453,"pp":454,"ĠN":455,"Ġare":456,"Ġv":457,"Ġlo":458,"art":459,"ant":460,".[":461,"ers":462,"ĠĠĠĠĠ":463,"all":464,"li":465,"Ġbut":466,"Ġall":467,"Ġsh":468,"Ġshall":469,"ĠD":470,"ble":471,"ard":472,"qu":473,"ind":474,"lo":475,"ĠV":476,"sel":477,"Ġno":478,"un":479,"Ġma":480,"Ġfrom":481,"ĠHam":482,"ust":483,"Ġat":484,"ear":485,"ive":486,"Ġpl":487,"Ġus":488,"ĠHamlet":489,"Ġwhat":490,"Ġun":491,"EN":492,"end":493,"um":494,"ic":495,"ul":496,"ure":497,"han":498,"King":499,"ell":500,"row":501,"ĠTh":502,"ation":503,"Ġher":504,"ine":505,"Ġkn":506,"ig":507,"ich":508,"Ġthy":509,"ueen":510,"Ġ'":511,"os":512,"Ġr":513,"Ġfa":514,"ĠTo":515,"ho":516,"ĠThat":517,"Ġup":518,"The":519,"ect":520,"ence":521,"self":522,"Ġex":523,"En":524,"Ġcom":525,"ĠBut":526,"Hor":527,"ong":528,"ate":529,"Ġpro":530,"very":531,"Ġour":532,"aer":533,"ime":534,"eak":535,"ere":536,"ore":537,"Ġgo":538,"Ex":539,"Pol":540,"ound":541,"'ll":542,"Ġthem":543,"Ġdis":544,"ather":545,"Ġsee":546,"Ġwhe":547,"other":548,"Ġmore":549,"ink":550,"ĠWhat":551,"to":552,"ĠY":553,"Ġse":554,"Ġmad":555,"Ġwhich":556,"Queen":557,"Ġtime":558,"Ġman":559,"one":560,"Ġplay":561,"ph":562,"ud":563,"Ġthere":564,"Ġking":565,"ER":566,"Ġknow":567,"RA":568,"Ġgood":569,"ag":570,"Ġj":571,"Ġmay":572,"ort":573,"Ġcan":574,"ff":575,"ance":576,"ast":577,"Ġam":578,"ĠIV":579,"Ġcome":580,"ame":581,"ook":582,"ies":583,"ĠIt":584,"Ġpo":585,"'t":586,"10":587,"_;":588,"age":589,"em":590,"Ġar":591,"ĠĠĠĠĠĠĠĠĠĠĠĠ":592,"Ġne":593,"we":594,"Ġwould":595,"ans":596,"Ġhere":597,"ef":598,"kes":599,"ose":600,"Ġsay":601,"Ġbl":602,"Ġfather":603,"Ġlove":604,"ĠThis":605,"Ġvery":606,"Ġthan":607,"ass":608,"Ġwell":609,".--":610,"au":611,"pre":612,"Ġtr":613,"Ġtheir":614,"Ġoff":615,"Ġlet":616,"Enter":617,",--":618,"ment":619,"th":620,"Ġif":621,"Ġpre":622,"Ġmost":623,"11":624,"ci":625,"Ġthee":626,"Ġthey":627,"ish":628,"ark":629,"Ġspeak":630,"Ġqu":631,"Ġpr":632,"Ġgra":633,"Ġnow":634,"ĠMy":635,"Ġlike":636,"Laer":637,"ake":638,"nt":639,"ry":640,"Ġhat":641,"Ġout":642,"Ġwor":643,"LE":644,"Oph":645,"are":646,"ice":647,"old":648,"Ġim":649,"ĠIn":650,"cc":651,"pt":652,"oul":653,"Ġtoo":654,"ĠWhe":655,"able":656,"wn":657,"ity":658,"ns":659,"Ġad":660,"Ġact":661,"Ġmust":662,"Ġfl":663,"Ġcha":664,"ath":665,"ĠWh":666,"Ġ(_":667,"ĠClo":668,"Ġshould":669,"Ġmake":670,"Ġupon":671,"12":672,":[":673,"oll":674,"Ġword":675,"ist":676,"Ġdid":677,"ross":678,"ON":679,"gain":680,"Ġ\"":681,"Ġhad":682,"US":683,"ick":684,"Ġapp":685,"Ġshe":686,"Ġsome":687,"oth":688,"Ġwere":689,"_;]":690,"Ġhath":691,"el":692,"ire":693,"od":694,"per":695,"Ġab":696,"Ġthese":697,"Ġown":698,"ĠAs":699,"Ġnight":700,"ead":701,"ife":702,"ave":703,"ness":704,"the":705,"Ãĥ":706,"Ġbet":707,"ings":708,"Ġsuch":709,"ign":710,"host":711,":_]":712,"AM":713,"ber":714,"Ġagain":715,"its":716,"Ġper":717,"ati":718,"own":719,"eare":720,"ĠFor":721,"Ġcomm":722,"ak":723,"itt":724,"ĠHow":725,"ract":726,"Exit":727,";[":728,"ĠU":729,"Ġsa":730,"Ġsir":731,"Ġob":732,"ĠIf":733,"Ġthink":734,"Ġhea":735,"Ġone":736,"Ġwho":737,"ĠNo":738,"ĠYou":739,"LET":740,"TI":741,"ious":742,"uch":743,"reat":744,"AMLET":745,"ST":746,"ms":747,"tis":748,"Ġen":749,"Ġsoul":750,"Ġhon":751,"ĠSha":752,"rosses":753,"ep":754,"fore":755,"hi":756,"hing":757,"ty":758,"ull":759,"ves":760,"Ġcall":761,"Ġdes":762,"Ġinto":763,"Ġmeans":764,"13":765,"HE":766,"eed":767,"op":768,"ost":769,"peare":770,"Ġal":771,"Ġthen":772,"nder":773,"Ġpass":774,"atch":775,"Ġbeen":776,"ĠWith":777,"Ġwhen":778,"kespeare":779,"ĠShakespeare":780,"ORA":781,"To":782,"phe":783,"ran":784,"uil":785,"way":786,"ĠK":787,"ĠQ":788,"Ġmother":789,"ree":790,"ĠHe":791,"ĠHAMLET":792,"ĠWe":793,"ide":794,"Ġcont":795,"ĠWhy":796,"TIO":797,"ORATIO":798,"AR":799,"ap":800,"ĠJ":801,"int":802,"ret":803,"Ġpart":804,"Ġgent":805,"ĠSo":806,"ĠLet":807,"LON":808,"Mar":809,"ful":810,"mark":811,"sent":812,"tes":813,"ĠE":814,"Ġri":815,"ount":816,"Ġsc":817,"Ġlook":818,"Ġlife":819,"atter":820,"Ġgive":821,"Ġheart":822,"Ġnat":823,"eaven":824,"ady":825,"Ġwhere":826,"Ġmade":827,"ollow":828,"ab":829,"ru":830,"Ġtell":831,"Ġold":832,"ite":833,"Ġbr":834,"ory":835,"Ġdead":836,"Ġpur":837,"Ġey":838,"Ġhand":839,"riend":840,"ĠThere":841,"ĠSt":842,"Ġany":843,"Ġconf":844,"unt":845,"rown":846,"Ġheaven":847,".\"":848,"EEN":849,"IN":850,"IUS":851,"UEEN":852,"ise":853,"Ġday":854,"ated":855,"Ġhear":856,"ĠHORATIO":857,"ĠOphe":858,"ĠĠĠĠĠĠĠĠĠĠĠĠĠĠĠĠĠĠĠĠ":859,"ĠRO":860,"lia":861,"ears":862,"ERN":863,"press":864,"ĠOphelia":865,"OLON":866,"Ros":867,"che":868,"iv":869,"les":870,"ng":871,"ps":872,"Ġmar":873,"Ġmight":874,"Ġmine":875,"Ġind":876,"ets":877,"Ġgr":878,"ĠHeaven":879,"lem":880,"eave":881,"ction":882,"ĠLaer":883,"Ġthought":884,"Ġused":885,"ĠQUEEN":886,"OLONIUS":887,"ĠLaertes":888,"Crosses":889,"der":890,"ie":891,"ĠEn":892,"Ġtw":893,"Ġsw":894,"Ġmuch":895,"enmark":896,"Ġbre":897,"orati":898,"Ġhow":899,"Ġthus":900,"ĠHorati":901,"Ġcons":902,"Ġdeath":903,"Ġdisc":904,"RAN":905,"Ġcannot":906,"Ġgrave":907,"ĠHoratio":908,"ack":909,"ile":910,"led":911,"Ġacc":912,"ery":913,"._)":914,"ens":915,"ons":916,"Ġch":917,"Ġcour":918,"Ġdr":919,"uty":920,"esty":921,"eep":922,"Ġspir":923,"arth":924,"aught":925,"ĠWhere":926,"As":927,"be":928,"ced":929,"eunt":930,"sp":931,"Ġdown":932,"Ġleave":933,"cell":934,"Ġearth":935,"rief":936,"Ġrem":937,"ĠBe":938,"eech":939,"ĠPOLONIUS":940,"Ġdear":941,"ĠDenmark":942,"Ġdist":943,"Ġseen":944,"ffect":945,"ause":946,"Ġpray":947,"Ġworld":948,"Ġimp":949,"ĠKIN":950,"ĠKING":951,"In":952,"_.]":953,"aw":954,"ase":955,"ach":956,"cy":957,"ial":958,"land":959,"sw":960,"Ġset":961,"ress":962,"ither":963,"Ġbra":964,"Ġfriend":965,"Ġcould":966,"Ġput":967,"Ġlong":968,"Ġlitt":969,"omet":970,"Ġgi":971,"Ġbeing":972,"Ġwithout":973,"urn":974,"Ġhimself":975,"Ġsupp":976,"ally":977,"Ġsec":978,"weet":979,"Ġlittle":980,"DEN":981,"ES":982,"LDEN":983,"Th":984,"Tis":985,"gin":986,"ied":987,"lay":988,"Ġra":989,"Ġro":990,"Ġaway":991,"ough":992,"Ġmatter":993,"red":994,"ition":995,"Ġbod":996,"ary":997,"Ġthing":998,"ows":999,"Ġgreat":1000,"ĠAy":1001,"irst":1002,"ĠGU":1003,"Ġexpress":1004,"Exeunt":1005,"Ġtrue":1006,"STERN":1007,"Ġgentlem":1008,"Ġnature":1009,"Ġpurp":1010,"ĠEng":1011,"aughter":1012,"LDENSTERN":1013,"?[":1014,"CRAN":1015,"Ghost":1016,"ILDENSTERN":1017,"Os":1018,"SEN":1019,"TZ":1020,"ale":1021,"come":1022,"ger":1023,"ix":1024,"ject":1025,"less":1026,"ser":1027,"ince":1028,"Ġsk":1029,"Ġmind":1030,"ont":1031,"Ġfear":1032,"Ġdone":1033,"Ġyet":1034,"Ġthose":1035,"Ġint":1036,"Ġhar":1037,"ason":1038,"ĠOf":1039,"ĠOr":1040,"Ġansw":1041,"ĠNay":1042,"Ġfair":1043,"ween":1044,"Ġdrink":1045,"ĠGUILDENSTERN":1046,"CRANTZ":1047,"Osr":1048,"SENCRANTZ":1049,":--":1050,"?_]":1051,"Ber":1052,"Guil":1053,"ft":1054,"for":1055,"hind":1056,"ling":1057,"queen":1058,"Ġ&":1059,"Ġqueen":1060,"Ġtra":1061,"Ġsweet":1062,"ern":1063,"ert":1064,"ense":1065,"Ġbest":1066,"orn":1067,"Ġfind":1068,"Ġfell":1069,"Ġhold":1070,"Ġgrief":1071,"Ġhead":1072,"ently":1073,"Ġits":1074,"Ġmean":1075,"ĠWho":1076,"Ġnothing":1077,"ool":1078,"Ġonce":1079,"ĠMr":1080,"ĠCome":1081,"ĠDo":1082,"ĠWhen":1083,"Ġbetween":1084,"ĠROSENCRANTZ":1085,".,":1086,"_.":1087,"cl":1088,"gg":1089,"ild":1090,"igh":1091,"lt":1092,"nce":1093,"ond":1094,"Ġtake":1095,"Ġsign":1096,"Ġwatch":1097,"ĠIs":1098,"Ġbu":1099,"Ġboth":1100,"Ġfollow":1101,"Ġdaughter":1102,"Ġpers":1103,"eth":1104,"Ġbea":1105,"Ġear":1106,"alk":1107,"ĠĠĠĠĠĠĠĠĠĠĠĠĠĠĠĠĠĠĠĠĠĠĠĠĠĠĠĠ":1108,"Ġthough":1109,"Ġlive":1110,"ude":1111,"Ġblood":1112,"Ġeyes":1113,".\"]":1114,"Ġground":1115,"Ġanswer":1116,"Ġsignif":1117,"IA":1118,"SC":1119,"TES":1120,"ces":1121,"pe":1122,"pon":1123,"rant":1124,"ted":1125,"ving":1126,"ward":1127,"Â¨":1128,"Ġi":1129,"Ġent":1130,"Ġother":1131,"Ġtre":1132,"oub":1133,"ouch":1134,"Ġsl":1135,"Ġsent":1136,"Ġsame":1137,"Ġsomet":1138,"Ġway":1139,"Ġwind":1140,"erm":1141,"ors":1142,"orrow":1143,"Ġfree":1144,"Ġclo":1145,"nother":1146,"Ġnor":1147,"uth":1148,"Ġend":1149,"Ġhas":1150,"Ġform":1151,"Ġstand":1152,"Ġstate":1153,"vers":1154,"ĠĠĠĠĠĠĠĠĠĠĠĠĠĠĠĠĠĠĠĠĠĠĠĠ":1155,"Ġdoes":1156,"ĠGive":1157,"Ġmadness":1158,"Ġsays":1159,"Ġpresent":1160,"Ġwords":1161,"Ġindeed":1162,"Ġexpression":1163,"!--":1164,"14":1165,"AER":1166,"For":1167,"LIA":1168,"PHE":1169,"con":1170,"ey":1171,"eve":1172,"night":1173,"oe":1174,"ock":1175,"pos":1176,"ring":1177,"tw":1178,"ved":1179,"Ġanother":1180,"ought":1181,"Ġsense":1182,"har":1183,"Ġfirst":1184,"Ġcl":1185,"Ġcor":1186,"Ġcar":1187,"Ġdre":1188,"Ġph":1189,"Ġhum":1190,"Ġbeli":1191,"Ġitself":1192,"ute":1193,"Ġevery":1194,"Ġhast":1195,"Ġuse":1196,"ried":1197,"ĠSp":1198,"Ġass":1199,"iff":1200,"Ġanci":1201,"estion":1202,"Ġspeech":1203,"ĠGood":1204,"Ġdef":1205,"ump":1206,"ical":1207,"Ġcomes":1208,"Ġjo":1209,"Ġtwo":1210,"Ġspirit":1211,"AERTES":1212,"PHELIA":1213,"15":1214,"And":1215,"CE":1216,"ace":1217,"fter":1218,"ged":1219,"ian":1220,"ove":1221,"oil":1222,"rong":1223,"well":1224,"Ġair":1225,"Ġsea":1226,"Ġmur":1227,"ren":1228,"ĠĠĠĠĠĠĠ":1229,"Ġover":1230,"ison":1231,"Ġdra":1232,"Ġlast":1233,"Ġlady":1234,"ank":1235,"ĠAt":1236,"ĠHere":1237,"Ġem":1238,"Ġunder":1239,"irt":1240,"ĠPlay":1241,"unn":1242,"Ġmaj":1243,"ustom":1244,"ume":1245,"rows":1246,"Ġface":1247,"ered":1248,"ĠYour":1249,"ĠĠĠĠĠĠĠĠĠĠĠĠĠĠĠ":1250,"Ġadv":1251,"Ġbetter":1252,"Ġcommon":1253,"Ġsaid":1254,"Ġgiven":1255,"Ġbody":1256,"Ġpurpose":1257,"![":1258,";--":1259,"With":1260,"get":1261,"lish":1262,"rist":1263,"ther":1264,"tend":1265,"ura":1266,"ws":1267,"with":1268,"Ġill":1269,"Ġmon":1270,"Ġwit":1271,"Ġwar":1272,"erc":1273,"ener":1274,"Ġfar":1275,"Ġfool":1276,"Ġcause":1277,"Ġple":1278,"Ġho":1279,"oman":1280,"Ġstran":1281,"ĠOPHELIA":1282,"Ġrep":1283,"Ġret":1284,"verb":1285,"Ġonly":1286,"ĠLAERTES":1287,"ĠMar":1288,"Ġwhile":1289,"ĠGo":1290,"venge":1291,"Ġlie":1292,"ĠNow":1293,"Ġshow":1294,"Ġunc":1295,"ENE":1296,"Ġpoor":1297,"Ġart":1298,"Ġnever":1299,"Ġabout":1300,"Ġagainst":1301,"hip":1302,"Ġright":1303,"ches":1304,"cellent":1305,"Ġbrain":1306,"ĠEngland":1307,"form":1308,"SCENE":1309,"),":1310,"18":1311,"gment":1312,"ks":1313,"ls":1314,"of":1315,"oh":1316,"rit":1317,"up":1318,"Ġtong":1319,"oud":1320,"Ġwis":1321,"Ġduty":1322,"Ġhour":1323,"Ġgone":1324,"Ġgener":1325,"ĠAn":1326,"leep":1327,"Ġname":1328,"Ġever":1329,"ash":1330,"rase":1331,"Ġyourself":1332,"Ġrest":1333,"Ġkind":1334,"aint":1335,"Ġvi":1336,"Ġnoble":1337,"une":1338,"ung":1339,"Ġmakes":1340,"ument":1341,"Ġproverb":1342,"Ġtherefore":1343,"Ġjud":1344,"ĠĠĠĠĠĠĠĠĠĠĠĠĠĠĠĠĠ":1345,",----":1346,"Ġgrace":1347,"Ġwork":1348,"ption":1349,"Ġcommand":1350,"ĠUpon":1351,"Ġpassion":1352,"Ġbrother":1353,"Ġthoughts":1354,"Ġsword":1355,"Ġconsid":1356,"Ġsuppos":1357,"Ġphrase":1358,"20":1359,"LL":1360,"cri":1361,"cess":1362,"dd":1363,"ec":1364,"fe":1365,"fect":1366,"ier":1367,"ius":1368,"lcome":1369,"mir":1370,"most":1371,"sol":1372,"ship":1373,"vour":1374,"ying":1375,"ĠKing":1376,"Ġtri":1377,"Ġafter":1378,"iness":1379,"oun":1380,"Ġser":1381,"iss":1382,"Ġfe":1383,"Ġcol":1384,"Ġchan":1385,"Ġpati":1386,"Ġthine":1387,"ĠTHE":1388,"Ġgall":1389,"ceive":1390,"Ġbefore":1391,"entre":1392,"Ġeven":1393,"Ġeach":1394,"ourse":1395,"ĠOF":1396,"Ġwhose":1397,"ĠBy":1398,"ĠĠĠĠĠĠĠĠĠĠĠĠĠĠĠĠĠĠĠĠĠ":1399,"ĠGhost":1400,"Ġsub":1401,"ĠNot":1402,"ĠNor":1403,"Ġvis":1404,"ants":1405,"umb":1406,"Ġround":1407,"Ġfaith":1408,"Ġseem":1409,"ager":1410,"Ġbless":1411,"cious":1412,"Ġflow":1413,"Ġcharact":1414,"Ġwhole":1415,"Ġhonour":1416,"ĠJoh":1417,"ably":1418,"Ġhands":1419,"Ġremem":1420,"Ġimport":1421,"Ġgentleman":1422,"Ġperson":1423,"Ġbelieve":1424,"iffere":1425,"rench":1426,"ural":1427,"Ġstrange":1428,"Ġuncle":1429,"Ġtongue":1430,"Ġsupposed":1431,"!_]":1432,"24":1433,"27":1434,"33":1435,"37":1436,"41":1437,"47":1438,"50":1439,"59":1440,"CT":1441,"How":1442,"OR":1443,"ac":1444,"act":1445,"but":1446,"com":1447,"dom":1448,"oc":1449,"oint":1450,"ras":1451,"rance":1452,"ten":1453,"vil":1454,"yr":1455,"hed":1456,"Ġaff":1457,"Ġauth":1458,"ouse":1459,"Ġson":1460,"Ġsleep":1461,"Ġmen":1462,"Ġwalk":1463,"Ġocc":1464,"ister":1465,"onius":1466,"Ġfee":1467,"Ġfall":1468,"Ġcame":1469,"Ġcustom":1470,"Ġpow":1471,"Ġless":1472,"Ġlight":1473,"ater":1474,"Ġheard":1475,"ĠHave":1476,"imes":1477,"Ġeffect":1478,"ĠWill":1479,"Ġwithin":1480,"illain":1481,"Ġstrong":1482,"Ġwelcome":1483,"Ġkeep":1484,"ĠLook":1485,"ĠMAR":1486,"ĠPol":1487,"Ġconce":1488,"ĠFrench":1489,"Ġsun":1490,"Ġvirt":1491,"Ġvillain":1492,"Ġlost":1493,"Ġatt":1494,"Ġfavour":1495,"There":1496,"Ġplayers":1497,"ages":1498,"Ġpoison":1499,"Ġaction":1500,"Ġobser":1501,"Ġhonest":1502,"Ġcourse":1503,"Ġbeauty":1504,"oubt":1505,"Ġsomething":1506,"CELL":1507,"Ġmurder":1508,"Ġmajesty":1509,"ĠMARCELL":1510,"ĠMARCELLUS":1511,",\"":1512,"16":1513,"17":1514,"19":1515,"21":1516,"22":1517,"23":1518,"25":1519,"26":1520,"28":1521,"29":1522,"30":1523,"31":1524,"32":1525,"34":1526,"35":1527,"36":1528,"38":1529,"39":1530,"40":1531,"42":1532,"43":1533,"44":1534,"45":1535,"46":1536,"48":1537,"49":1538,"51":1539,"52":1540,"53":1541,"54":1542,"Be":1543,"He":1544,"You":1545,"bit":1546,"band":1547,"bably":1548,"de":1549,"du":1550,"ience":1551,"ken":1552,"me":1553,"ne":1554,"now":1555,"tra":1556,"uck":1557,"ĠEx":1558,"ĠQueen":1559,"Ġtill":1560,"Ġtears":1561,"here":1562,"Ġsm":1563,"Ġsat":1564,"Ġsince":1565,"Ġsorrow":1566,"Ġwa":1567,"Ġwoman":1568,"Ġopp":1569,"Ġfal":1570,"Ġfire":1571,"Ġcount":1572,"Ġlaw":1573,"Ġyoung":1574,"Ġhus":1575,"ane":1576,"ĠĠĠĠĠĠĠĠĠĠ":1577,"Ġinter":1578,"Ġgl":1579,"Ġguil":1580,"Ġhel":1581,"Ġbear":1582,"Ġbehind":1583,"Ġmyself":1584,"Ġmem":1585,"Ġstill":1586,"Ġrel":1587,"Ġrevenge":1588,"ĠThen":1589,"ters":1590,"ury":1591,"urns":1592,"usion":1593,"ĠRe":1594,"ĠFrom":1595,"ĠFare":1596,"ĠDr":1597,"selves":1598,"ular":1599,"ures":1600,"Ġexcellent":1601,"Ġjust":1602,"Ġoffend":1603,"Ġappear":1604,"Ġcourt":1605,"Aside":1606,"Ġfriends":1607,"Ġfellow":1608,"gether":1609,"ristian":1610,"Ġviol":1611,"Ġcharacter":1612,"ĠPolonius":1613,"61":1614,"AT":1615,"But":1616,"If":1617,"Wh":1618,"What":1619,"bed":1620,"ex":1621,"gn":1622,"ily":1623,"ike":1624,"over":1625,"ub":1626,"ught":1627,"Â©":1628,"Ġid":1629,"Ġest":1630,"Ġturn":1631,"Ġterm":1632,"hes":1633,"Ġaffect":1634,"ination":1635,"Ġsim":1636,"Ġsong":1637,"Ġmin":1638,"Ġmark":1639,"Ġwater":1640,"ĠIN":1641,"ene":1642,"Ġbon":1643,"Ġbed":1644,"Ġbus":1645,"Ġfun":1646,"Ġfig":1647,"Ġfoil":1648,"Ġfash":1649,"Ġcur":1650,"Ġdam":1651,"Ġdoth":1652,"Ġpi":1653,"Ġpri":1654,"ats":1655,"Ġthings":1656,"ancy":1657,"lect":1658,"asion":1659,"eace":1660,"Ġstay":1661,"Ġstory":1662,"ĠOur":1663,"Ġrec":1664,"Ġreg":1665,"Ġkill":1666,"ĠSir":1667,"ade":1668,"ĠMad":1669,"ĠMake":1670,"ĠĠĠĠĠĠĠĠĠĠĠĠĠĠĠĠĠĠĠ":1671,"ession":1672,"ilt":1673,"Ġsuit":1674,"Ġdeed":1675,"Ġliber":1676,"Ġvo":1677,"Ġmaid":1678,"ult":1679,"ĠThou":1680,"Ġseems":1681,"Ġmany":1682,"Ġpoint":1683,"emp":1684,"Ġarras":1685,"Ġqui":1686,"nson":1687,"Ġchar":1688,"aking":1689,"Ġsaw":1690,"hile":1691,"Ġeye":1692,"iving":1693,"Ġrose":1694,"Ġgentlemen":1695,"Ġskull":1696,"ertain":1697,"position":1698,"tendants":1699,"Ġjudgment":1700,"Ġblessing":1701,"ĠJohnson":1702,"Ġhusband":1703,"Ġmemory":1704,"Ġfashion":1705,"Ġdamn":1706,"55":1707,"56":1708,"57":1709,"58":1710,"60":1711,"62":1712,"63":1713,"64":1714,"65":1715,"66":1716,"67":1717,"68":1718,"69":1719,"70":1720,"71":1721,"72":1722,"?--":1723,"AN":1724,"Fran":1725,"His":1726,"My":1727,"OM":1728,"St":1729,"_)":1730,"ail":1731,"crosses":1732,"ever":1733,"gu":1734,"gue":1735,"ible":1736,"king":1737,"lf":1738,"lse":1739,"med":1740,"man":1741,"ner":1742,"ners":1743,"onder":1744,"ront":1745,"rude":1746,"und":1747,"ual":1748,"upp":1749,"uff":1750,"vent":1751,"you":1752,"Ġ}":1753,"Ġut":1754,"Ġtable":1755,"Ġage":1756,"Ġaud":1757,"oup":1758,"Ġmer":1759,"Ġmom":1760,"Ġmount":1761,"rew":1762,"requ":1763,"Ġwife":1764,"Ġwoe":1765,"Ġwager":1766,"ĠĠĠĠĠĠĠĠĠ":1767,"Ġop":1768,"ished":1769,"enber":1770,"Ġbes":1771,"Ġfit":1772,"Ġfoul":1773,"Ġfull":1774,"Ġcold":1775,"Ġcrown":1776,"Ġcunn":1777,"Ġoft":1778,"Ġdi":1779,"Ġdull":1780,"Ġdrown":1781,"Ġdoubt":1782,"Ġpe":1783,"Ġpast":1784,"Ġlate":1785,"ingly":1786,"Ġhor":1787,"Ġhome":1788,"atin":1789,"ative":1790,"Ġthri":1791,"anger":1792,"Ġinc":1793,"ety":1794,"Ġheal":1795,"ĠHis":1796,"Ġbeard":1797,"lex":1798,"Ġnear":1799,"ions":1800,"Ġere":1801,"Ġelse":1802,"Ġhang":1803,"asy":1804,"Ġmeet":1805,"Ġfort":1806,"Ġstop":1807,"Ġreceive":1808,"Ġwear":1809,"ĠThey":1810,"adies":1811,"idd":1812,"ĠMore":1813,"Ġwhy":1814,"ĠPr":1815,"ĠGert":1816,"Ġsuff":1817,"lic":1818,"ĠDid":1819,"Ġplace":1820,"icular":1821,"Ġrank":1822,"They":1823,"Ġcomp":1824,"Ġprobably":1825,"Ġgoes":1826,"ĠYet":1827,"udes":1828,"agant":1829,"present":1830,"Ġquick":1831,"Ġquestion":1832,"pted":1833,"Ġadd":1834,"Ġperfect":1835,"ĠUn":1836,"Ġobey":1837,"Ġdesire":1838,"ope":1839,"Ġbring":1840,"Ġbreak":1841,"Ġchur":1842,"Ġspirits":1843,"spect":1844,"Ġsecret":1845,"Ġsecond":1846,"This":1847,"Ġhard":1848,"Ġfreely":1849,"Ġclose":1850,"Ġdream":1851,"Ġdread":1852,"ĠSpeak":1853,"Ġancient":1854,"Ġanciently":1855,"umpet":1856,"Ġjoy":1857,"ĠAttendants":1858,"Ġunderst":1859,"Ġconsider":1860,"Ġpatience":1861,"Ġoccasion":1862,"Ġvirtue":1863,"gnant":1864,"Ġbusiness":1865,"Ġvoice":1866,"Ġmoment":1867,"enberg":1868,"ĠGertrude":1869,"73":1870,"74":1871,"75":1872,"81":1873,"DO":1874,"No":1875,"Re":1876,"Tr":1877,"Un":1878,"av":1879,"ax":1880,"az":1881,"aut":1882,"air":1883,"aid":1884,"app":1885,"akes":1886,"cum":1887,"do":1888,"ew":1889,"las":1890,"ping":1891,"pic":1892,"ron":1893,"rung":1894,"son":1895,"set":1896,"use":1897,"uild":1898,"Â¦":1899,"Ġes":1900,"Ġtouch":1901,"Ġsit":1902,"Ġsound":1903,"Ġside":1904,"Ġmus":1905,"Ġmist":1906,"Ġwonder":1907,"ots":1908,"otion":1909,"Ġori":1910,"haps":1911,"ndeed":1912,"._}":1913,"ities":1914,"ĠIndeed":1915,"enc":1916,"Ġbook":1917,"Ġborn":1918,"once":1919,"Ġfur":1920,"Ġfret":1921,"Ġfrequ":1922,"Ġchi":1923,"Ġcens":1924,"Ġcup":1925,"Ġden":1926,"Ġdire":1927,"Ġdie":1928,"Ġdeep":1929,"Ġdanger":1930,"Ġpard":1931,"Ġpale":1932,"Ġlack":1933,"Ġyouth":1934,"Ġhigh":1935,"eds":1936,"stant":1937,"Ġghost":1938,"Ġhell":1939,"sequ":1940,"Ġbeg":1941,"Ġbell":1942,"Ġbegin":1943,"Ġease":1944,"Ġhabit":1945,"asure":1946,"ĠWould":1947,"ird":1948,"Ġhist":1949,"riage":1950,"ours":1951,"oof":1952,"oose":1953,"Ġstar":1954,"Ġstage":1955,"alm":1956,"Ġready":1957,"Ġreason":1958,"Ġrepresent":1959,"Ġweep":1960,"ĠThese":1961,"rodu":1962,"ĠLatin":1963,"Ġlordship":1964,"Ġmod":1965,"ĠĠĠĠĠĠĠĠĠĠĠĠĠĠĠĠĠĠ":1966,"ĠPri":1967,"ĠPro":1968,"ains":1969,"ousin":1970,"outh":1971,"Ġlose":1972,"alls":1973,"Ġallusion":1974,"Ġshort":1975,"Ġshows":1976,"ĠDane":1977,"arded":1978,"ĠVery":1979,"Ġherself":1980,"Ġfare":1981,"Ġexp":1982,"Ġprof":1983,"Ġprocess":1984,"Ġgod":1985,"ounds":1986,"Ġdisposition":1987,"Ġknown":1988,"emper":1989,"Ġarm":1990,"Ġarms":1991,"Ġnews":1992,"Ġoffence":1993,"ments":1994,"cience":1995,"Ġimage":1996,"Ġadmir":1997,"ĠWhich":1998,"Ġabove":1999,"ignor":2000,"aker":2001,"racted":2002,"Ġhonesty":2003,"Ġcalled":2004,"ways":2005,"Ġcontin":2006,"Ġparticular":2007,"ĠROOM":2008,"ched":2009,"ived":2010,"ctions":2011,"Ġchristian":2012,"ĠEnglish":2013,"Ġcorru":2014,"Without":2015,"Ġmonth":2016,"Ġplease":2017,"Ġbrains":2018,"Ġwisdom":2019,"Ġcolour":2020,"Ġauthor":2021,"Ġpower":2022,"Ġobserv":2023,"Ġhelp":2024,"Ġbones":2025,"Ġfoils":2026,"Ġquiet":2027,"Ġaudience":2028,"Ġhorri":2029,"Ġhealth":2030,"Ġfortune":2031,"Ġorigin":2032,"Ġcensure":2033,"Ġpardon":2034,":_":2035,"All":2036,"AST":2037,"By":2038,"FOR":2039,"II":2040,"Not":2041,"RI":2042,"Tw":2043,"]--":2044,"ais":2045,"bl":2046,"blet":2047,"cst":2048,"chan":2049,"cap":2050,"cause":2051,"course":2052,"day":2053,"dig":2054,"ept":2055,"full":2056,"hus":2057,"iers":2058,"ians":2059,"kn":2060,"kin":2061,"mit":2062,"mand":2063,"ning":2064,"nat":2065,"ole":2066,"pro":2067,"part":2068,"rough":2069,"rhus":2070,"sha":2071,"sar":2072,"tic":2073,"ule":2074,"uous":2075,"vy":2076,"ym":2077,"yal":2078,"Ġignor":2079,"Ġter":2080,"Ġten":2081,"Ġtend":2082,"hens":2083,"Ġaw":2084,"ines":2085,"Ġsy":2086,"Ġsing":2087,"Ġsight":2088,"Ġsister":2089,"Ġmis":2090,"Ġmort":2091,"Ġmorn":2092,"reen":2093,"Ġwin":2094,"Ġweak":2095,"Ġwilt":2096,"Ġodd":2097,"ised":2098,"itter":2099,"itation":2100,"itude":2101,"enst":2102,"Ġbar":2103,"Ġbent":2104,"Ġbrow":2105,"Ġback":2106,"oral":2107,"Ġfore":2108,"Ġfound":2109,"Ġfix":2110,"Ġco":2111,"Ġcr":2112,"Ġcap":2113,"Ġdust":2114,"Ġdark":2115,"Ġdiffere":2116,"Ġtold":2117,"Ġtogether":2118,"Ġpract":2119,"Ġpeace":2120,"Ġyear":2121,"Ġyears":2122,"Ġhot":2123,"Ġhither":2124,"Ġhope":2125,"ĠTill":2126,"ĠThan":2127,"ames":2128,"vell":2129,"owed":2130,"Ġgave":2131,"ceed":2132,"ĠAd":2133,"ĠHer":2134,"ĠHold":2135,"Ġbecause":2136,"Ġnone":2137,"Ġnunn":2138,"enter":2139,"cho":2140,"ased":2141,"----":2142,"eal":2143,"ries":2144,"right":2145,"Ġforg":2146,"Ġforms":2147,"Ġstri":2148,"ĠOne":2149,"Ġref":2150,"Ġread":2151,"ĠShe":2152,"ĠSuch":2153,"ander":2154,"ĠMust":2155,"ĠCon":2156,"ĠCÃĥ":2157,"ĠCAST":2158,"uring":2159,"ift":2160,"ified":2161,"ĠBERN":2162,"oles":2163,"Ġorder":2164,"ckons":2165,"ĠPyr":2166,"ilar":2167,"ĠGod":2168,"ĠGuild":2169,"Ġsucc":2170,"Ġdel":2171,"Ġdevil":2172,"ained":2173,"venom":2174,"Ġval":2175,"Ġvice":2176,"Ġlock":2177,"antity":2178,"liver":2179,"like":2180,"ards":2181,"Ġpla":2182,"Ġuns":2183,"ulate":2184,"ĠThus":2185,"Ġknave":2186,"Ġfac":2187,"Ġexerc":2188,"Ġproper":2189,"Ġseek":2190,"inks":2191,"Ġmadam":2192,"Ġarg":2193,"Ġnew":2194,"Ġthank":2195,"Ġquantity":2196,"Ġworn":2197,"Ġchair":2198,"ollect":2199,"OND":2200,"Ġappears":2201,"Ġdescri":2202,"Ġalone":2203,"Ġalmost":2204,"ARDO":2205,"ruck":2206,"ĠĠĠĠĠĠĠĠĠĠĠĠĠĠĠĠĠĠĠĠĠĠ":2207,"ĠĠĠĠĠĠĠĠĠĠĠĠĠĠĠĠĠĠĠĠĠĠĠ":2208,"Ġmarry":2209,"Ġmarriage":2210,"iece":2211,"Ġbreed":2212,"Ġbreath":2213,"Ġconscience":2214,"Ġdiscourse":2215,"Ġaccent":2216,"ixt":2217,"Ġintrodu":2218,"Ġburied":2219,"Ġears":2220,"Ġsignify":2221,"ĠĠĠĠĠĠĠĠĠĠĠĠĠĠĠĠĠĠĠĠĠĠĠĠĠĠ":2222,"conce":2223,"Ġemp":2224,"Ġadvice":2225,"Ġreturn":2226,"Ġgeneral":2227,"Ġproverbial":2228,"Ġserv":2229,"Ġsubject":2230,"Ġrememb":2231,"Ġremember":2232,"ointed":2233,"Ġfeeling":2234,"Ġfalse":2235,"ĠFarewell":2236,"Ġregard":2237,"Ġbeseech":2238,"Ġcunning":2239,"Ġpeop":2240,"Ġunderstand":2241,"Ġfurther":2242,"Ġadmiration":2243,"enstern":2244,"Ġpractice":2245,"Ġnunnery":2246,"ĠCASTLE":2247,"ĠBERNARDO":2248,"ĠPyrrhus":2249,"ĠGuildenstern":2250,"!_":2251,"76":2252,"77":2253,"78":2254,"79":2255,"80":2256,"82":2257,"95":2258,"An":2259,"Act":2260,"ACT":2261,"Come":2262,"ED":2263,"Have":2264,"IG":2265,"IR":2266,"It":2267,"LA":2268,"aim":2269,"aith":2270,"afe":2271,"bled":2272,"can":2273,"centre":2274,"eph":2275,"follow":2276,"gra":2277,"gation":2278,"his":2279,"how":2280,"ip":2281,"ipp":2282,"iance":2283,"ivers":2284,"kind":2285,"low":2286,"mon":2287,"maker":2288,"nel":2289,"oes":2290,"oke":2291,"oard":2292,"rous":2293,"rame":2294,"so":2295,"sand":2296,"safe":2297,"tha":2298,"ues":2299,"ued":2300,"uli":2301,"under":2302,"ugg":2303,"vid":2304,"vate":2305,"vagant":2306,"wk":2307,"what":2308,"will":2309,"wise":2310,"yp":2311,"yed":2312,"Ġer":2313,"Ġet":2314,"Ġnote":2315,"Ġver":2316,"Ġ15":2317,"Ġtimes":2318,"head":2319,"Ġaught":2320,"Ġsol":2321,"Ġsil":2322,"Ġsens":2323,"Ġmed":2324,"Ġmet":2325,"Ġmeth":2326,"Ġmouth":2327,"rent":2328,"reign":2329,"rehens":2330,"Ġwed":2331,"Ġwea":2332,"Ġwant":2333,"Ġwits":2334,"Ġwret":2335,"ises":2336,"erly":2337,"eral":2338,"nds":2339,"ites":2340,"enance":2341,"enry":2342,"Ġbro":2343,"Ġbur":2344,"Ġbos":2345,"Ġbitter":2346,"Ġfish":2347,"Ġcent":2348,"Ġcir":2349,"Ġcal":2350,"Ġcard":2351,"Ġcho":2352,"Ġcast":2353,"Ġcock":2354,"esh":2355,"Ġdumb":2356,"Ġdais":2357,"Ġtoward":2358,"Ġpit":2359,"Ġpol":2360,"Ġpos":2361,"Ġpiece":2362,"Ġle":2363,"Ġlay":2364,"Ġhit":2365,"ating":2366,"Ġthrow":2367,"Ġthrown":2368,"ĠĠĠĠĠĠĠĠĠĠĠ":2369,"ĠĠĠĠĠĠĠĠĠĠĠĠĠ":2370,"Ġinf":2371,"Ġincl":2372,"ĠTake":2373,"ett":2374,"vel":2375,"Ġgu":2376,"Ġget":2377,"Ġglo":2378,"Ġgrows":2379,"cept":2380,"ĠAr":2381,"ĠAre":2382,"ĠAct":2383,"ĠACT":2384,"ĠAlex":2385,"ĠAlas":2386,"ĠHad":2387,"ĠHath":2388,"ĠHenry":2389,"ents":2390,"Ġeas":2391,"Ġhapp":2392,"Ġhaving":2393,"Ġhalf":2394,"Ġhawk":2395,"ĠWell":2396,"ĠWitt":2397,"raw":2398,"raight":2399,"rable":2400,"ords":2401,"rial":2402,"riages":2403,"Ġforth":2404,"ourn":2405,"ourish":2406,"Ġstart":2407,"Ġstruck":2408,"alent":2409,"Ġreck":2410,"Ġresol":2411,"Ġkept":2412,"ĠSay":2413,"ĠSee":2414,".),":2415,"ĠLike":2416,"ĠMay":2417,"ĠMost":2418,"ĠCH":2419,"ĠCh":2420,"ĠCentre":2421,"urp":2422,"urative":2423,"Ġwholes":2424,"ifted":2425,"ĠBern":2426,"Ġmock":2427,"Ġmoder":2428,"ush":2429,"ĠPl":2430,"ĠPel":2431,"Ġdog":2432,"Ġconj":2433,"Ġconve":2434,"ĠRos":2435,"ĠFollow":2436,"Ġsudd":2437,"ights":2438,"Ġsoft":2439,"Ġthousand":2440,"ously":2441,"ssa":2442,"Ġvar":2443,"Ġvows":2444,"antage":2445,"Ġalludes":2446,"blem":2447,"ardo":2448,"arden":2449,"quest":2450,"Ġmaking":2451,"Ġuses":2452,"END":2453,"ĠThy":2454,"ĠThough":2455,"ations":2456,"Ġthyself":2457,"Ġrue":2458,"Ġrather":2459,"Ġext":2460,"onger":2461,"Ġourselves":2462,"ounded":2463,"Ġplayed":2464,"phy":2465,"Ġkings":2466,"ago":2467,"agination":2468,"orth":2469,"Ġcann":2470,"aste":2471,"Ġpoet":2472,"Ġneg":2473,"Ġneither":2474,"ansl":2475,"eft":2476,"Ġthanks":2477,"augh":2478,"Ġtru":2479,"Ġtroub":2480,"Ġtrumpet":2481,"Ġletters":2482,",--_":2483,"thing":2484,"Ġtook":2485,"Ġactor":2486,"Ġflesh":2487,"120":2488,"els":2489,"then":2490,"Ġperform":2491,"Ġperhaps":2492,"itted":2493,"raction":2494,"Ġenc":2495,"Ġenough":2496,"ĠJeph":2497,"Ġgentle":2498,"Ġscene":2499,"Ġnatural":2500,"ĠTherefore":2501,"ĠStage":2502,"Ġconfess":2503,"Ġheavens":2504,"Ġindiffere":2505,"ieu":2506,"Ġaccord":2507,"Ġaccount":2508,"beckons":2509,"cellus":2510,"Ġdistracted":2511,"Ġtraged":2512,"ĠWhose":2513,"Ġsignified":2514,"Ġsignifying":2515,"Ġentreat":2516,"ouchsafe":2517,"Ġsometimes":2518,"Ġpresently":2519,"coners":2520,"twere":2521,"Ġcloud":2522,"Ġhuman":2523,"Ġhaste":2524,"umpets":2525,"Ġdraw":2526,"Ġemblem":2527,"Ġwitha":2528,"Ġwarrant":2529,"Ġreport":2530,"ĠMarcellus":2531,"Ġconsidered":2532,"ounter":2533,"Ġchange":2534,"Ġaffli":2535,"Ġconceit":2536,"Behind":2537,"Ġoppress":2538,"Ġcountenance":2539,"Ġguilt":2540,"Ġguilty":2541,"Ġaffection":2542,"Ġsimilar":2543,"Ġfuneral":2544,"Ġfigurative":2545,"Ġprivate":2546,"Ġcharge":2547,"Ġutter":2548,"Ġsuffer":2549,"Ġfrequently":2550,"Ġfarewell":2551,"Ġcorruption":2552,"FORM":2553,"Notes":2554,"fully":2555,"known":2556,"Ġawhile":2557,"Ġremembrance":2558,"Ġpeople":2559,"thah":2560,"Ġetern":2561,"Ġbosom":2562,"Ġcircum":2563,"ĠAlexander":2564,"ĠWittenberg":2565,"Ġwholesome":2566,"ĠBernardo":2567,"ĠPelion":2568,"Ġsudden":2569,"Ġtroubles":2570,"ĠJephthah":2571,"Ġfiguratively":2572,"**":2573,"110":2574,"83":2575,"84":2576,"85":2577,"86":2578,"87":2579,"88":2580,"89":2581,"90":2582,"91":2583,"92":2584,"93":2585,"94":2586,"96":2587,"97":2588,"98":2589,"99":2590,"?_":2591,"Book":2592,"CI":2593,"Ch":2594,"EC":2595,"EAN":2596,"HAMLET":2597,"HORATIO":2598,"Let":2599,"Like":2600,"Make":2601,"Our":2602,"Se":2603,"So":2604,"Sings":2605,"SRI":2606,"Tra":2607,"THE":2608,"UR":2609,"While":2610,"Your":2611,"_.\"]":2612,"ah":2613,"aff":2614,"br":2615,"by":2616,"bly":2617,"bid":2618,"bated":2619,"bles":2620,"dge":2621,"dic":2622,"draw":2623,"fold":2624,"fty":2625,"gre":2626,"gar":2627,"gers":2628,"gree":2629,"giving":2630,"hich":2631,"ief":2632,"ips":2633,"last":2634,"lack":2635,"mp":2636,"men":2637,"mother":2638,"mary":2639,"noc":2640,"ob":2641,"oken":2642,"pend":2643,"pare":2644,"ram":2645,"rion":2646,"rust":2647,"sh":2648,"sing":2649,"ton":2650,"uc":2651,"uz":2652,"would":2653,"wrung":2654,"which":2655,"ye":2656,"zago":2657,"ÃĦ":2658,"âĢ":2659,"Ġed":2660,"ĠEnter":2661,"Ġtalk":2662,"Ġtakes":2663,"hen":2664,"Ġav":2665,"ins":2666,"ining":2667,"ined":2668,"inore":2669,"oured":2670,"ourable":2671,"Ġsch":2672,"Ġsend":2673,"Ġsick":2674,"Ġ_'":2675,"Ġmut":2676,"Ġmouse":2677,"Ġmidd":2678,"Ġmotion":2679,"ready":2680,"Ġwent":2681,"Ġwood":2682,"Ġwine":2683,"Ġwore":2684,"Ġwont":2685,"Ġwild":2686,"Ġwrong":2687,"Ġwrit":2688,"ote":2689,"otten":2690,"isure":2691,"have":2692,"._\"":2693,"ĠIm":2694,"ences":2695,"Ġbul":2696,"Ġbound":2697,"Ġbare":2698,"Ġbold":2699,"oner":2700,"onoun":2701,"onzago":2702,"orical":2703,"Ġfing":2704,"Ġfain":2705,"Ġfeed":2706,"Ġfancy":2707,"llable":2708,"Ġcat":2709,"Ġcle":2710,"Ġcare":2711,"Ġcoup":2712,"ester":2713,"Ġdri":2714,"Ġdiv":2715,"Ġdress":2716,"Ġdally":2717,"Ġdied":2718,"Ġpin":2719,"Ġpar":2720,"Ġpat":2721,"Ġprom":2722,"Ġpear":2723,"Ġpick":2724,"Ġpite":2725,"Ġpaint":2726,"Ġlow":2727,"Ġlist":2728,"Ġlead":2729,"Ġladies":2730,"Ġlaid":2731,"Ġlaugh":2732,"aries":2733,"arition":2734,"Ġhid":2735,"Ġhide":2736,"att":2737,"atre":2738,"ates":2739,"ators":2740,"edy":2741,"Ġthree":2742,"Ġthrough":2743,"ange":2744,"angu":2745,"Ġinnoc":2746,"ĠTr":2747,"amb":2748,"vereign":2749,"Ġgarden":2750,"ceived":2751,"ĠAll":2752,"ĠHand":2753,"ĠHence":2754,"Ġbeho":2755,"imation":2756,"imate":2757,"utified":2758,"Ġele":2759,"Ġequ":2760,"Ġeither":2761,"Ġevil":2762,"Ġmeant":2763,"Hamlet":2764,"--_":2765,"irl":2766,"irty":2767,"cture":2768,"_,[":2769,"_,--":2770,"Ġstre":2771,"Ġstith":2772,"Ġstir":2773,"Ġstation":2774,"Ġstraight":2775,"als":2776,"ality":2777,"ĠOn":2778,"ĠOut":2779,"ĠOSRI":2780,"Ġreli":2781,"Ġremark":2782,"Ġrespect":2783,"ĠST":2784,"ĠSaint":2785,"roach":2786,"ids":2787,"ĠLadies":2788,"ĠCha":2789,"ĠCould":2790,"ĠCont":2791,"Ġwhom":2792,"ific":2793,"ĠBoth":2794,"Ġmoon":2795,"Ġmove":2796,"Ġmobled":2797,"cket":2798,"ĠPo":2799,"gel":2800,"Ġdost":2801,"Ġconst":2802,"Ġconvers":2803,"Ġconsequ":2804,"Ġspring":2805,"Ġspade":2806,"ĠRight":2807,"ĠRep":2808,"ilst":2809,"ĠFRAN":2810,"ĠFrance":2811,"ĠGet":2812,"Ġsum":2813,"Ġsure":2814,"Ġdecl":2815,"Ġdemand":2816,"Ġsovereign":2817,"Ġshalt":2818,"Ġshape":2819,"Ġshame":2820,"Ġlies":2821,"Ġliving":2822,"Ġlived":2823,"ĠNever":2824,"Ġvile":2825,"Ġallow":2826,"Ġshr":2827,"Ġshot":2828,"quis":2829,"question":2830,"loy":2831,"logg":2832,"Ġunpro":2833,"ules":2834,"ellus":2835,"Ġknew":2836,"igence":2837,"Ġrat":2838,"Ġrange":2839,"Ġfast":2840,"hose":2841,"Ġexist":2842,"Ġcoming":2843,"Ġprov":2844,"erer":2845,"erence":2846,"Ġgold":2847,"Ġgoblet":2848,"Ġwhether":2849,"Ġseason":2850,"Ġmanners":2851,"Ġplaying":2852,"Ġkingdom":2853,"Ġju":2854,"Ġamong":2855,"Ġamaz":2856,"Ġposs":2857,"100":2858,"101":2859,"102":2860,"103":2861,"104":2862,"105":2863,"106":2864,"107":2865,"108":2866,"109":2867,"empt":2868,"Ġarrant":2869,"ĠĠĠĠĠĠĠĠĠĠĠĠĠĠ":2870,"Ġneed":2871,"efore":2872,"Ġblast":2873,"pret":2874,"preced":2875,"Ġtruth":2876,"Ġlets":2877,"Ġpress":2878,"Ġpregnant":2879,"111":2880,"112":2881,"113":2882,"114":2883,"115":2884,"116":2885,"117":2886,"118":2887,"119":2888,"cial":2889,"Ġspeaks":2890,"Ġquill":2891,"Ġpronoun":2892,"Ġgracious":2893,"LES":2894,"Ġimper":2895,"Ġimagination":2896,"Ġflatter":2897,"Ġchast":2898,"Ġshoulder":2899,"121":2900,"122":2901,"123":2902,"124":2903,"125":2904,"gainst":2905,"Ġ\"_":2906,"icked":2907,"Ġappare":2908,"Ġabsol":2909,"Ġperil":2910,"aken":2911,"aked":2912,"ĠUns":2913,"Ġobject":2914,"Ġheavy":2915,"Ġsouls":2916,"Ġalways":2917,"Ġpassage":2918,"ĠWithout":2919,"ĠKEAN":2920,"ĠQu":2921,"ĠHec":2922,"Ġcontri":2923,"ARLES":2924,"ĠEven":2925,"ĠEls":2926,"Ġrich":2927,"Ġridic":2928,"Ġlooks":2929,"Ġpurs":2930,"ĠStay":2931,"ĠStill":2932,"Ġconfession":2933,"ĠĠĠĠĠĠĠĠĠĠĠĠĠĠĠĠĠĠĠĠĠĠĠĠĠ":2934,"Ġgrass":2935,"ield":2936,"Ġtwice":2937,"Ġdisclo":2938,"speak":2939,"cellence":2940,"Ġrogue":2941,"Ġroyal":2942,"serve":2943,"Ġskill":2944,"Ġintell":2945,"Ġmeaning":2946,"Ġbuild":2947,"Ġburial":2948,"ĠĠĠĠĠĠĠĠĠĠĠĠĠĠĠĠĠĠĠĠĠĠĠĠĠĠĠĠĠĠ":2949,"rantz":2950,"Ġentertain":2951,"Ġothers":2952,"Ġtreasure":2953,"Ġslain":2954,"Ġslave":2955,"Ġcloset":2956,"Ġstands":2957,"twas":2958,"hard":2959,"Ġcarried":2960,"Ġcarriages":2961,"Ġhumbly":2962,"Ġassume":2963,"Ġdefence":2964,"Ġmurd":2965,"ĠPlayer":2966,"Ġmajest":2967,"Ġmonument":2968,"Ġreturns":2969,"ĠMarry":2970,"Ġliege":2971,"Ġtrick":2972,"Ġfew":2973,"Ġgallows":2974,"Ġvisage":2975,"Ġfaithful":2976,"Ġflower":2977,"Ġflowers":2978,"Ġimports":2979,"acher":2980,"comp":2981,"Ġauthors":2982,"Ġfalls":2983,"Ġpowers":2984,"Ġstronger":2985,"Ġattent":2986,"travagant":2987,"Ġsatyr":2988,"Ġfalconers":2989,"Ġjustly":2990,"uba":2991,"Ġidle":2992,"Ġsimp":2993,"Ġfigure":2994,"Ġpicture":2995,"ĠMadam":2996,"Ġliberty":2997,"empor":2998,"Ġmountain":2999,"Ġopen":3000,"Ġthrice":3001,"ĠPray":3002,"Ġaddress":3003,"Ġchurches":3004,"Ġclosely":3005,"appointed":3006,"ronic":3007,"Ġmusic":3008,"Ġmistress":3009,"encrantz":3010,"Ġchief":3011,"Ġhistory":3012,"Ġrepresentation":3013,"Ġmodesty":3014,"ĠPriam":3015,"Ġmonths":3016,"Ġobservance":3017,"Ġhorrible":3018,"Ġoriginal":3019,"cstasy":3020,"chance":3021,"natural":3022,"Ġignorance":3023,"Ġterms":3024,"Ġsyllable":3025,"Ġmortal":3026,"Ġmorning":3027,"Ġodds":3028,"Ġfixed":3029,"Ġdifference":3030,"Ġsuccession":3031,"Ġplaced":3032,"Ġexercise":3033,"Ġproperty":3034,"Ġargument":3035,"ollected":3036,"Ġintroduced":3037,"Ġemploy":3038,"Ġservice":3039,"following":3040,"Ġverse":3041,"Ġsilence":3042,"rehension":3043,"ĠArm":3044,"ĠRosencrantz":3045,"Ġindifferent":3046,"Ġtragedy":3047,"Ġclouds":3048,"Ġwithal":3049,"Ġaffliction":3050,"Ġcircumst":3051,"Ġmiddle":3052,"Ġpiteous":3053,"anguage":3054,"ĠOSRIC":3055,"preceded":3056,"Ġabsolute":3057,"ĠElsinore":3058,"Ġridicule":3059,"\"_":3060,";_":3061,"AL":3062,"At":3063,"ALON":3064,"Com":3065,"Dan":3066,"Doth":3067,"Dost":3068,"Doubt":3069,"From":3070,"Faith":3071,"Goes":3072,"HT":3073,"Heaven":3074,"Look":3075,"LAT":3076,"More":3077,"MALON":3078,"Naked":3079,"Or":3080,"PR":3081,"POLONIUS":3082,"Point":3083,"Qu":3084,"RO":3085,"Ret":3086,"Rem":3087,"Read":3088,"That":3089,"Takes":3090,"We":3091,"Where":3092,"acy":3093,"ben":3094,"bes":3095,"bus":3096,"bble":3097,"bell":3098,"big":3099,"cor":3100,"cock":3101,"cousin":3102,"chard":3103,"down":3104,"eat":3105,"ean":3106,"echo":3107,"ford":3108,"fly":3109,"fess":3110,"fall":3111,"friend":3112,"first":3113,"face":3114,"fume":3115,"fety":3116,"falls":3117,"gs":3118,"gence":3119,"gth":3120,"hou":3121,"hould":3122,"ien":3123,"iam":3124,"iven":3125,"iate":3126,"iare":3127,"iable":3128,"ives":3129,"know":3130,"len":3131,"lan":3132,"lve":3133,"lourish":3134,"my":3135,"mble":3136,"mber":3137,"morrow":3138,"miss":3139,"monger":3140,"mitted":3141,"no":3142,"ny":3143,"oid":3144,"overy":3145,"off":3146,"ophy":3147,"pl":3148,"put":3149,"port":3150,"poll":3151,"patch":3152,"pier":3153,"que":3154,"ror":3155,"rut":3156,"rink":3157,"rument":3158,"sed":3159,"sri":3160,"soe":3161,"scri":3162,"surp":3163,"titude":3164,"ux":3165,"vis":3166,"ww":3167,"wor":3168,"word":3169,"wear":3170,"xe":3171,"xford":3172,"your":3173,"yper":3174,"Ġ{":3175,"Ġrow":3176,"Ġ10":3177,"Ġvers":3178,"Ġought":3179,"Ġvenge":3180,"Ġ18":3181,"Ġvenom":3182,"Ġty":3183,"Ġtin":3184,"Ġtor":3185,"Ġted":3186,"Ġtent":3187,"Ġtea":3188,"Ġtro":3189,"Ġtard":3190,"Ġtear":3191,"Ġtame":3192,"Ġtwe":3193,"Ġtale":3194,"Ġtemper":3195,"Ġtempt":3196,"hee":3197,"Ġac":3198,"Ġah":3199,"Ġaxe":3200,"Ġsin":3201,"Ġsal":3202,"Ġsur":3203,"Ġsits":3204,"Ġsets":3205,"Ġsigh":3206,"Ġ_\"":3207,"Ġmatch":3208,"Ġmoral":3209,"Ġmixt":3210,"rect":3211,"reation":3212,"resp":3213,"recy":3214,"Ġwou":3215,"Ġwan":3216,"Ġwom":3217,"Ġwish":3218,"Ġwounded":3219,"Ġwaste":3220,"Ġwicked":3221,"Ġow":3222,"Ġoath":3223,"ising":3224,"isons":3225,"erg":3226,"erve":3227,"haw":3228,"ndar":3229,"nded":3230,"iting":3231,"ited":3232,"itive":3233,"enes":3234,"enef":3235,"enec":3236,"ennel":3237,"ength":3238,"Ġble":3239,"Ġbad":3240,"Ġbout":3241,"Ġball":3242,"Ġbrief":3243,"Ġbase":3244,"Ġborrow":3245,"orus":3246,"orous":3247,"orns":3248,"orick":3249,"Ġfi":3250,"Ġfin":3251,"Ġfam":3252,"Ġfet":3253,"Ġfoot":3254,"Ġfootnote":3255,"Ġfly":3256,"Ġfill":3257,"Ġfil":3258,"Ġfight":3259,"Ġfant":3260,"Ġfate":3261,"Ġfru":3262,"Ġfoe":3263,"Ġfront":3264,"Ġframe":3265,"Ġce":3266,"Ġche":3267,"Ġcow":3268,"Ġcro":3269,"Ġcart":3270,"Ġcere":3271,"Ġcreat":3272,"Ġcop":3273,"Ġcost":3274,"Ġcatch":3275,"Ġclay":3276,"Ġcond":3277,"Ġcertain":3278,"Ġcaut":3279,"Ġcousin":3280,"Ġcreation":3281,"Ġoften":3282,"Ġder":3283,"Ġdrow":3284,"Ġdig":3285,"Ġdag":3286,"Ġdare":3287,"Ġdwell":3288,"Ġtop":3289,"Ġpot":3290,"Ġpor":3291,"Ġpure":3292,"Ġpate":3293,"Ġport":3294,"Ġpity":3295,"Ġpious":3296,"Ġpause":3297,"Ġpupp":3298,"Ġlest":3299,"Ġlend":3300,"Ġline":3301,"Ġloose":3302,"Ġlines":3303,"Ġlanguage":3304,"Ġlength":3305,"arb":3306,"arn":3307,"ingu":3308,"Ġhits":3309,"Ġhung":3310,"atis":3311,"aten":3312,"atten":3313,"Ġthro":3314,"Ġthird":3315,"Ġthirty":3316,"anel":3317,"anced":3318,"Ġinst":3319,"Ġinex":3320,"ĠTw":3321,"ĠTerm":3322,"amed":3323,"amity":3324,"oms":3325,"Ġga":3326,"Ġgrow":3327,"Ġgather":3328,"Ġgross":3329,"Ġgiving":3330,"Ġgift":3331,"Ġgirl":3332,"Ġheat":3333,"Ġheld":3334,"Ġhera":3335,"Ġhence":3336,"seen":3337,"ĠAh":3338,"ĠApp":3339,"ĠAgainst":3340,"ays":3341,"ĠHa":3342,"ĠHyp":3343,"Ġbeck":3344,"Ġbecom":3345,"Ġbeating":3346,"iment":3347,"lease":3348,"Ġnay":3349,"enty":3350,"ution":3351,"utenberg":3352,"chief":3353,"Ġelect":3354,"Ġevid":3355,"Ġund":3356,"Ġmere":3357,"Ġmelan":3358,"irm":3359,"irous":3360,"irgin":3361,"cted":3362,"ctly":3363,"Ġwithdraw":3364,"lymp":3365,"Ġforce":3366,"Ġyours":3367,"ourt":3368,"Ġstea":3369,"Ġstood":3370,"Ġstep":3371,"Ġstock":3372,"Ġstuck":3373,"Ġstoup":3374,"Ġstrew":3375,"Ġstole":3376,"Ġsteal":3377,"ĠOsri":3378,"ĠOxford":3379,"ĠOlymp":3380,"Ġres":3381,"Ġreform":3382,"Ġreserve":3383,"Ġweigh":3384,"Ġweeds":3385,"vern":3386,"verted":3387,"Ġkey":3388,"ĠSweet":3389,"ĠSince":3390,"ĠSEC":3391,"ĠSwear":3392,"ads":3393,"adem":3394,"rove":3395,"ides":3396,"ident":3397,"idence":3398,"idnight":3399,"ĠLords":3400,"ĠLeft":3401,"Ġask":3402,"ĠMus":3403,"ĠMah":3404,"ĠCl":3405,"ĠChan":3406,"ĠChar":3407,"urt":3408,"Ġwhite":3409,"iful":3410,"ĠBRA":3411,"ĠBefore":3412,"Ġant":3413,"Ġanon":3414,"Ġanim":3415,"Ġantic":3416,"ested":3417,"Ġorb":3418,"Ġord":3419,"eel":3420,"eem":3421,"uss":3422,"uspic":3423,"ĠPart":3424,"ĠPeace":3425,"ĠPLAT":3426,"Ġdoor":3427,"Ġconsent":3428,"Ġspect":3429,"Ġsport":3430,"Ġspies":3431,"Ġspeed":3432,"Ġsphere":3433,"iling":3434,"ilos":3435,"ĠFIR":3436,"ĠGra":3437,"ĠGlo":3438,"ĠGRA":3439,"ĠGonzago":3440,"Ġsult":3441,"Ġdeliver":3442,"Ġdegree":3443,"Ġsold":3444,"Ġliest":3445,"ppings":3446,"ĠNIG":3447,"Ġvent":3448,"Ġvul":3449,"Ġvac":3450,"Ġvouchsafe":3451,"Ġlov":3452,"Ġloving":3453,"Ġlovers":3454,"Ġloved":3455,"Ġlofty":3456,"allecho":3457,"lies":3458,"live":3459,"ĠDis":3460,"ĠDoth":3461,"quor":3462,"quite":3463,"loqu":3464,"ĠVII":3465,"Ġnose":3466,"Ġnoise":3467,"Ġmast":3468,"Ġmagg":3469,"ustious":3470,"Ġpluck":3471,"Ġunw":3472,"Ġunpre":3473,"Ġunction":3474,"Ġunivers":3475,"Ġunknown":3476,"Ġunfold":3477,"Ġunnatural":3478,"Ġunseen":3479,"endo":3480,"icine":3481,"ulse":3482,"ĠThought":3483,"Ġhern":3484,"igns":3485,"oses":3486,"Ġring":3487,"Ġrude":3488,"Ġrash":3489,"Ġrites":3490,"ĠTogether":3491,"Then":3492,"Ġexact":3493,"Ġexcept":3494,"Ġexcellence":3495,"Ġextravagant":3496,"Ġprove":3497,"Ġprocl":3498,"Ġprodig":3499,"Ġproceed":3500,"erest":3501,"Ġseeing":3502,"Ġwheel":3503,"top":3504,"ĠYorick":3505,"Ġsep":3506,"Ġplays":3507,"agon":3508,"again":3509,"Ġjig":3510,"orted":3511,"Ġcanon":3512,"Ġcanst":3513,"astic":3514,"ember":3515,"Ġnecess":3516,"Ġneeds":3517,"ansies":3518,"Ġblack":3519,"Ġblaz":3520,"Ġtransl":3521,"Ġoffer":3522,"Ġoffic":3523,"this":3524,"Ġpretend":3525,"Ġprecious":3526,"Ġprepare":3527,"ishment":3528,"Ġquite":3529,"Ġprint":3530,"Ġproud":3531,"Ġproof":3532,"Ġhate":3533,"Ġworms":3534,"ares":3535,"Ġimpress":3536,"Ġimmed":3537,"ĠInto":3538,"oult":3539,"ĠWhether":3540,"Ġacts":3541,"Ġflood":3542,"Ġchap":3543,"Ġchari":3544,"olly":3545,"istory":3546,"Ġdidst":3547,"Ġapplic":3548,"Ġapparition":3549,"Ġapprehension":3550,"Ġsheet":3551,"Ġaboard":3552,"they":3553,"Ġperchance":3554,"Ġcommend":3555,"Ġsables":3556,"Ġsafety":3557,"Ġobsequ":3558,"TION":3559,"Ġens":3560,"Ġenact":3561,"Ġhonourable":3562,"Ġcalls":3563,"Ġdesk":3564,"Ġdesirous":3565,"ostulate":3566,"Ġalong":3567,"Ġalso":3568,"Ġalready":3569,"Ġaltitude":3570,"Ġpassing":3571,"ĠWithin":3572,"Ġwhence":3573,"Ġcontent":3574,"Ġcontract":3575,"Ġcontempor":3576,"ART":3577,"aps":3578,"ĠJuli":3579,"retion":3580,"ĠEV":3581,"Ġriv":3582,"Ġsconce":3583,"ables":3584,"Ġanything":3585,"Ġhearing":3586,"ngthen":3587,"Ġmarch":3588,"Ġmarried":3589,"Ġswear":3590,"Ġhowever":3591,"Ġdischar":3592,"Ġdiscovery":3593,"Ġdiscretion":3594,"Ġaccustom":3595,"Ġchorus":3596,"Ġdram":3597,"ĠWherein":3598,"Ġremains":3599,"Ġdistin":3600,"Ġdistemper":3601,"Ġprayers":3602,"Ġimpart":3603,"awful":3604,"ithers":3605,"Ġbrave":3606,"Ġlonger":3607,"omething":3608,"Ġgives":3609,"urning":3610,"Ġsecrecy":3611,"Thus":3612,"Ġraven":3613,"alendar":3614,"Ġskin":3615,"Ġfearful":3616,"Ġharsh":3617,"Ġdrinks":3618,"Ġtravell":3619,"Ġbestow":3620,"Ġfinds":3621,"Ġfellows":3622,"Ġholds":3623,"Ġgriefs":3624,"Ġfollows":3625,"Ġpersons":3626,"ĠĠĠĠĠĠĠĠĠĠĠĠĠĠĠĠĠĠĠĠĠĠĠĠĠĠĠĠĠĠĠ":3627,"SCO":3628,"rants":3629,"wards":3630,"Ġenter":3631,"Ġotherwise":3632,"Ġtreason":3633,"Ġtreacher":3634,"Ġslow":3635,"Ġslight":3636,"Ġways":3637,"erman":3638,"Ġformerly":3639,"Ġstanding":3640,"ĠĠĠĠĠĠĠĠĠĠĠĠĠĠĠĠĠĠĠĠĠĠĠĠĠĠĠĠĠ":3641,"posed":3642,"twill":3643,"Ġclot":3644,"Ġhumours":3645,"Ġbelief":3646,"Ġjoint":3647,"overed":3648,"Ġseal":3649,"Ġdraws":3650,"Ġadvance":3651,"Ġadvantage":3652,"Ġwarm":3653,"Ġpleas":3654,"Ġretire":3655,"ĠMarch":3656,"Ġwishes":3657,"Ġhours":3658,"Ġgenerous":3659,"Ġgenerally":3660,"mirched":3661,"issing":3662,"Ġfeet":3663,"Ġfeather":3664,"Ġcolumb":3665,"Ġchance":3666,"Ġpatient":3667,"Ġsubstant":3668,"Ġvisit":3669,"Ġseeming":3670,"ĠJohn":3671,"oculate":3672,"Ġaffair":3673,"ĠWilliam":3674,"Ġstrongly":3675,"Ġconception":3676,"Ġvillainy":3677,"trap":3678,"ĠExcellent":3679,"Ġsmall":3680,"Ġsmiling":3681,"Ġsatir":3682,"Ġwaves":3683,"Ġoppos":3684,"Ġcountry":3685,"Ġintercourse":3686,"Ġinterpret":3687,"Ġglad":3688,"Ġglass":3689,"Ġoffender":3690,"Ġoffended":3691,"Ġappearance":3692,"Ġviolent":3693,"Ġviolence":3694,"Ġviolets":3695,"ATH":3696,"Why":3697,"Which":3698,"Ġidea":3699,"Ġestate":3700,"Ġestimate":3701,"Ġminister":3702,"Ġfunctions":3703,"Ġcurrent":3704,"Ġpipe":3705,"lected":3706,"Ġrecord":3707,"Ġrecover":3708,"Ġregion":3709,"Ġkilled":3710,"Ġlibert":3711,"ulties":3712,"empered":3713,"Ġrosemary":3714,"ĠdamnÃĥ":3715,"Stand":3716,"ailed":3717,"undays":3718,"Ġmercy":3719,"Ġmountains":3720,"Ġcoldly":3721,"Ġcrowner":3722,"Ġdiadem":3723,"Ġthrift":3724,"Ġincest":3725,"iddits":3726,"Ġcompare":3727,"Ġadded":3728,"Ġchurch":3729,"Ġdreadful":3730,"aviare":3731,"autus":3732,"Ġespe":3733,"Ġmistake":3734,"Ġborne":3735,"Ġfretful":3736,"Ġdeny":3737,"Ġdirect":3738,"Ġdangerous":3739,"stantly":3740,"Ġstars":3741,"ĠPriest":3742,"Ġprofane":3743,"Ġarmour":3744,"Ġcontinent":3745,"Ġhorrid":3746,"Twere":3747,"cape":3748,"capable":3749,"Ġtenders":3750,"Ġwinter":3751,"vellous":3752,"ĠAdieu":3753,"choly":3754,"Ġvalanced":3755,"Ġfaculties":3756,"Ġdescribed":3757,"Ġunderstanding":3758,"ipping":3759,"Ġsolic":3760,"Ġsensible":3761,"Ġmedicine":3762,"Ġmethinks":3763,"Ġwedd":3764,"Ġwanton":3765,"Ġwretch":3766,"Ġfishmonger":3767,"Ġcentury":3768,"Ġcalamity":3769,"Ġchoice":3770,"Ġdaisy":3771,"Ġpolit":3772,"Ġleisure":3773,"ettle":3774,"Ġglobe":3775,"Ġeasily":3776,"ĠCHARLES":3777,"Ġmodern":3778,"Ġconveyed":3779,"Ġcannon":3780,"Ġtruly":3781,"Ġencounter":3782,"Ġoppression":3783,"Ġeternal":3784,"Ġsuddenly":3785,"CISCO":3786,"lasting":3787,"Ġavoid":3788,"Ġschol":3789,"Ġfingers":3790,"Ġcouplet":3791,"Ġdallying":3792,"Ġpatches":3793,"Ġpearl":3794,"Ġinnocent":3795,"ambol":3796,"Ġstithy":3797,"Ġremarks":3798,"Ġconversation":3799,"ĠFRANCISCO":3800,"Ġshroud":3801,"quisite":3802,"loggats":3803,"Ġgolden":3804,"Ġquillets":3805,"Ġchaste":3806,"Ġapparent":3807,"ĠUnsifted":3808,"ĠHecuba":3809,"Ġdisclos":3810,"Ġmurderer":3811,"Ġemployment":3812,"Ġcircumstance":3813,"MALONE":3814,"Pointing":3815,"Reads":3816,"benon":3817,"housel":3818,"portion":3819,"soever":3820,"uxury":3821,"yperion":3822,"Ġversion":3823,"Ġvengeance":3824,"Ġ1859":3825,"Ġtinct":3826,"Ġtedious":3827,"Ġteach":3828,"Ġtardy":3829,"Ġtwelve":3830,"Ġmoralities":3831,"Ġmixture":3832,"eneca":3833,"Ġcroaking":3834,"Ġdrowns":3835,"Ġpuppets":3836,"Ġthroat":3837,"ĠTermagant":3838,"Ġgifts":3839,"Ġherald":3840,"Ġmelancholy":3841,"ĠOsric":3842,"ĠOlympus":3843,"ĠSECOND":3844,"ĠCharles":3845,"ĠPLATFORM":3846,"Ġspectators":3847,"ilosophy":3848,"ĠFIRST":3849,"Ġsultry":3850,"ĠNIGHT":3851,"Ġvulgar":3852,"ĠVIII":3853,"Ġmaggots":3854,"Ġproclaim":3855,"Ġimmediate":3856,"ĠJulius":3857,"Ġaccustomed":3858,"Ġtraveller":3859,"!]":3860,",)":3861,"?]":3862,"AG":3863,"AK":3864,"Ad":3865,"Ar":3866,"Bar":3867,"BER":3868,"Bene":3869,"BUR":3870,"CH":3871,"Con":3872,"Dis":3873,"Dies":3874,"Denmark":3875,"DBUR":3876,"EF":3877,"ET":3878,"Falls":3879,"Flourish":3880,"Gra":3881,"Gain":3882,"Good":3883,"GER":3884,"Green":3885,"GED":3886,"HI":3887,"Im":3888,"Is":3889,"Jump":3890,"Lay":3891,"Lord":3892,"Long":3893,"LAERTES":3894,"Lying":3895,"Larded":3896,"May":3897,"MAR":3898,"Meth":3899,"ND":3900,"Nym":3901,"OK":3902,"Of":3903,"On":3904,"Out":3905,"Old":3906,"OUS":3907,"OPHELIA":3908,"One":3909,"OOK":3910,"Per":3911,"Pages":3912,"RE":3913,"RIN":3914,"Rob":3915,"Rising":3916,"Sits":3917,"Since":3918,"Supp":3919,"Sax":3920,"TH":3921,"TER":3922,"UD":3923,"Usurp":3924,"Ven":3925,"Very":3926,"VED":3927,"Vouchsafe":3928,"WS":3929,"Whose":3930,"YER":3931,"[_":3932,"_--":3933,"aph":3934,"awn":3935,"after":3936,"aches":3937,"apted":3938,"bs":3939,"bre":3940,"bon":3941,"bea":3942,"bra":3943,"bour":3944,"bout":3945,"bod":3946,"bred":3947,"beth":3948,"bute":3949,"bby":3950,"co":3951,"cis":3952,"cer":3953,"car":3954,"cing":3955,"cra":3956,"cal":3957,"cher":3958,"could":3959,"came":3960,"cons":3961,"cont":3962,"crows":3963,"cup":3964,"cene":3965,"cund":3966,"cram":3967,"dy":3968,"dre":3969,"dit":3970,"done":3971,"dgment":3972,"eg":3973,"ev":3974,"ees":3975,"eam":3976,"eous":3977,"eated":3978,"effect":3979,"ecial":3980,"ebus":3981,"fit":3982,"foot":3983,"from":3984,"found":3985,"father":3986,"fru":3987,"fied":3988,"fling":3989,"gr":3990,"ging":3991,"gan":3992,"gent":3993,"gal":3994,"hood":3995,"house":3996,"hym":3997,"iz":3998,"iar":3999,"iour":4000,"iem":4001,"ipe":4002,"ique":4003,"jig":4004,"kly":4005,"kissing":4006,"ler":4007,"line":4008,"lings":4009,"lady":4010,"lawful":4011,"met":4012,"mas":4013,"more":4014,"mast":4015,"mity":4016,"mons":4017,"mix":4018,"making":4019,"nor":4020,"net":4021,"nal":4022,"nance":4023,"ov":4024,"oy":4025,"oon":4026,"opp":4027,"obe":4028,"oyal":4029,"pr":4030,"pit":4031,"pse":4032,"pent":4033,"pri":4034,"pid":4035,"pur":4036,"peak":4037,"pose":4038,"pass":4039,"pated":4040,"pial":4041,"penter":4042,"postulate":4043,"rd":4044,"rt":4045,"rue":4046,"rus":4047,"rone":4048,"ritt":4049,"rite":4050,"rÃĦ":4051,"rfume":4052,"ses":4053,"tr":4054,"tt":4055,"that":4056,"tom":4057,"than":4058,"tell":4059,"time":4060,"tained":4061,"torted":4062,"ug":4063,"uct":4064,"uri":4065,"uven":4066,"ually":4067,"uption":4068,"uries":4069,"vol":4070,"vation":4071,"vious":4072,"virt":4073,"vily":4074,"vail":4075,"votion":4076,"viour":4077,"whe":4078,"wer":4079,"wood":4080,"want":4081,"wig":4082,"who":4083,"were":4084,"wark":4085,"ware":4086,"writ":4087,"where":4088,"wounds":4089,"wright":4090,"yet":4091,"yoke":4092,"zen":4093,"Â¡":4094,"Â³":4095,"Ġ3":4096,"Ġ]":4097,"Ġing":4098,"Ġve":4099,"Ġir":4100,"Ġ13":4101,"Ġ20":4102,"Ġ----":4103,"Ġta":4104,"Ġtit":4105,"Ġtan":4106,"Ġtur":4107,"Ġtune":4108,"Ġtaken":4109,"het":4110,"hear":4111,"Ġag":4112,"Ġay":4113,"Ġast":4114,"Ġaim":4115,"Ġaid":4116,"Ġapt":4117,"Ġauspic":4118,"inent":4119,"inion":4120,"inate":4121,"inÃĥ":4122,"inite":4123,"inary":4124,"inning":4125,"ouble":4126,"oups":4127,"ounce":4128,"Ġsor":4129,"Ġsour":4130,"Ġsad":4131,"Ġsand":4132,"Ġsli":4133,"Ġswe":4134,"Ġsable":4135,"Ġsave":4136,"Ġsings":4137,"Ġsix":4138,"Ġsnow":4139,"Ġsixt":4140,"Ġmot":4141,"Ġmim":4142,"Ġmir":4143,"Ġmould":4144,"Ġmess":4145,"Ġmass":4146,"Ġmason":4147,"Ġmild":4148,"Ġmute":4149,"Ġmult":4150,"Ġmallecho":4151,"Ġmoult":4152,"reg":4153,"rel":4154,"rem":4155,"res":4156,"rey":4157,"read":4158,"rengthen":4159,"Ġwot":4160,"Ġwha":4161,"Ġwest":4162,"Ġwink":4163,"Ġwag":4164,"Ġwake":4165,"Ġwings":4166,"Ġwitt":4167,"Ġwise":4168,"Ġwary":4169,"Ġwince":4170,"Ġwring":4171,"Ġwhar":4172,"Ġwithers":4173,"Ġwritt":4174,"oted":4175,"otest":4176,"otous":4177,"otage":4178,"ottom":4179,"Ġtheatre":4180,"Ġoper":4181,"isp":4182,"ering":4183,"ertop":4184,"has":4185,"hand":4186,"._--":4187,"iture":4188,"itings":4189,"itful":4190,"itated":4191,"itless":4192,"enet":4193,"enious":4194,"ency":4195,"Ġbow":4196,"Ġbid":4197,"Ġbore":4198,"Ġbreat":4199,"Ġbran":4200,"Ġbount":4201,"Ġbab":4202,"Ġbaw":4203,"Ġburns":4204,"Ġbird":4205,"Ġbaker":4206,"Ġboard":4207,"Ġbourn":4208,"Ġbatt":4209,"Ġbenef":4210,"Ġbottom":4211,"oned":4212,"orial":4213,"Ġfat":4214,"Ġfed":4215,"Ġfut":4216,"Ġfour":4217,"Ġfard":4218,"Ġflo":4219,"Ġfine":4220,"Ġfran":4221,"Ġfring":4222,"Ġfenc":4223,"Ġfye":4224,"Ġfennel":4225,"Ġfirm":4226,"Ġfolly":4227,"llo":4228,"lly":4229,"Ġcra":4230,"Ġcue":4231,"Ġcrow":4232,"Ġcry":4233,"Ġcity":4234,"Ġcross":4235,"Ġcaught":4236,"Ġcool":4237,"Ġcoil":4238,"Ġcoun":4239,"Ġcentre":4240,"Ġcrew":4241,"Ġcries":4242,"Ġcounter":4243,"Ġcollected":4244,"Ġcalendar":4245,"Ġcrants":4246,"Ġcuri":4247,"Ġcoted":4248,"notes":4249,"Ġdon":4250,"Ġdet":4251,"Ġdue":4252,"Ġdil":4253,"Ġdign":4254,"Ġdeare":4255,"Ġdaint":4256,"Ġdying":4257,"Ġdupp":4258,"Ġduring":4259,"Ġduc":4260,"Ġdotage":4261,"Ġtoil":4262,"Ġtopic":4263,"Ġpa":4264,"Ġpet":4265,"Ġpith":4266,"Ġpour":4267,"Ġpest":4268,"Ġpil":4269,"Ġpun":4270,"Ġpeep":4271,"Ġpace":4272,"Ġpub":4273,"Ġpalm":4274,"Ġpansies":4275,"Ġpenet":4276,"Ġlot":4277,"Ġlion":4278,"Ġlea":4279,"Ġland":4280,"Ġlud":4281,"Ġlab":4282,"Ġloud":4283,"Ġlying":4284,"Ġlifted":4285,"Ġlids":4286,"Ġluxury":4287,"Ġlisp":4288,"Ġyon":4289,"Ġyes":4290,"Ġyield":4291,"arl":4292,"ars":4293,"aring":4294,"arch":4295,"arrow":4296,"arland":4297,"armed":4298,"inges":4299,"Ġhill":4300,"Ġhig":4301,"Ġhouse":4302,"Ġhilt":4303,"Ġhund":4304,"Ġhinges":4305,"atri":4306,"atic":4307,"ature":4308,"atute":4309,"atform":4310,"eding":4311,"edge":4312,"edience":4313,"Ġthick":4314,"Ġthreat":4315,"Ġthither":4316,"Ġthunder":4317,"Ġthrone":4318,"anes":4319,"anish":4320,"hath":4321,"hatch":4322,"stinate":4323,"ĠTouch":4324,"ĠTellus":4325,"ams":4326,"ament":4327,"etles":4328,"veal":4329,"omp":4330,"omin":4331,"omination":4332,"Ġgri":4333,"Ġgro":4334,"Ġgain":4335,"Ġgame":4336,"Ġgrown":4337,"Ġgird":4338,"Ġgreen":4339,"Ġgerman":4340,"Ġgambol":4341,"Ġgarland":4342,"Ġheed":4343,"Ġheels":4344,"Ġhedge":4345,"sec":4346,"seamed":4347,"ceased":4348,"ĠAm":4349,"ĠAcc":4350,"ĠAway":4351,"ĠApoll":4352,"ĠAND":4353,"ĠHo":4354,"ĠHon":4355,"ĠHap":4356,"ĠHerc":4357,"ĠHistory":4358,"ĠHyperion":4359,"ĠHOUS":4360,"Ġbeha":4361,"Ġbend":4362,"Ġbeast":4363,"Ġbecome":4364,"impart":4365,"lection":4366,"lebr":4367,"Ġnill":4368,"Ġnine":4369,"Ġnort":4370,"Ġnice":4371,"Ġneare":4372,"Ġnumb":4373,"Ġnonce":4374,"Ġnames":4375,"Ġnerve":4376,"Ġnomination":4377,"Ġmyst":4378,"enten":4379,"utes":4380,"uties":4381,"chis":4382,"chine":4383,"chment":4384,"Ġeager":4385,"Ġeats":4386,"Ġevent":4387,"ĠeBook":4388,"Ġecstasy":4389,"Ġeloqu":4390,"Ġepit":4391,"Ġhap":4392,"Ġhair":4393,"Ġhaps":4394,"Ġhalt":4395,"asci":4396,"ashes":4397,"Ġmew":4398,"Ġmelt":4399,"Ġmeasure":4400,"ĠWas":4401,"ĠWel":4402,"irling":4403,"ease":4404,"raise":4405,"raws":4406,"raught":4407,"raiture":4408,"cter":4409,"ctor":4410,"_,.":4411,"ordo":4412,"order":4413,"rift":4414,"ribut":4415,"ridgment":4416,"Ġforty":4417,"Ġforward":4418,"Ġforget":4419,"Ġforbid":4420,"Ġyourselves":4421,"ourge":4422,"ooping":4423,"Ġster":4424,"Ġsting":4425,"Ġstro":4426,"Ġstud":4427,"Ġstake":4428,"Ġsteep":4429,"Ġstalk":4430,"Ġstup":4431,"Ġstuff":4432,"Ġstaid":4433,"Ġsteel":4434,"alt":4435,"almost":4436,"herly":4437,"herod":4438,"ĠON":4439,"ĠOssa":4440,"Ġreb":4441,"Ġrear":4442,"Ġrese":4443,"Ġreven":4444,"Ġrender":4445,"Ġreally":4446,"Ġrelish":4447,"Ġreveal":4448,"Ġweary":4449,"vert":4450,"ĠThence":4451,"ĠThessa":4452,"ĠTheatre":4453,"Ġkin":4454,"Ġkee":4455,"Ġkettle":4456,"ĠSet":4457,"ĠSome":4458,"ĠSave":4459,"ĠSax":4460,"ĠShould":4461,"ĠSundays":4462,"ĠSeneca":4463,"ĠScene":4464,"ropic":4465,".);":4466,".)--":4467,"ĠLA":4468,"ĠLord":4469,"ĠLong":4470,"ĠLeave":4471,"ĠLove":4472,"ĠLOND":4473,"ĠLonger":4474,"Ġaside":4475,"ĠMur":4476,"ĠMight":4477,"ĠMine":4478,"ĠMother":4479,"ĠMark":4480,"ĠMuch":4481,"ĠMerc":4482,"ĠMiss":4483,"ternal":4484,"ĠCan":4485,"ĠClow":4486,"urs":4487,"urch":4488,"urous":4489,"urlish":4490,"urbed":4491,"Ġwhine":4492,"Ġwhiff":4493,"Ġwhips":4494,"Ġwhilst":4495,"uel":4496,"ĠBring":4497,"ĠBlack":4498,"oler":4499,"olume":4500,"Ġangel":4501,"Ġmoor":4502,"Ġmode":4503,"Ġorchard":4504,"Ġorisons":4505,"Ġorgan":4506,"cknow":4507,"eeven":4508,"uses":4509,"ĠPA":4510,"ĠPer":4511,"ĠPER":4512,"ĠPale":4513,"ĠPLA":4514,"ĠPRIN":4515,"ĠPatri":4516,"geon":4517,"gels":4518,"Ġdove":4519,"Ġdoors":4520,"Ġdooms":4521,"Ġdozen":4522,"Ġconc":4523,"Ġconn":4524,"Ġconv":4525,"Ġconject":4526,"Ġconcl":4527,"Ġcongre":4528,"Ġconverted":4529,"Ġconstantly":4530,"Ġspend":4531,"Ġspec":4532,"Ġspoke":4533,"Ġspoken":4534,"ĠRE":4535,"ĠRem":4536,"ĠRap":4537,"ĠRoman":4538,"ĠRob":4539,"ĠRoyal":4540,"iles":4541,"iled":4542,"iless":4543,"ilful":4544,"iliar":4545,"ĠFard":4546,"ĠFear":4547,"ĠFell":4548,"ĠFort":4549,"ĠFran":4550,"ĠFriend":4551,"ĠFirst":4552,"ĠFrame":4553,"ĠFye":4554,"ĠGree":4555,"ĠGutenberg":4556,"Ġsung":4557,"Ġsugg":4558,"ighted":4559,"Ġdew":4560,"Ġdeer":4561,"Ġdelay":4562,"Ġdeject":4563,"Ġdepart":4564,"Ġdeceived":4565,"Ġdevotion":4566,"Ġdeceased":4567,"Ġsoci":4568,"Ġsolem":4569,"Ġsooner":4570,"aining":4571,"Ġshad":4572,"Ġshake":4573,"Ġshaping":4574,"Ġwilling":4575,"Ġwillingly":4576,"ouses":4577,"Ġlief":4578,"Ġlips":4579,"Ġliken":4580,"Ġliquor":4581,"ssary":4582,"lete":4583,"pper":4584,"ĠNone":4585,"ĠNares":4586,"Ġvap":4587,"Ġvie":4588,"Ġvantage":4589,"Ġvirgin":4590,"Ġvolume":4591,"Ġloam":4592,"Ġloss":4593,"Ġloves":4594,"Ġlobby":4595,"ersways":4596,"lied":4597,"liest":4598,"liance":4599,"lieve":4600,"ligation":4601,"ligence":4602,"Ġallowed":4603,"Ġalleg":4604,"Ġshown":4605,"Ġshred":4606,"Ġshoe":4607,"Ġshock":4608,"Ġshuff":4609,"Ġship":4610,"Ġshoon":4611,"ĠDEN":4612,"ĠDead":4613,"ĠDep":4614,"ĠDost":4615,"ĠDAL":4616,"ĠDanes":4617,"log":4618,"love":4619,"logue":4620,"ĠVul":4621,"ĠValent":4622,"seless":4623,"Ġnobl":4624,"unate":4625,"univers":4626,"Ġmachine":4627,"ĠHamblet":4628,"Ġplain":4629,"Ġplatform":4630,"Ġpledge":4631,"Ġusurp":4632,"Ġusually":4633,"Ġwhatsoever":4634,"Ġunst":4635,"Ġunion":4636,"Ġunsp":4637,"Ġunless":4638,"Ġunken":4639,"Ġunman":4640,"Ġunbated":4641,"Ġunanel":4642,"Ġunyoke":4643,"ends":4644,"ended":4645,"icy":4646,"icated":4647,"icians":4648,"icrous":4649,"ulty":4650,"ulted":4651,"ĠThose":4652,"Ġherb":4653,"Ġherns":4654,"Ġknee":4655,"Ġknight":4656,"Ġknock":4657,"Ġknees":4658,"igger":4659,"iching":4660,"Ġrood":4661,"Ġrant":4662,"Ġrul":4663,"Ġrise":4664,"Ġrouse":4665,"Ġrule":4666,"Ġrugg":4667,"Ġrotten":4668,"Ġrules":4669,"Ġrhym":4670,"Ġfaire":4671,"Ġfaces":4672,"hoarded":4673,"hoebus":4674,"ectancy":4675,"Ġexc":4676,"Ġexquisite":4677,"Ġcomb":4678,"Ġcomment":4679,"Ġcomedy":4680,"Ġpros":4681,"Ġprophe":4682,"Ġpropos":4683,"Ġprodu":4684,"Ġpropri":4685,"Ġgoing":4686,"ounding":4687,"Ġtheme":4688,"Ġthemselves":4689,"Ġdisappointed":4690,"Ġmoreover":4691,"Ġseated":4692,"Ġmanner":4693,"Ġplayer":4694,"uded":4695,"udgel":4696,"Ġknows":4697,"Ġgoodly":4698,"agion":4699,"Ġjest":4700,"Ġjaw":4701,"Ġjade":4702,"Ġjourn":4703,"orting":4704,"Ġamble":4705,"Ġambit":4706,"Ġambig":4707,"ĠItal":4708,"Ġpost":4709,"Ġpoem":4710,"Ġpoets":4711,"Ġpocket":4712,"_;[":4713,"_;--":4714,"ement":4715,"Ġard":4716,"Ġneigh":4717,"Ġwouldst":4718,"ansform":4719,"answer":4720,"Ġsaying":4721,"Ġblame":4722,"Ġblunt":4723,"Ġblank":4724,"Ġblister":4725,"Ġblush":4726,"Ġtry":4727,"Ġtrust":4728,"Ġtransform":4729,"Ġoffences":4730,"throw":4731,"through":4732,"Ġprec":4733,"Ġpreced":4734,"Ġprevent":4735,"Ġprecept":4736,"cially":4737,"Ġquot":4738,"Ġquality":4739,"Ġquiddits":4740,"Ġprim":4741,"Ġprince":4742,"Ġprison":4743,"Ġgraces":4744,"rywig":4745,"Ġhatchment":4746,"Ġoutlive":4747,"Ġado":4748,"Ġadject":4749,"Ġadmit":4750,"Ġadieu":4751,"Ġadapted":4752,"Ġacting":4753,"Ġacted":4754,"Ġactors":4755,"Ġmusty":4756,"Ġflat":4757,"Ġflour":4758,"Ġflaw":4759,"Ġflames":4760,"Ġflourish":4761,"Ġcharit":4762,"Ġchamber":4763,"ĠWhile":4764,"Ġshouldst":4765,"126":4766,"127":4767,"128":4768,"129":4769,"Ġappeare":4770,"Ġapproach":4771,"Ġshed":4772,"Ġshelf":4773,"othing":4774,"perious":4775,"perial":4776,"perien":4777,"Ġabru":4778,"Ġabridgment":4779,"Ġnights":4780,"their":4781,"Ġbeteem":4782,"ignant":4783,"Ġpermiss":4784,"Ġcommune":4785,"ĠUse":4786,"Ġsail":4787,"Ġsafe":4788,"Ġsirs":4789,"Ġobtained":4790,"Ġobedience":4791,"Ġobligation":4792,"Ġheavily":4793,"Ġeng":4794,"Ġenem":4795,"Ġencum":4796,"Ġenvenom":4797,"Ġenerg":4798,"Ġenseamed":4799,"hief":4800,"Ġcalling":4801,"Ġdesce":4802,"Ġdesign":4803,"Ġdesert":4804,"Ġdespatch":4805,"130":4806,"131":4807,"132":4808,"133":4809,"134":4810,"135":4811,"136":4812,"137":4813,"138":4814,"139":4815,"Ġthence":4816,"Ġpasses":4817,"Ġpasseth":4818,"ĠKean":4819,"Ġcontest":4820,"Ġcontraction":4821,"aplas":4822,"ĠJames":4823,"ĠJuven":4824,"ints":4825,"Ġgentry":4826,"ĠLethe":4827,"tesy":4828,"ĠEcstasy":4829,"Ġriotous":4830,"Ġscent":4831,"Ġscold":4832,"Ġscope":4833,"Ġscenes":4834,"Ġscorns":4835,"Ġscourge":4836,"Ġhearts":4837,"Ġnative":4838,"Ġwhereon":4839,"Ġwherefore":4840,"Ġwhereof":4841,"about":4842,"ruct":4843,"Ġbrook":4844,"ĠSteeven":4845,"Ġconfine":4846,"Ġconfusion":4847,"Ġconference":4848,"Ġconfident":4849,"rowner":4850,"Ġdays":4851,"Ġmarvellous":4852,"Ġindicated":4853,"Ġgrant":4854,"ĠEnc":4855,"Ġtwain":4856,"Ġtwenty":4857,"Ġsworn":4858,"Ġswift":4859,"Ġbreast":4860,"Ġdiscuss":4861,"Ġchoose":4862,"Ġcholer":4863,"Ġcourtesy":4864,"ĠWhereon":4865,"beard":4866,"behind":4867,"Ġremain":4868,"Ġremiss":4869,"ĠBeen":4870,"ĠBehind":4871,"Ġdistance":4872,"Ġdistrust":4873,"Ġdistingu":4874,"Ġdistempered":4875,"Ġworlds":4876,"Ġimponed":4877,"Inoculate":4878,"lander":4879,"sword":4880,"Ġbraz":4881,"Ġbracket":4882,"Ġfriendship":4883,"Ġputs":4884,"urnish":4885,"Ġsupper":4886,"Ġsuppliance":4887,"Ġsecure":4888,"Thou":4889,"Throws":4890,"gins":4891,"Ġrare":4892,"Ġrack":4893,"Ġrage":4894,"Ġraised":4895,"Ġrapier":4896,"Ġbodkin":4897,"Ġbodiless":4898,"Ġpurples":4899,"Ġpurposes":4900,"Ġinterest":4901,"Ġintended":4902,"Ġhart":4903,"Ġharrows":4904,"Ġharping":4905,":--\"":4906,"Ġtrail":4907,"Ġtrade":4908,"Ġbestowed":4909,"cline":4910,"Ġbuz":4911,"Ġfollowed":4912,"ĠpersÃĥ":4913,"Ġbeaver":4914,"Ġbeautified":4915,"ĠĠĠĠĠĠĠĠĠĠĠĠĠĠĠĠĠĠĠĠĠĠĠĠĠĠĠĠĠĠĠĠĠ":4916,"Ġliveliest":4917,"Ġbloody":4918,"Ġgroundlings":4919,"Ġsignifies":4920,"Ġtreble":4921,"Ġtremble":4922,"Ġsentence":4923,"Ġwinds":4924,"ermine":4925,"Ġcloak":4926,"Ġclosing":4927,"Ġformer":4928,"ĠĠĠĠĠĠĠĠĠĠĠĠĠĠĠĠĠĠĠĠĠĠĠĠĠĠĠ":4929,"Ġpresentment":4930,"140":4931,"141":4932,"142":4933,"eys":4934,"Ġcorse":4935,"Ġcoroner":4936,"Ġcorresp":4937,"Ġcarrion":4938,"Ġphilosophy":4939,"Ġhumble":4940,"Ġhumorous":4941,"Ġeverything":4942,"Ġassist":4943,"estionable":4944,"Ġdefend":4945,"Ġdefect":4946,"Ġdefeated":4947,"Ġjoin":4948,"Ġjocund":4949,"Ġsealed":4950,"Ġoverdone":4951,"Ġdraught":4952,"Ġlasting":4953,"ĠPlayers":4954,"umely":4955,";--_":4956,"Ġmonst":4957,"Ġwitch":4958,"Ġwarning":4959,"Ġwarlike":4960,"Ġfools":4961,"Ġpleased":4962,"Ġstranger":4963,"Ġrepent":4964,"Ġreplies":4965,"ĠMars":4966,"ĠGovern":4967,"Ġbrainish":4968,"rithee":4969,"upied":4970,"Ġwisest":4971,"ĠAnn":4972,"Ġvict":4973,"Ġjudge":4974,"Ġcommandment":4975,"Ġbrothers":4976,"eculi":4977,"feit":4978,"Ġtrial":4979,"Ġtribute":4980,"Ġserious":4981,"Ġserpent":4982,"Ġgalled":4983,"Ġvisitation":4984,"Ġcharacters":4985,"Ġimportant":4986,"Ġimportance":4987,"Ġimportunate":4988,"Ġpersonage":4989,"Ġstrangely":4990,"ORE":4991,"acbeth":4992,"ocation":4993,"Ġaffront":4994,"Ġsleeping":4995,"Ġoccupied":4996,"Ġfeel":4997,"Ġlights":4998,"Ġeffects":4999,"Ġstrongest":5000,"Ġconceal":5001,"Ġvirtues":5002,"Ġattach":5003,"Ġfavourite":5004,",\"--":5005,"mean":5006,"traged":5007,"ĠExtorted":5008,"Ġwax":5009,"Ġwaiting":5010,"Ġfires":5011,"Ġglim":5012,"Ġhelmet":5013,"Ġrelation":5014,"Ġrelished":5015,"Ġrelative":5016,"ĠRebell":5017,"ĠRequite":5018,"Ġjustif":5019,"Ġoffendendo":5020,"Ġcourtier":5021,"Ġcourtiers":5022,"Ġturned":5023,"Ġaffected":5024,"Ġsongs":5025,"Ġminute":5026,"Ġminutes":5027,"Ġbonny":5028,"Ġcurls":5029,"Ġcursed":5030,"Ġpigeon":5031,"Ġpriest":5032,"Ġsuiting":5033,"Ġliberal":5034,"ulture":5035,"Ġpoints":5036,"Ġquibble":5037,"Ġcharm":5038,"ĠcharÃĥ":5039,"ANS":5040,"gues":5041,"nerly":5042,"Ġutmost":5043,"Ġmerit":5044,"Ġmerry":5045,"Ġopinion":5046,"Ġcunnings":5047,"Ġdip":5048,"Ġdrowned":5049,"Ġdoubtful":5050,"Ġincor":5051,"lexion":5052,"Ġnearly":5053,"Ġhangers":5054,"Ġstops":5055,"Ġsuffers":5056,"licate":5057,"Ġcompass":5058,"Ġperfection":5059,"ĠUnmix":5060,"Ġbreaks":5061,"Ġsecrets":5062,"Ġdreaming":5063,"Ġunderstood":5064,"Ġconsideration":5065,"Trumpet":5066,"Trumpets":5067,"Unpre":5068,"doing":5069,"Ġescape":5070,"Ġespial":5071,"Ġtouching":5072,"Ġmusick":5073,"Ġwonderful":5074,"onceit":5075,"Ġfrequent":5076,"Ġchild":5077,"Ġdenote":5078,"Ġdirection":5079,"Ġdeepest":5080,"Ġbellow":5081,"Ġbegins":5082,"Ġhistorical":5083,"Ġrepresented":5084,"ĠProject":5085,"ĠProbably":5086,"Ġshortly":5087,"Ġexpel":5088,"Ġexpectancy":5089,"Ġprofound":5090,"Ġcontinued":5091,"Ġcorrupted":5092,"Ġquietly":5093,"Ġquietus":5094,"Twas":5095,"cstacy":5096,"change":5097,"nature":5098,"olement":5099,"shaw":5100,"shall":5101,"Ġignorant":5102,"Ġtender":5103,"Ġmisery":5104,"Ġmischief":5105,"Ġweakness":5106,"Ġforehead":5107,"Ġforeknow":5108,"Ġcoat":5109,"Ġcrime":5110,"Ġcruel":5111,"Ġcapable":5112,"Ġdarkly":5113,"Ġdarkest":5114,"ĠThanks":5115,"ĠAdmit":5116,"ĠHerod":5117,"righted":5118,"Ġforgot":5119,"Ġstrictly":5120,"Ġrefers":5121,"Ġreflection":5122,"ĠConj":5123,"Ġsuccess":5124,"Ġdelight":5125,"Ġdelights":5126,"Ġvalue":5127,"Ġplaces":5128,"Ġunsmirched":5129,"Ġfaculty":5130,"Ġargal":5131,"Ġdescribes":5132,"Ġbreeder":5133,"Ġaccented":5134,"Ġintroduction":5135,"Ġsubjects":5136,"Ġfeelingly":5137,"IGGER":5138,"ipation":5139,"ipped":5140,"lowers":5141,"mony":5142,"monious":5143,"Ġerring":5144,"Ġeruption":5145,"Ġsenses":5146,"Ġmethought":5147,"Ġmouths":5148,"Ġweasel":5149,"Ġweapon":5150,"Ġwretched":5151,"Ġbroad":5152,"Ġbroken":5153,"Ġburst":5154,"Ġcenturies":5155,"Ġtowards":5156,"Ġpitiful":5157,"Ġpolicy":5158,"Ġposy":5159,"Ġpositive":5160,"Ġinfix":5161,"Ġinfinite":5162,"Ġinclin":5163,"Ġguest":5164,"Ġhappy":5165,"Ġforthwith":5166,"Ġstarted":5167,"Ġstrucken":5168,"Ġreckon":5169,"Ġreckless":5170,"Ġresolve":5171,"Ġresolution":5172,"ĠPluck":5173,"ĠPlautus":5174,"Ġconjure":5175,"Ġconjuring":5176,"Ġconvey":5177,"Ġvari":5178,"orthy":5179,"Ġneglected":5180,"Ġnegligence":5181,"anslate":5182,"Ġtruant":5183,"Ġperformed":5184,"Ġaccording":5185,"Ġprivately":5186,"***":5187,"Season":5188,"Soft":5189,"Trappings":5190,"âĢľ":5191,"Ġedge":5192,"ĠEnters":5193,"henish":5194,"Ġmutine":5195,"Ġwoodcock":5196,"Ġwildly":5197,"._\"]":5198,"Ġbulk":5199,"Ġbulwark":5200,"Ġcataplas":5201,"Ġclear":5202,"Ġdrift":5203,"Ġdivis":5204,"Ġdressed":5205,"Ġpickers":5206,"Ġpaintings":5207,"ĠTrumpets":5208,"Ġbehold":5209,"Ġevils":5210,"Ġstreets":5211,"Ġrelief":5212,"ifications":5213,"Ġconstit":5214,"Ġconsequently":5215,"Ġconsequences":5216,"Ġsummons":5217,"Ġallowance":5218,"Ġunprofit":5219,"Ġexistence":5220,"Ġjuice":5221,"Ġamazement":5222,"Ġpossess":5223,"Ġpressure":5224,"Ġpronounced":5225,"Ġimperial":5226,"Ġimperfect":5227,"Ġobjects":5228,"Ġcontrive":5229,"Ġpursu":5230,"Ġintelligence":5231,"Ġbuilds":5232,"Ġentertainment":5233,"Ġmajesties":5234,"Ġmajestical":5235,"Ġliegemen":5236,"Ġsimples":5237,"Ġchiefly":5238,"Returning":5239,"fallen":5240,"Ġtrophy":5241,"Ġwann":5242,"Ġwomb":5243,"Ġowl":5244,"Ġballad":5245,"Ġfiery":5246,"Ġfamiliar":5247,"Ġfetters":5248,"Ġfilm":5249,"Ġfantasy":5250,"Ġfruits":5251,"Ġcelebr":5252,"Ġcheer":5253,"Ġcowards":5254,"Ġcreatures":5255,"Ġcondolement":5256,"Ġcautious":5257,"Ġderived":5258,"Ġdagger":5259,"Ġdwelling":5260,"Ġpotent":5261,"Ġporcup":5262,"Ġportraiture":5263,"arnished":5264,"Ġinstrument":5265,"Ġinexperien":5266,"ĠTwo":5267,"ĠHypÃĦ":5268,"Ġbecomes":5269,"Ġelectronic":5270,"Ġevidently":5271,"Ġstealing":5272,"Ġstealers":5273,"ĠMusicians":5274,"ĠMahomet":5275,"ĠClown":5276,"ĠChanson":5277,"ĠBRADBUR":5278,"Ġantique":5279,"Ġanimal":5280,"Ġanticipation":5281,"ĠorbÃĥ":5282,"ĠGlossary":5283,"ĠGRAVED":5284,"Ġventages":5285,"Ġvacant":5286,"Ġplucks":5287,"Ġunworthy":5288,"Ġuniversity":5289,"Ġexactly":5290,"Ġprodigal":5291,"Ġsepulture":5292,"Ġnecessary":5293,"Ġblazon":5294,"Ġprinted":5295,"Ġimpressed":5296,"Ġchariest":5297,"Ġapplicable":5298,"Ġobsequious":5299,"TIONS":5300,"Ġcontemporaries":5301,"ĠEVANS":5302,"Ġrivals":5303,"Ġdischarge":5304,"Ġdistinctions":5305,"Ġfellowship":5306,"Ġenterpr":5307,"Ġtreacherous":5308,"Ġadvancement":5309,"Ġpleasures":5310,"Ġcolumbines":5311,"Ġsubstantive":5312,"Ġsatirical":5313,"Ġcurrents":5314,"Ġrecorders":5315,"Ġlibertine":5316,"Ġincestuous":5317,"Ġespecially":5318,"Ġprofanely":5319,"Ġsolicitings":5320,"Ġweddings":5321,"Ġwantonness":5322,"Ġscholastic":5323,"Ġcouplets":5324,"Ġshrouding":5325,"Ġproclaims":5326,"AGE":5327,"Beneath":5328,"Confess":5329,"MARK":5330,"Nymph":5331,"Robustious":5332,"Supporting":5333,"Venom":5334,"beautified":5335,"craft":5336,"dreams":5337,"effectual":5338,"master":5339,"ovÃĥ":5340,"virtues":5341,"vailing":5342,"whel":5343,"Ġ200":5344,"Ġaston":5345,"Ġsorry":5346,"Ġsource":5347,"Ġsandal":5348,"Ġslip":5349,"Ġsweat":5350,"Ġsixte":5351,"Ġmotive":5352,"Ġmessen":5353,"Ġmildew":5354,"reading":5355,"Ġwhale":5356,"Ġwinking":5357,"Ġwittingly":5358,"Ġwharf":5359,"Ġwritten":5360,"Ġoperant":5361,"Ġbranches":5362,"Ġbaby":5363,"Ġfuture":5364,"Ġfardels":5365,"Ġfrankly":5366,"Ġfencing":5367,"Ġcounsel":5368,"Ġcounterfeit":5369,"Ġcuriously":5370,"Ġdetermine":5371,"Ġdiligence":5372,"Ġdignity":5373,"Ġdearest":5374,"Ġdaintier":5375,"Ġpestil":5376,"Ġpunishment":5377,"Ġludicrous":5378,"Ġhilts":5379,"Ġhundred":5380,"Ġthreaten":5381,"ĠTouching":5382,"Ġgirdle":5383,"Ġgarlands":5384,"ĠApollo":5385,"ĠHaply":5386,"ĠHercules":5387,"ĠHOUSE":5388,"Ġnearer":5389,"Ġnumbers":5390,"Ġevents":5391,"Ġepithet":5392,"ĠWelcome":5393,"ributed":5394,"herods":5395,"ĠThessaly":5396,"Ġkeeps":5397,"ropically":5398,"ĠLONDON":5399,"ĠMurder":5400,"ĠMercury":5401,"ĠClowns":5402,"cknowled":5403,"ĠPERFORM":5404,"ĠPLAYER":5405,"ĠPatrick":5406,"ĠRobin":5407,"ĠFrancis":5408,"ĠFriends":5409,"ĠGreeks":5410,"Ġsociety":5411,"Ġsolemn":5412,"Ġlikeness":5413,"Ġallegiance":5414,"Ġshreds":5415,"ĠDENMARK":5416,"ĠDALY":5417,"ĠVulcan":5418,"ĠValentine":5419,"Ġunkennel":5420,"Ġhernshaw":5421,"Ġrugged":5422,"Ġrhymes":5423,"Ġfairest":5424,"Ġproposer":5425,"Ġpropriety":5426,"Ġambitious":5427,"Ġneighbour":5428,"Ġblunted":5429,"Ġprecepts":5430,"Ġadjective":5431,"Ġcharitable":5432,"Ġappeared":5433,"Ġabrupt":5434,"Ġpermission":5435,"Ġencumber":5436,"Ġenergies":5437,"ĠJuvenal":5438,"ĠSteevens":5439,"Ġdistinguish":5440,"Ġcorrespond":5441,"ĠGovernment":5442,"eculiar":5443,"ĠRebellious":5444,"Ġespials":5445,"Ġforeknowing":5446,"Ġcataplasm":5447,"Ġunprofitable":5448,"Ġcelebrated":5449,"Ġporcupine":5450,"Ġinexperienced":5451,"ĠBRADBURY":5452,"ĠGRAVEDIGGER":5453}