#version: 0.2
 

▁ t
h e
▁ a
▁ _
▁ 

i n
o u
▁ s
▁ m
▁ w
r e
▁t he
o t
▁ o
i s
e r
h a
n d
. _
i t
▁ b
▁ I
e n
o n
o r
▁ f
l l
] 

▁ c
e s
▁o f
▁ d
n ot
▁t o
▁ p
▁ l
▁ y
. 

a r
in g
▁y ou
▁ h
▁ [
a t
e d
▁t h
▁a nd
a n
ha t
▁ in
. ]

, 

s t
▁ T
a m
e t
v e
▁ g
o w
o m
o ot
not e
▁ he
oot note
F ootnote
▁[ Footnote
s e
c e
▁_ H
▁ A
▁ H
a y
▁b e
▁ n
▁ is
i m
l e
▁m y
▁ it
en t
u t
i on
▁ e
it h
c h
▁ ha
▁ u
a s
▁m e
▁ W
l d
g h
▁_H am
▁_Ham ._
- -
▁ not
i r
e a
r a
▁h is
▁t hat
c t
or d
▁w ith
' s
▁ (
l y
▁f or
▁you r
r i
i ll
I .
gh t
▁s t
_ ,
o o
ou r
▁ re
he r
▁ O
a l
? 

▁ S
▁w e
▁T he
v er
▁ k
s ,
▁th is
a d
r o
▁o n
▁ L
. )
i d
▁a s
▁ C
▁ M
t er
u r
▁h im
a nd
k e
▁w h
; 

_ ]
e ._
▁ B
▁l i
▁l ord
u e
▁a n
om e
▁m o
o l
▁o r
es t
' d
▁A nd
▁I I
▁[ _
c k
▁ha ve
▁ P
e e
ou ld
▁II I.
▁ R
▁s p
▁d o
▁c on
▁s u
g e
▁ G
i l
▁ F
y ,
▁_ i
▁d e
_, ]
. e._
V .
u s
▁I .
▁w ill
▁_i .e._
▁w as
es s
▁s o
▁b y
i f
▁s ha
▁th ou
[ 1
a in
v en
: 

oo d
i ght
▁_i.e._ ,
r om
▁ N
ou t
. H
s s
▁a re
f e
l et
p p
▁ v
▁l o
ar t
an t
! 

▁ D
▁_ T
ou s
▁s h
▁b ut
▁a ll
' t
a ll
▁sha ll
l i
b le
ar d
▁n o
q u
in d
▁m a
▁f rom
se l
l o
▁a t
▁u n
▁H am
e ,
u st
er s
▁p l
e ar
i ve
u n
▁_ P
▁w hat
▁Ham let
._ ]
E N
u m
▁_ O
i c
u l
▁T h
ha n
K ing
e ll
r ow
u re
at ion
▁he r
▁k n
▁u s
▁th y
▁( R
▁wh i
ue en
i g
o s
▁ r
▁T o
h o
▁f a
▁e x
▁T hat
▁u p
King ._
en ce
▁c om
sel f
e nd
▁I I.
▁B ut
. [
E n
, [
on g
or ._
▁p ro
▁_H or._
▁_ King._
▁ our
▁ V.
a er
he re
in e
ea k
at e
▁g o
ver y
E x
o re
▁t im
▁_ L
he n
ou nd
▁the m
▁d is
▁_P ol
' ll
▁s e
at her
▁mo re
ot her
▁_Pol ._
▁ Y
in k
▁s ee
▁W hat
▁whi ch
▁m an
▁m ad
Q ueen
▁the re
▁pl ay
u d
▁k ing
▁kn ow
E R
a g
p h
w e
▁ j
._ ]

▁g ood
▁( L
R A
▁m ay
▁the 

C .)
t o
▁_ and
or t
▁c an
▁_ A
▁c ome
an ce
-- 

a st
▁a m
▁p o
oo k
▁lord ,
i es
▁a r
▁I t
Queen ._
e m
▁_ M
▁w ould
▁b l
▁n e
▁Th is
▁ very
▁he re
▁[_ Ex
▁lo ve
▁_and _
e f
k es
o se
▁t r
▁t han
▁_ I
▁s ay
▁I V.
▁f ather
ed ,
ct ion
_ ;
s 

▁_ Queen._
▁the ir
▁l et
▁O ,
▁we ll
▁III. 1
a u
a ge
o ,
▁ if
▁ qu
re ss
▁the y
am e
En ter
m ent
▁me an
▁mo st
▁sp eak
c i
is h
ar k
▁g ra
▁n ow
.H .]

▁ hat
▁ im
▁ out
▁w or
▁I 'll
on e
▁p r
▁M y
▁tim e
h i
▁_ B
▁p re
▁li ke
1 :
2 :
▁_ Enter
▁you ,
▁H e
▁_L aer
3 :
L E
a ke
i ce
n t
t h
▁I n
▁_T he
▁_O ph
▁_Laer ._
▁_Oph ._
5 :
a re
c c
o ld
p t
ou l
as s
▁(R .)
4 :
a ble
w n
▁_ G
▁_ R
▁ma ke
6 :
7 :
p e
▁ 't
▁a d
▁a g
▁m ust
▁f l
▁c ha
▁of f
▁to o
at h
▁( _
▁C lo
▁sh ould
▁up on
0 :
1 st
9 :
o ll
▁w ord
▁the e
▁d id
ro ss
▁hat h
▁Clo ._
' er
O N
▁ "
▁a pp
▁_ 1st
is t
▁ha d
▁we re
.) 

8 :
U S
i ck
▁a b
▁s he
▁s ome
ot h
it y
ow n
▁n ight
ig n
▁_Enter _
▁the se
▁o wn
at i
▁and 

ea d
▁lord .

▁su ch
o d
p er
▁ '
re d
▁b et
es ,
▁p er
▁A s
▁H ow
ho st
▁ag ain
A M
a ve
b er
s .

▁F or
▁com m
[ 2
_ 

a k
it t
▁I f
▁of 

▁th ink
▁he a
▁Y ou
i re
▁ U
▁s a
▁s ir
▁o b
ea re
▁on e
▁I. 1
▁[_Ex it
LE T
: _]
T I
f f
n ess
▁ en
▁_ c
re at
nd er
▁h on
▁W e
▁W h
_; ]
AM LET
[ 3
h ing
i ous
u ch
▁a l
▁a ct
▁s oul
re t
▁in to
ay ,
▁S ha
▁wh o
ross es
S T
e p
f ore
r y
r an
u ll
▁_ W
▁m other
it s
▁c all
▁d es
. [1
H E
e l
i v
p eare
s .]

▁w hen
▁the n
at ch
ed 

▁H AMLET
▁be en
▁W ith
ra ct
ur n
kes peare
▁Sha kespeare
. C.)
O RA
[ 4
o st
u il
▁ K
▁ Q
▁_ F
▁to 

▁p ass
▁g ent
▁con t
.H .)

row n
TI O
ORA TIO
8 ]

A R
e ct
p he
w ay
▁ E
▁ J
▁t ell
in t
re e
▁b r
▁p art
ing ,
▁g ive
▁n at
▁( C.)
▁L et
▁li fe
▁'t is
L ON
f ul
m ark
s ent
▁ ri
ou nt
▁s c
▁w here
re n
▁o ld
▁to _
▁p ur
▁l ook
at ter
▁he art
▁e y
ea ven
▁S t
▁The re
▁an y
▁_M ar
oll ow
5 ]
d e
l es
r u
▁o 'er
▁d ead
ing s
▁h ow
▁he ar
▁ha nd
ri end
un t
▁hea ven
, --
, [1
. "
. --
7 ]

E EN
I N
I US
U EEN
[ 5
_ ,

a b
p ress
r .
▁m ar
▁m ight
▁g r
▁H ORATIO
ea ve
▁O phe
▁S o
▁R O
▁R .H.]

fe ct
li a
▁mad e
ER N
▁gent le
▁_Mar ._
▁Ophe lia
0 ]
O LON
a p
c he
f t
s id
▁a 

it e
▁c h
at ed
▁H eaven
▁L aer
ee p
▁con f
▁thou ght
os ._
▁dis c
▁_R os._
▁Q UEEN
OLON IUS
▁Laer t
3 ]
4 ]

C rosses
d er
m s
s ,

▁ En
▁t w
▁s w
▁s et
▁m uch
▁b re
en mark
or ati
ing 

▁H orati
▁W here
ome ,
▁de ath
▁D enmark
RA N
▁can not
▁gra ve
▁' T
▁[_Exit _
1 ]
2 ]
9 ]
a ck
▁ V
▁a cc
▁m ine
is e
._ 

▁c our
▁d r
▁d ay
▁l eave
▁th us
▁e art
▁re m
▁B e
▁[_ T
▁sp ir
▁(L .)
au ght
▁im p
▁wor ld
▁eart h
1 ]

2 ]

6 ]
6 ]

e unt
g l
m an
n g
o p
s w
er ,
en s
on s
or y
▁d own
▁in 

ce ll
▁it ,
▁me ,
ri ef
▁L .H.]

est y
▁P OLONIUS
ee ch
▁de ar
▁dis t
▁se c
▁se en
we et
au se
▁mean s
▁pr ay
▁K IN
▁KIN G
9 ]

_ .]

a c
a w
a se
a ut
a ch
i al
▁ ra
▁a f
._ )
it her
▁b ra
or n
▁f riend
▁c ould
▁p ut
▁l ong
▁l itt
ed .]

▁g reat
om et
▁with out
▁him self
▁su pp
▁sh ow
ear s
▁us ed
▁nat ure
▁litt le
4 ]
D EN
E S
L DEN
g in
i e
i an
l ay
v es
▁ ro
▁t ra
▁a way
▁_ C
ou gh
▁m atter
er y
it ion
▁b od
▁y et
▁A y,
▁ha r
ir st
▁re p
▁lord ?

▁an sw
▁G U
all y
▁ex press
▁tr ue
ST ERN
▁pur p
▁Laert es
▁En gl
LDEN STERN
0 ]

3 ]

C RAN
I LDENSTERN
S EN
T Z
[ 6
[ 7
a le
i x
l ed
s r
s er
▁_ D
in ce
▁s k
▁m ind
on t
▁f ear
▁l ad
▁th ing
▁th ose
▁in t
▁g i
as on
ly ,
▁O f
▁O r
▁[_ Crosses
▁N o,
▁N ay,
▁_O sr
▁fa ir
we en
▁[_Ex eunt
▁_I n
▁'T is
▁dr ink
▁GU ILDENSTERN
CRAN TZ
SEN CRANTZ
& c
' st
b e
g er
h ind
j ect
l ing
q ueen
t y
▁ queen
▁s weet
er n
er t
er ._
▁b u
▁b est
▁b oth
en se
▁f ind
▁f ell
▁you .

▁h old
▁g rief
▁he ad
▁W ho
▁W hen
▁not hing
▁for m
oo l
▁on ce
▁or 

▁D o
▁_B er._
▁_G uil
▁bet ween
▁Wh y,
▁RO SENCRANTZ
▁Horati o
▁_Osr ._
▁_Guil ._
5 ]

7 ]
? _]
c l
c y
i ld
i gh
l t
o nd
p on
▁ ent
▁ other
▁ &c
▁t ake
▁_ S
▁_ f
▁s l
▁s ign
▁s omet
▁w atch
or m
▁f ollow
▁c ar
▁d aught
▁p ers
et h
▁n or
▁is 

▁it s
▁e nd
▁e ar
▁ha s
al k
▁M r.
▁li ve
▁thou gh
.H .
▁Hamlet ,
▁But ,
▁bl ood
▁now ,
." ]

▁gr ound
▁sign if
: --
I A
T ES
g g
i ed
r ing
r ant
s on
w ard
▁ i
▁ ̈
▁t re
▁_ N
▁_ w
ou b
ou ch
▁s ent
▁s ense
▁w it
▁w ay
▁w ind
▁I s
or row
▁f ree
▁f irst
▁c lo
not her
▁p h
▁in de
▁be ing
▁be li
ent ly
ut h
ion ,
▁st and
▁sp eech
▁G ive
▁N ot
▁v i
▁pre sent
▁Shakespeare 's
▁ey es
- m
8 ]
A ER
L IA
P HE
e ve
l ess
o ck
p s
p os
s .
v ed
▁a ir
▁a nother
ou ght
▁s ame
▁w ar
▁f e
▁c l
▁c or
▁d re
▁l ast
▁h um
▁it self
▁e very
▁ha st
▁u se
▁his 

▁st ate
▁S p
▁as s
▁C ome,
▁him ,
▁an ci
▁And ,
▁do es
▁G ood
▁N o
▁_T o
um p
ic al
▁com es
▁tim e,
▁see m
▁j o
▁tw o
▁spir it
▁answ er
▁̈ d
AER TES
PHE LIA
C E
a ce
l c
m en
n ight
o ve
o ver
o il
r y,
r ong
w ell
▁ 1
▁t er
▁s ea
▁m ur
▁w o
▁o ver
is on
ha r
en er
▁d ra
▁d one
ed .

an k
et s
▁A t
▁be aut
▁e m
▁u nder
ir t
id e
est ion
▁P lay
ain t
't he
▁ma j
ust om
un n
▁(R .H.)

▁fa ce
▁ex cell
▁Y our
▁mad ness
▁(L .H.)

▁He re
▁ad v
▁ab out
▁bet ter
▁again st
▁comm on
▁sa id
▁bod y
▁express ion
▁purp ose
▁gi ven
▁daught er
C EN
c ed
f orm
g et
r it
r ist
s hi
t her
t end
u ra
▁ ill
▁t ri
ou n
▁m on
▁f ar
▁f ool
▁c ause
▁d i
▁d ut
▁p le
ar y
▁h o
▁and ,
om an
se ,
▁it .

▁me .

▁your self
▁st ran
▁re t
▁O PHELIA
▁S CEN
ver b
ver s
▁L .]

▁L AERTES
▁M ar
'd ,
▁N ow
▁_T h
▁un c
um e
▁(R .C.)
▁whi le
,[ 4
▁_A nd
▁po or
▁ar t
▁ne ver
▁wor k
▁sir ,
▁_F or
▁br other
▁ri ght
▁bra in
▁Engl and
▁[_Exeunt _
▁i 'the
▁SCEN E
- d
_ .
c es
e y
g ment
o h
p re
u p
u s,
v ing
▁t ong
ou d
▁w is
▁the _
er c
on ce
on e,
or s
▁h our
▁T HE
▁g ener
ow er
▁A n
▁n ame
le ep
ut e
▁e ver
as h
ly 

ri ed
▁re st
▁re ad
▁k ind
▁k eep
▁on ly
e._ ]
▁li e
▁R .
▁con ce
▁con sid
ven ge
▁v is
▁no ble
▁ma kes
un g
▁Hamlet 's
um ent
row s
ation .]

.[ 6
▁pro verb
▁there fore
ud e
▁j ud
ies ,
▁ne w
▁father 's
▁gra ce
hi ch
▁_G host
▁comm and
▁U n
▁U pon
▁Wh y
▁HORATIO ,
▁QUEEN ,
▁sw ord
▁rem em
._) 

▁supp os
▁fell ow
▁ph ra
▁beli eve
shi p
▁dut y
▁_Ghost ._
. E
2 nd
; --
L L
c ri
c ess
d d
g ed
m ost
s ol
v our
▁ Ex
▁a ff
▁_ U
▁s er
▁m in
▁m en
en e
on i
▁c ol
▁c han
▁c ame
es 

▁p ati
an s
▁g all
▁be fore
▁is ,
ent re
▁e ven
▁e ach
▁W ill
▁that ,
▁with in
▁for 

▁re l
▁O F
▁we lc
▁The n
▁wh ose
e._ ]

▁B y
▁su b
▁G host
▁by 

if fe
▁v irt
't ,
um b
▁r ound
▁fa ith
▁come ,
▁bl ess
pt ion
▁cha ract
▁hon our
▁who le
▁J oh
ren ch
▁gentle man
▁cour t
▁imp ort
▁af ter
▁somet hing
▁pers on
ura l
▁stran ge
▁unc le
▁tong ue
▁Joh n
. --

C T
O R
U .E
[ 8
_ ]

d om
e ver
e red
f fect
i er
k en
l s
m ir
o c
o int
r as
r ance
s p
s _,]
v il
y r
▁t ill
he d
▁a ction
▁a uth
▁_ Y
▁_ 2nd
ou se
▁s m
▁s on
▁s leep
▁w alk
re nt
▁o cc
is ter
▁I ,
▁f al
▁f ee
▁f all
▁c ustom
▁of t
▁d rown
▁p i
▁l ess
▁th ine
▁g uil
▁he ard
▁H ave
▁be c
▁it 

▁e ffect
▁not 

▁that 

ill ain
▁st rong
our se
▁re c
▁O n
▁L ook
▁M AR
▁li ght
▁lord ;
▁P ol
▁III. 4
▁III. 5
▁III. 6
▁III. 7
▁III. 8
▁R .]

▁su n
▁F rench
[1 1
[1 2
▁N or
.H .)
▁are 

▁v illain
▁lo st
▁D an
▁at t
un e
ul t
ation ,
▁fa vour
▁II. 4
.[ 5
.[ 7
ag er
▁(L .C.)
▁po ison
▁here ,
▁than k
ci ous
hi le
▁ob ser
▁hon est
▁pass ion
ab ly
▁[_T o
▁lad y
.H. U.E
▁signif y
oub t
CE LL
▁mur der
▁excell ent
rist ian
▁suppos ed
▁phra se
oni us
▁MAR CELL
▁MARCELL US
! --
' S
' en
) ,
A sid
[ 9
a ct
b it
b ut
b and
d u
g n
i ence
s :
t he
u ck
v 'd
▁ est
▁t urn
in ess
ou s,
▁s ince
▁s orrow
▁w a
▁w oman
▁o pp
is s
er 's
▁b on
▁f ire
▁c ount
▁of fe
▁l aw
▁y ear
ing _
▁you ,

▁you ng
▁h us
▁in d
▁in ter
am ,
▁g l
▁he l
ce ive
▁A ct
▁A CT
▁be ,
▁be ar
▁be hind
▁my self
ent ,
▁me m
▁not ,
's 

▁st ill
▁as 

▁III. 2
▁III. 3
▁III. 9
▁R e
▁con s
▁su it
il t
▁F rom
▁F are
▁de f
us ion
▁I. 2
▁I. 3
▁I. 4
▁I. 5
▁I. 6
▁I. 7
▁I. 8
▁I. 9
if t
fe ction
ul ar
▁II. 1
▁II. 2
▁II. 3
▁II. 5
▁II. 6
.[ 3
,[ 2
,[ 3
▁V. 1
▁V. 2
▁V. 3
▁V. 4
▁V. 5
▁V. 6
▁play ers
we re
▁j ust
▁_A s
▁IV. 1
▁IV. 2
▁IV. 3
▁IV. 4
▁well ,
▁III.1 0
▁III.1 1
▁III.1 2
▁III.1 3
▁qu estion
pe ct
▁" T
▁app ear
▁I.1 0
▁I.1 1
▁[_Exit _,
▁then ,
ren ce
▁cour se
▁GUILDENSTERN ,
▁vi ol
▁ter m
▁maj esty
get her
tend ant
▁ret urn
▁Pol onius
! _]
, --

- night
. ,
A T
b ably
c u
e re
h ,
i ke
s ;
u ght
y .

Ã ©
▁ id
▁t ears
▁_ be
▁s at
▁s im
▁s ong
▁m ark
▁w at
▁b us
▁I N
en c
▁f un
▁f ig
▁f ull
▁f oil
▁f ash
▁c ur
es s,
▁d am
▁d oth
▁to -night
▁p e
▁p ri
ing .]

▁you ?

▁g one
▁_H e
le ct
as ion
as ure
-- A
▁not .

ea ce
▁with 

▁for t
▁re g
▁re venge
▁O ur
▁S ir
▁we ar
▁k ill
▁this 

▁M ad
▁M ake
▁him .

▁li ber
'd ,

▁[_ S
ess ion
if e
[1 0
▁v o
▁D id
▁ma id
▁_P .
▁Th ou
▁com p
,[ 5
▁man y
▁po int
▁ar g
▁ar ras
▁love ,
▁qu i
▁'t w
▁cha r
▁sa w
▁There 's
,-- --

▁gentle men
▁thought s
▁POLONIUS ,
▁sec ret
▁sk ull
pos ition
ump et
▁jud gment
▁John son
▁auth or
▁[_To _
▁hus band
▁dam n
- s
- t
: [5
A N
O M
W ith
_ )
a il
d ,
i ble
k ing
l f
l se
m e
m ed
n ow
n ers
r ont
s ._]

u al
u pp
u ff
v i
v ent
} 

▁ ut
▁t em
▁t able
▁a ge
▁a ud
▁_ V
▁_ to
ou p
▁m er
▁m om
▁m ount
▁w he
▁w in
re w
re qu
re sent
▁the e,
▁o p
is hed
er s,
▁b es
en ber
▁f it
▁f ur
▁f oul
▁c old
▁c rown
▁c unn
▁d ull
▁d oubt
▁p ast
▁p ower
▁l ack
▁you th
▁h or
at t
at in
at ive
ed ,

▁th ri
an cy
▁in c
ow ers
▁he 's
▁he al
▁_H is
▁H is
▁be g
▁be ard
▁be gin
▁n ear
le x
le 

▁e re
▁e lse
▁ha ng
▁u s,
as y
▁me ;
▁me et
▁his t
▁that 's
ly .]

▁st ay
▁st op
▁re ason
▁re ceive
▁The y
ad e
id d
▁M ore
ur y
▁him 

▁an 

▁mo d
▁P r
▁P ro
▁G ert
▁_i.e._ ,

▁D r.
▁_T here
li c
▁pl ace
ic ular
▁r ank
▁ex t
.[ 4
▁pro f
▁Y et
▁see k
▁What ,
ag es
ag ant
▁say ,
▁say s
▁qu ick
▁ad d
▁word s
▁en c
▁hon esty
ran ._
▁des ire
▁_F ran._
▁br ing
▁ey e
▁mar ri
▁ch ur
▁ch ristian
▁bre ak
▁spir its
▁sec ond
▁ro se
▁har d
ert ain
-m ak
▁dre ad
▁Sp eak
▁anci ently
▁dra w
▁At tendant
▁beaut y
▁under st
▁Play ._
▁consid er
▁_U n
▁pati ence
▁virt ue
▁charact er
▁_Y ou
▁occ asion
gn ant
▁hel p
▁fash ion
▁Sir ,
▁vo ice
enber g
▁Gert r
- f
: [2
; [2
D O
G host
T .

a x
a z
a id
a kes
b ed
e w
g ue
l ,
l as
l and
n er
p ing
p ic
r on
r am
r ung
s et
s pect
t ic
u ild
y ing
Ã ¦
▁ }
▁ es
▁ King
▁t en
▁t ouch
▁_ E
▁_ d
▁_ p
▁_ on
▁s it
▁s ound
▁m us
▁m ist
▁w ager
▁w ife
ot t
▁o ri
nd e
▁b ar
▁b ook
▁b orn
▁I nde
▁f ret
▁f requ
▁c al
▁c hi
▁c ap
▁c ens
▁c up
es .]

▁d en
▁d an
▁d ire
▁d eep
▁p ard
▁p ale
▁l ate
▁you 

▁h ome
▁h igh
▁[ H
▁th r
st ant
et y
▁g host
ow s
▁he ,
▁he ll
se qu
▁_H ow
▁be ll
im e
▁e ase
▁ha bit
▁W ould
▁W hich
ra w
ly .

▁for ,
▁your 

▁st ar
▁st ory
oo f
oo se
al ,
▁we ep
▁L atin
▁lord ship
▁or ,
▁[_ Asid
▁P ri
▁sp e
▁su ff
▁G o
▁de l
▁was 

▁so .

▁lo se
ous in
▁sh ort
▁all usion
sel ves
▁Hamlet .

ure ,
▁her self
▁kn ave
▁(R .
▁fa re
ence ,
,[ 6
▁pro cess
▁pro bably
▁our 

▁dis position
▁man 's
ud es
▁king ,
▁know n
▁(L .H.)
▁po et
▁ar m
▁ar ms
▁_I f
ci ence
▁im age
▁_B ut
pt ed
able .]

▁_R e
▁ad mir
▁(_ With
▁ab ove
▁night ,
▁_c rosses
▁We 'll
▁al most
iv ing
▁cont in
▁part icular
,[1 0
▁RO OM
che s
▁V ery
▁[_T he
▁KING ,
▁show s
▁tra ged
▁rep resent
▁Engl ish
▁inde ed,
▁cor ru
▁dre am
▁anci ent
▁wo e
▁wo nder
▁mon th
▁ple ase
▁brain s
▁wis dom
▁remem ber
▁col our
▁welc ome
▁bless ing
▁obser v
▁offe nd
▁mem ory
▁wat er
▁liber t
▁qui et
▁aud ience
▁mount ain
▁fur ther
▁cunn ing
▁hor ri
▁heal th
▁ori gin
▁cens ure
▁dan ger
▁pard on
▁(_With out
! --

' lt
, "
- p
; [4
? --
A ST
F OR
R I
a is
a ir
a pp
b l
b let
c a
c on
c st
c han
e x
e pt
g u
g 'd
i p
k in
m it
o b
o f
o le
r h
s o
s ar
s and
s 'd
u nd
u le
v id
w ith
y p
y al
▁ Queen
▁ ign
▁t end
he s
▁a w
▁_ b
▁_ in
in e,
in ation
▁s y
▁s ight
▁s ister
▁m ot
▁m is
▁m ort
▁m orn
▁w eak
▁w ilt
re en
re ad
ot s
▁o '
▁o dd
er 

it ter
it ude
▁b ent
▁b row
▁b ack
en st
on f
▁f ore
▁f ound
▁f ix
▁c o
▁c r
▁c ho
▁d ust
▁d ark
▁d iffe
▁to ,
▁to ld
▁to gether
▁p ract
▁p eace
▁l e
▁you :
▁h ot
▁h it
▁h ither
▁[ Ghost
at s
ed s
▁th ir
▁T ill
▁T han
ve l
ve ll
▁g ave
om 'd
ce ed
▁A d
▁H er
▁H old
▁be 

▁n unn
▁my 

▁it .]

ent er
ch o
▁me .]

▁me ?

-- a
ea l
ri es
ri ght
▁st ri
▁st ru
_, ]

our n
al m
▁S he
▁S uch
▁The se
ro du
▁on 't
▁C H
▁C h
▁C Ã¦
▁C AST
▁M ust
ur t
▁wh y
▁B ERN
▁lord ,

ol es
▁or der
'd .

▁[_ R
ck ons
▁P l
▁P yr
▁do ,

▁su cc
▁G od
▁G uild
il ar
▁de vil
us '
▁will .

▁so ,
▁thou sand
▁v al
▁v ice
▁lo ck
▁all ow
li ver
li ke
ard ,
▁no 

▁un p
▁un s
▁pl ac
ul ate
ation 

▁thy self
▁fa c
▁ex erc
▁II. 7
.[ 2
.[ 8
.[ 9
,[ 7
▁pro per
▁go es
▁go .

hen s
▁which 

▁know ,
▁_A ll
ies 

▁_M y
▁love ,

▁tr ans
▁tr umpet
ction s
_; ]

▁let ter
age ;
▁qu ant
▁im ag
▁wor n
▁_B y
▁cha ir
▁(_ B
ON D
▁app ears
▁per fect
▁ob ey
▁I.1 2
▁en ough
▁al one
▁_W ith
▁mother 's
▁des cri
.[1 1
iv es
▁HAMLET ,
ract ed
AR DO
▁life ,
▁look ,
che d
▁disc ourse
▁bre ath
▁Horati o,
▁acc ent
▁af fection
ie ce
ix t
▁int rodu
▁bu ri
▁&c ._]
▁clo se
▁jo y
▁em p
▁adv ice
▁ho pe
▁gener al
▁conce it
▁vis it
▁proverb ial
▁new s
▁remem b
▁sub ject
▁fal se
▁fee ling
▁guil t
▁bec ause
▁On e
▁Dan e
▁bon es
▁cons cience
▁Fare well
▁bus iness
▁pe op
▁pri v
▁mom ent
▁bes eech
▁_There 's
▁underst and
▁Inde ed,
▁admir ation
▁ign or
enst ern
▁pract ice
▁stru ck
▁CÃ¦ sar
▁CAST LE
▁BERN ARDO
▁Pyr rh
▁Guild enstern
! _

- c
- w
: [3
C .]

E D
E .

I G
I R
I S
L A
_ .

a im
a ith
a fe
c um
e ph
e hind
f ull
h y
i ers
i ance
i vers
k n
k ind
l ish
m on
m and
n on
n at
n el
n oc
o es
o ke
p or
p s,
s !
s !

s afe
t ha
u ed
u se
u nder
v ice
v es,
v agant
w k
y .]

y ,

▁ er
▁ et
▁ note
▁ --
▁ ver
▁ EN
▁ King._
he ad
▁a ught
▁_ s
▁_ lo
▁s in
▁s ing
▁s ol
▁s il
▁s ens
▁m ed
▁m et
▁m out
▁m eth
▁w ed
▁w ea
▁w ant
▁w ret
re ign
re hens
is es
is ed
er m
er .

er al
ha w
nd s
▁b ed
▁b ro
▁b os
▁b ound
▁b itter
▁I 

en 

en ance
en ry
or y,
▁f ish
▁c le
▁c ent
▁c ir
▁c ard
▁c ast
▁c ock
es h
▁d ri
▁d one,
▁d umb
▁d ais
▁to ward
▁p it
▁p ol
▁p os
▁p ick
▁p iece
▁l ay
▁l au
ar n
ing ?
▁you ;
▁you ;

▁h o,
▁[ P
at ing
▁th row
▁th rown
▁th ings
▁in f
▁in cl
▁T ake
am es
et t
ve y
▁g u
▁g et
▁g ir
▁g lo
▁g row
om p
ce ,
ce pt
ce iv
▁A r
▁A re
▁A lex
▁A las
▁H ad
▁H ath
▁H enry
▁n one
▁is ,

▁is 't,
im es
▁it .
ion 's
▁e as
▁e 'en
▁ha pp
▁ha ving
▁ha lf
▁ha wk
as s,
▁me :
▁W ell
▁W itt
-- T
-- _
-- to
-- the
ra ight
ra ble
ra ction
▁for g
▁for th
▁st art
▁st raight
our ish
▁re f
▁re ck
▁re sol
al ent
▁S T
▁S ee
ver t
▁k ept
▁this ,
▁this ?

▁on _
▁L ord
▁L ad
▁L .H.
▁L ike
▁C .
▁C l
▁C ha
▁C ome
▁C entre
▁M ay
▁M ost
ur p
ur ing
ur ative
and er
▁wh oles
▁B ern
▁li es
▁mo ck
▁mo der
est ,
▁[_ D
▁[_ G
▁[_ P
▁P R
▁P el
▁R os
▁R ep
▁sp ring
▁do ,
▁do g
▁do st
▁con j
▁con vey
▁su re
▁su dd
ge l
▁G o,
▁F ollow
▁de g
▁de fe
us h
▁was ,
▁so 

▁so ft
if ied
[1 ]
[1 2]

ain st
ood ,
ss a
▁v ow
▁but ,
▁all udes
't .

all s
li g
ble m
ard ed
qu est
▁ma king
▁un f
▁un w
▁un ivers
ul g
▁Th y
▁Th ough
ure s
▁her n
▁us es
▁r ue
▁r ather
▁That ,
▁That 's
ence .]

,[ 8
▁go d
▁tim es
ound ed
▁them 

▁see ms
▁which ,
▁play ,
▁play ed
ud e,
▁king 's
ER .

▁j u
▁(L .H.U.E
ast e
▁would 

▁ne g
▁ne ither
▁_and_ 

ef t
▁tr u
▁tr oub
▁_I t
▁_I 'll
▁say s,
▁IV. 5
▁father .

▁well .

▁mean ,
▁mean s,
▁most 

▁now !
▁time .]

th ing
▁'t were
▁fl esh
▁off ence
▁too k
▁(_ Crosses
oll ect
▁were 

▁night .

▁own 

▁such 

▁per ha
▁per form
ak ing
▁sir .

▁_c entre
▁act or
▁_W hat
.[1 3
.C.) 

way s
▁J u
▁J eph
▁nat ural
▁sc ene
▁There fore
.-- S
▁Ophelia ,
▁Ophelia !

ft y
▁Laert es,
▁bre ed
▁acc ord
▁acc ount
▁rem ain
▁dist em
▁dist racted
ie u
▁rep ort
▁queen ,
▁bu ried
▁best ow
▁Who se
▁form er
▁ROSENCRANTZ ,
▁ent reat
▁ent ertain
▁_f ollow
▁car ri
▁signif ied
▁_w ith
ouch safe
▁wit ha
▁free ly
▁Not es

▁war rant
▁cl oud
▁hum an
▁hast e
▁1 5
▁em blem
▁maj est
oun ter
▁Mar cell
▁_Th is
-d ay
▁consid ered
▁aff li
▁chan ge
iffe rent
▁fal con
▁guil ty
▁Look ,
▁est im
▁opp ress
▁count enance
▁def ence
▁_be ckons
▁sim ilar
▁fun eral
▁fig urative
▁fort une
▁char ge
▁ut ter
▁mod esty
▁Gertr ude,
▁thr ough
▁[_Asid e._]

▁del ight
▁fare well
▁(_Without ._)
FOR M
▁aw hile
▁quant ity
▁buri al
▁rememb rance
▁priv ate
▁CASTLE .

kn own
▁et ern
▁EN D
▁bos om
▁cir cum
▁lau gh
▁Alas ,
▁Witt enberg
▁wholes ome
▁Bern ard
▁(L.H.U.E .)

▁troub les
▁Jeph tha
' r
* *
- a
- b
- h
- enter
: [7
; [3
? _

? [6
B ook
E C
E AN
S .

S RI
U R
W hat
Y .

_ ."]

a h
b a
b ly
b id
b ated
b led
c an
c once
d ge
d ic
d raw
e ous
g ainst
h ou
i ch
i ly
i ef
l ate
m p
n ess,
o e
o ken
p art
p end
p are
p ret
r ust
s ?
s _
s h
s cri
t hen
u b
u c
u z
u ous
u gg
w hat
y e
z ag
▁ 3
▁ ed
▁ Queen._
▁ Enter
▁t ear
▁t alk
▁t akes
▁a _
▁a v
▁_ K
▁_ Q
▁_ m
▁_ r
▁_ Ex
▁_ pre
▁_ kind
in es
in ore
ou red
ou 'lt
ou rable
▁s ch
▁s id
▁s end
▁s ick
▁s ide
▁m or
▁m ut
▁m ouse
▁m idd
▁w ent
▁w ood
▁w ore
▁w ont
▁w ild
▁w rong
▁w rit
re g
re r
ot e
er .]

it ing
it y,
it ies
▁b o
▁b ur
▁b ul
▁b are
▁b old
▁I V
▁I m
en ces
on ,
on _]
on oun
on zag
or ical
▁f ing
▁f ain
▁c at
▁c are
▁c oup
es ter
▁d ress
▁d iv
▁d ally
▁to p
▁p in
▁p ar
▁p at
▁p rom
▁p ear
▁p ress
▁p ite
▁p aint
▁l ow
▁l ist
▁l ead
▁l aid
ar y,
ar ition
ing .
ing ly
ing ._]

▁you :

▁h id
▁h ide
at re
▁th ree
an c
an ge
an gu
▁in .

▁in st
▁in noc
am b
ve reign
▁g a
▁g ard
▁g one,
ow ard
▁A ll
▁H .
▁H and
▁be ho
▁be ing

▁is 't
▁it :
▁it ;
▁it ,

▁it ?

ent s
ut ion
ion s
▁e le
▁e qu
▁e ither
▁e vil
as ed.]

▁me 

▁me ant
▁me :--
▁_Ham._ 

-- H
ra pp
ra vagant
▁( w
▁for ms
▁st ith
▁st ir
▁st ag
▁st age
▁st ole
our s
▁re mark
▁re spect
▁O ut
▁O SRI
al t
al ity
▁S h
▁S ay
▁S weet
▁S ince
▁S aint
▁The 

s, [3
▁this ,

ro ach
▁L .
▁L ong
▁L .H.U.E
▁L eft
id s
▁C .]

▁C .)
▁C ould
▁C ont
▁him .]

▁wh om
▁B l
▁B oth
▁li ved
▁an im
▁mo ve
▁mo bled
'd 

ck et
▁P o
▁R ight
▁sp ect
▁con st
▁con vers
▁con sequ
▁su m
▁G et
▁G onzag
il st
▁F RAN
▁F rance
▁de ed
▁de cl
▁de mand
▁I. --A
▁will ,
▁will 

▁so vereign
▁by _
if f
if ic
▁sha lt
▁sha me
[1 3
▁N ever
fe rence
▁v ar
▁v ent
ant ,
ant age
ous ly
▁sh r
▁sh ot
▁all ,

▁no ,
qu is
lo y
▁what 's
▁_O ,
▁_O ur
ul es
▁Th us
▁her ,
▁kn ew
▁us .

ig ence
▁r at
▁r ange
ho se
▁fa st
▁ex ist
,[ 9
▁go ,
▁go ld
▁go blet
▁_L et
▁_L ike
▁them ,
▁se ason
ink s
▁What 's
▁man ,
▁man 

▁man ners
▁there 's
▁there ?

▁king dom
▁j ig
▁_A n
▁come ;
ance ,
▁am ong
▁am az
▁po ss
▁ar rant
▁_M ake
▁bl ast
▁bl ack
▁ne ed
▁ne 'er
▁here 

ef ore
▁tr uth
▁let s
▁qu ill
ment s
▁speak !

ci al
▁gra cious
▁im per
▁out ,
▁pr onoun
▁pre gnant
▁He cu
LE S
▁_Laer._ 

pe l
▁fl ow
▁fl atter
▁fl ower
▁fl owers
▁cha st
▁too 

▁(_ S
▁should er
▁word ,
▁word 

▁thee .

▁" _
▁app are
▁app rehens
▁ab sol
▁' F
▁per il
▁again ,
ak en
▁hea v
▁sir ;
▁ob ject
ness ;
ness .]

▁al read
▁soul ,
▁who 

▁_W h
▁mother ,
▁mother .

▁mother ,

▁call ed
.[1 0
.[1 2
el s
atch 'd
▁HAMLET 'S
▁With out
[4 2]
▁K EAN
▁Q u
▁pass age
▁cont ri
AR LES
▁E ven
▁E ls
▁life 

▁ri ch
▁ri dic
▁old 

▁pur s
▁St ill
▁St age;
les s,
ings _,]
ings ._]

▁hear .

▁hand s
▁heaven ,
.-- M
▁mar ry,
▁gr ass
▁conf ess
▁conf ession
▁disc lo
▁tw ice
▁death 

▁grave ._)

▁grave -mak
▁imp art
▁earth ,
ac her
▁ra p
ie ld
▁ro gue
▁ro yal
▁answ er,
▁Laertes ,

ser ve
▁sk in
▁sk ill
▁lad y,
▁int ell
▁[_Exeunt _,
▁drink ,
▁bu ild
▁between 

▁Horatio ,

▁&c .]

▁sl ain
▁sl ave
▁somet imes
▁car ried
▁ear s
gg ats
rant z
▁tre asure
▁_N o
▁clo set
▁inde ed.

▁stand s
▁vi le
▁fe w
▁hum bly
▁ass ume
ump ets
har d
▁face ,
▁common 

▁purpose ,
ced ed
▁tri ck
▁mon ument
▁di e,
▁LAERTES ,
▁Mar ry,
▁Now ,
▁brother 's
▁lie ge
▁R. C.]

▁vis age
▁proverb ,
▁ser vice
▁gall ows
▁welc ome,
▁Ghost ,
▁faith ful
▁import s
▁pi ct
▁pi pe
▁strong er
▁rec ord
▁att ent
▁ind ifferent
▁just ly
▁"T he
Ã© r
▁id le
▁sat yr
▁sim p
enc rantz
▁foil s
▁cur s
▁reg ard
▁Mad am,
▁[_S ings._]

▁arg ument
▁'tw as
▁age ,
▁whe ther
▁thri ce
▁hist ory
▁add ress
▁marri age
▁chur che
▁Attendant s,
ron ic
▁_d o
▁mus ic
▁mist ress
▁frequ ently
▁chi ef
▁[H ORATIO
▁ease ,
▁Pri am
▁suff er
▁_Re -enter
▁[_The y
▁corru ption
▁libert y,
▁horri ble
▁origin al
app oint
cst asy
▁sy ll
▁morn ing
▁diffe rence
▁CH ARLES
▁succ ession
▁unp ro
▁exerc ise
▁proper ty
▁imag ination
▁(_B ehind
▁emp loy
▁peop le
▁ignor ance
full y
nat ural
▁sil ence
▁mout h
▁Ar m
▁Lad ies,
▁Cl own
▁Ros encrantz
▁sudd en
▁_centre ._)

▁Marcell us
▁affli ction
▁falcon ers
▁figurative ly
▁circum st
▁Bernard o
▁_pre ceded
▁pite ous
angu age
▁OSRI C
▁spect at
▁Gonzag o
▁Hecu ba
▁absol ute
▁Els inore
▁ridic ule
▁_Re-enter _
! [2
" _
' T
) ,

- g
- l
- quest
1 ,
2 0
5 9
8 :

8 59
: _
: _

: [4
: _]

: [11
; _

; [7
; [11
A L
A s
A LON
C O
C IS
E .]

H T.

I I
L AT
S ,
W hile
_ ;

a ff
a vi
b en
b es
b ble
b ell
b les
c or
c her
c ock
c ourse
c hard
d ig
e b
e an
e .]

e ly
e 'er
e ason
e cho
f ord
f ter
f ace
f ume
f ety
g ing
g ra
g ers
g th
g then
i am
i ven
i pp
i ate
i able
k s
l en
l an
l ,

l ve
l ourish
m ble
m ong
m ber
m itt
m iss
n e
n y
n ing
o on
o id
o ph
p ,
p it
p ort
p ost
q ue
r or
r ut
r ous
r ink
r ame
r ated
r ument
r umpet
r umpets
s ing
s ri
s _,
s ;

s :

s _.]

s ift
t 

t on
t and
t itude
u x
u es
v al
v ing

w o
w w
w ear
w ise
x e
x ford
y !
y ;
y m
y ou
y per
▁ {
▁ ven
▁ row
▁ ought
▁ vers
▁ venge
▁t y
▁t in
▁t or
▁t ed
▁t ent
▁t ea
▁t ro
▁t ard
▁t we
▁t ale
he e,
he ther
▁a c
▁a -d
▁a xe
▁_ "
▁_ J
▁_ at
▁_ se
▁_ th
▁_ son
▁_ of
▁_ 'T
in ing
in ed
▁s ur
▁s its
▁s igh
▁m ir
▁m atch
▁m ixt
▁w an
▁w om
▁w ine
▁w ag
▁w ish
▁w ick
▁w ounded
▁w aste
▁w ou'lt
re ,

re am
re et
re ct
re ation
re cy
▁o w
▁o ath
is c
is e,
is ure
is ons
er g
er ve
er y,
er ._]
er man
nd ar
nd ed
._ "
it es
it ed
it ive
it ies,
▁b en
▁b ow
▁b le
▁b ad
▁b out
▁b all
▁b ak
▁b urn
▁b rief
▁b ase
▁b orrow
▁b att
en nel
en gth
on 's
or c
or ous
or ick
▁f i
▁f in
▁f am
▁f et
▁f oot
▁f ootnote
▁f ly
▁f ill
▁f il
▁f ight
▁f ant
▁f ate
▁f ru
▁f ront
▁f ancy
▁f oe
▁c e
▁c he
▁c ot
▁c ra
▁c ro
▁c art
▁c reat
▁c atch
▁c ost
▁c op
▁c aut
▁c lay
▁c ale
▁c ond
▁c ere
▁c ertain
▁c ousin
▁c oward
▁c reation
es p
▁d er
▁d ig
▁d ag
▁d are
▁d ay,
▁d ie
▁d well
▁to .

▁to 't,
▁p ot
▁p ure
▁p ate
▁p ort
▁p ity
▁p ious
▁p ause
▁p upp
▁p owers
▁l est
▁l end
▁l ine
▁l oose
▁l anguage
▁l ength
ar ies
ing u
ing .

ing ._)

▁you .]

▁you !

▁you ._]
▁h ung
▁[ R
at is
at en
at es
at e,
ed ;
ed y
ed --
▁th ro
▁th ing

an el
▁in 't
▁in 't,
▁in ex
▁T ell
▁T erm
am e,
am ity
▁g ather
▁g ross
▁g rows
▁g ift
▁g iving
▁g ives
om s
om in
om es
▁he n
▁he 

▁he at
▁he ld
▁he ra
se en
se _.
▁_H eaven
▁A b
▁A pp
▁A h,
▁A gainst
▁H a
▁H ence
▁H yp
▁be ,

▁be ck
▁be ating
▁n ort
▁n ay,
le ase
ent 

ent .]

ut enberg
ion ;
ion .]

▁e lo
▁e lect
▁e vid
▁e pit
ch ief
▁u nd
▁me re
▁me :

▁me lan
▁W hether
▁_Ham let
-- --
-- --

ir m
ir ous
ir gin
▁with .]

▁with draw
▁( as
▁( As
ly ._]
ly mp
▁for .

▁for ce
I. ,
▁st ea
▁st ood
▁st ep
▁st ock
▁st uck
▁st oup
▁st rew
▁st eal
our t
▁re ven
▁re li
▁re form
▁re serve
▁O 'er
▁O sri
▁O xford
▁O lymp
al .]

▁S o,
▁S ax
▁S EC
▁S wear
▁we igh
▁k ey
▁k iss
s, [4
▁this .

ad em
ro ve
▁L eave
id night
▁as k
▁C on
▁C han
▁C har
▁C onf
▁M us
▁M ah
ter 's
▁him .
▁him ,

▁him :

▁wh ite
e._ 

▁B RA
▁B efore
▁li est
▁li qu
▁li ving
▁lord ;

▁an t
▁an on
▁an tic
▁an gel
▁mo on
▁or b
▁or d
est ed
▁[_ L
▁have ,
▁P art
▁P eace
▁P LAT
ee m
▁R E
▁R .H
▁R .)

▁sp here
▁sp ort
▁sp ies
▁sp ade
▁do or
▁con sent
▁con vert
▁su lt
▁G lo
▁G RA
il ing
il os
▁F .
▁F ort
▁F IR
▁de liver
us es
us pic
▁so :
▁so on
▁so le
▁so ld
▁so ;

if ul
▁sha p
▁sha pe
▁thou ,
[1 5]
ain ed
▁N IG
▁v ac
▁v ulg
▁v ouchsafe
▁lo ver
▁lo ved
▁lo ving
▁lo v'd
▁lo fty
▁D oth
▁sh ip
't is
all echo
▁shall 

▁shall ,

li ve
li us
▁no se
▁no ise
qu ite
▁ma st
▁ma gg
sel .

sel ves,
▁un ction
▁un man
▁un pre
▁un known
▁un natural
▁un seen
ust ious
ers .]

▁pl uck
▁what ,
▁what 

▁Hamlet ;
▁Hamlet ?

▁Hamlet :

▁Hamlet !

▁_O r
▁_O 'er
ic ian
▁Th ought
ure .]

▁kn ee
▁us .]

▁us ,

▁us ed

▁(R .H.)
▁r ash
▁r ude
▁To gether
▁ex act
▁ex cept
ence ,

end o
end ed
▁II. --A
▁pro ve
▁pro cl
▁pro ceed
▁pro dig
▁_Hor._ 

▁our selves
▁V. 7
▁go ;
▁them .
▁them ;
▁se p
▁more ,
▁more 

▁Y orick
▁man .

▁mad ,
▁mad am
▁mad am,
▁there .

▁play s
▁play ?

▁play ._]

▁king .

▁king .]

▁king ,

▁know 

ag es,
▁can st
▁can non
▁_A t
▁come .

▁come ,

▁come ;

ast ,
ast ing
ast ic
▁am b
ies ;
▁It 

em por
▁_M ore
▁bl ank
▁bl az
▁ne cess
▁here ,

▁here 's
▁father ,
▁father 

▁let 's
▁III.1 4
▁they 

▁mean s

▁speak .

ish ment
▁hat e
▁im press
▁im med
▁out .

▁pr int
▁pr oud
▁pr oof
▁time ,

▁_B e
▁pre tend
▁pre cious
▁pre vent
▁pre pare
▁In 

▁In to
▁_The y
▁(R.) 

▁make 

pe red
▁fl am
▁cha ri
▁off er
▁off ic
▁should 

oll y
▁word s,
▁did st
▁did ;

▁" I
▁" a
▁app lic
▁app arition
▁ab o
▁she et
ity .]

own -a
▁night ,

red _
▁per chan
▁again .

▁comm end
[2 1]
ak ed
itt ing
▁hea vi
▁You 

▁sa bles
▁sa fety
▁sir :
▁ob sequ
TI ON
▁en s
▁en act
▁_c ousin
▁hon ourable
▁al ong
▁al so
▁al ways
▁al titude
▁act ,
▁act ,

ret ion
ry .]

▁_W e
▁_W hich
▁call s
▁des k
▁des p
▁des ign
▁des irous
.[1 4]

iv ed
▁when ce
▁HAMLET ,

▁With in
▁Shakespeare ,
[4 ]
▁_F rom
▁pass ing
▁pass ion,
▁cont ent
▁cont ract
▁cont empor
▁E V
▁E 'en
▁part ,
▁life ,

▁sc orn
▁sc once
ren gthen
▁heart ,
▁heart ,

▁St ay
▁any thing
de rer
ru ct
▁o'er -
▁dead .

▁how ever
▁heaven 

,[1 1
[5 5]
ab les
▁mar ch
▁mar ry
