{
  "version": "1.0",
  "truncation": null,
  "padding": null,
  "added_tokens": [
    {
      "id": 0,
      "content": "<s>",
      "single_word": false,
      "lstrip": false,
      "rstrip": false,
      "normalized": false,
      "special": true
    },
    {
      "id": 1,
      "content": "<pad>",
      "single_word": false,
      "lstrip": false,
      "rstrip": false,
      "normalized": false,
      "special": true
    },
    {
      "id": 2,
      "content": "</s>",
      "single_word": false,
      "lstrip": false,
      "rstrip": false,
      "normalized": false,
      "special": true
    },
    {
      "id": 3,
      "content": "<unk>",
      "single_word": false,
      "lstrip": false,
      "rstrip": false,
      "normalized": false,
      "special": true
    },
    {
      "id": 4,
      "content": "<cls>",
      "single_word": false,
      "lstrip": false,
      "rstrip": false,
      "normalized": false,
      "special": true
    },
    {
      "id": 5,
      "content": "<sep>",
      "single_word": false,
      "lstrip": false,
      "rstrip": false,
      "normalized": false,
      "special": true
    },
    {
      "id": 6,
      "content": "<mask>",
      "single_word": false,
      "lstrip": false,
      "rstrip": false,
      "normalized": false,
      "special": true
    }
  ],
  "normalizer": {
    "type": "NFKC"
  },
  "pre_tokenizer": {
    "type": "Metaspace",
    "replacement": "▁",
    "prepend_scheme": "always",
    "split": true
  },
  "post_processor": {
    "type": "TemplateProcessing",
    "single": [
      {
        "Sequence": {
          "id": "A",
          "type_id": 0
        }
      }
    ],
    "pair": [
      {
        "Sequence": {
          "id": "A",
          "type_id": 0
        }
      },
      {
        "Sequence": {
          "id": "B",
          "type_id": 1
        }
      }
    ],
    "special_tokens": {}
  },
  "decoder": {
    "type": "Metaspace",
    "replacement": "▁",
    "prepend_scheme": "always",
    "split": true
  },
  "model": {
    "type": "BPE",
    "dropout": null,
    "unk_token": "<unk>",
    "continuing_subword_prefix": null,
    "end_of_word_suffix": null,
    "fuse_unk": false,
    "byte_fallback": false,
    "ignore_merges": false,
    "vocab": {
      "<s>": 0,
      "<pad>": 1,
      "</s>": 2,
      "<unk>": 3,
      "<cls>": 4,
      "<sep>": 5,
      "<mask>": 6,
      "\n": 7,
      "\r": 8,
      "!": 9,
      "\"": 10,
      "#": 11,
      "&": 12,
      "'": 13,
      "(": 14,
      ")": 15,
      "*": 16,
      ",": 17,
      "-": 18,
      ".": 19,
      "/": 20,
      "0": 21,
      "1": 22,
      "2": 23,
      "3": 24,
      "4": 25,
      "5": 26,
      "6": 27,
      "7": 28,
      "8": 29,
      "9": 30,
      ":": 31,
      ";": 32,
      "?": 33,
      "A": 34,
      "B": 35,
      "C": 36,
      "D": 37,
      "E": 38,
      "F": 39,
      "G": 40,
      "H": 41,
      "I": 42,
      "J": 43,
      "K": 44,
      "L": 45,
      "M": 46,
      "N": 47,
      "O": 48,
      "P": 49,
      "Q": 50,
      "R": 51,
      "S": 52,
      "T": 53,
      "U": 54,
      "V": 55,
      "W": 56,
      "X": 57,
      "Y": 58,
      "Z": 59,
      "[": 60,
      "]": 61,
      "_": 62,
      "a": 63,
      "b": 64,
      "c": 65,
      "d": 66,
      "e": 67,
      "f": 68,
      "g": 69,
      "h": 70,
      "i": 71,
      "j": 72,
      "k": 73,
      "l": 74,
      "m": 75,
      "n": 76,
      "o": 77,
      "p": 78,
      "q": 79,
      "r": 80,
      "s": 81,
      "t": 82,
      "u": 83,
      "v": 84,
      "w": 85,
      "x": 86,
      "y": 87,
      "z": 88,
      "{": 89,
      "}": 90,
      "¡": 91,
      "¦": 92,
      "©": 93,
      "«": 94,
      "­": 95,
      "Ã": 96,
      "Ä": 97,
      "Å": 98,
      "̈": 99,
      "“": 100,
      "†": 101,
      "•": 102,
      "▁": 103,
      "\r\n": 104,
      "▁t": 105,
      "he": 106,
      "▁a": 107,
      "▁_": 108,
      "▁\r\n": 109,
      "in": 110,
      "ou": 111,
      "▁s": 112,
      "▁m": 113,
      "▁w": 114,
      "re": 115,
      "▁the": 116,
      "ot": 117,
      "▁o": 118,
      "is": 119,
      "er": 120,
      "ha": 121,
      "nd": 122,
      "._": 123,
      "it": 124,
      "▁b": 125,
      "▁I": 126,
      "en": 127,
      "on": 128,
      "or": 129,
      "▁f": 130,
      "ll": 131,
      "]\r\n": 132,
      "▁c": 133,
      "es": 134,
      "▁of": 135,
      "▁d": 136,
      "not": 137,
      "▁to": 138,
      "▁p": 139,
      "▁l": 140,
      "▁y": 141,
      ".\r\n": 142,
      "ar": 143,
      "ing": 144,
      "▁you": 145,
      "▁h": 146,
      "▁[": 147,
      "at": 148,
      "ed": 149,
      "▁th": 150,
      "▁and": 151,
      "an": 152,
      "hat": 153,
      "▁in": 154,
      ".]\r\n": 155,
      ",\r\n": 156,
      "st": 157,
      "▁T": 158,
      "am": 159,
      "et": 160,
      "ve": 161,
      "▁g": 162,
      "ow": 163,
      "om": 164,
      "oot": 165,
      "note": 166,
      "▁he": 167,
      "ootnote": 168,
      "Footnote": 169,
      "▁[Footnote": 170,
      "se": 171,
      "ce": 172,
      "▁_H": 173,
      "▁A": 174,
      "▁H": 175,
      "ay": 176,
      "▁be": 177,
      "▁n": 178,
      "▁is": 179,
      "im": 180,
      "le": 181,
      "▁my": 182,
      "▁it": 183,
      "ent": 184,
      "ut": 185,
      "ion": 186,
      "▁e": 187,
      "ith": 188,
      "ch": 189,
      "▁ha": 190,
      "▁u": 191,
      "as": 192,
      "▁me": 193,
      "▁W": 194,
      "ld": 195,
      "gh": 196,
      "▁_Ham": 197,
      "▁_Ham._": 198,
      "--": 199,
      "▁not": 200,
      "ir": 201,
      "ea": 202,
      "ra": 203,
      "▁his": 204,
      "▁that": 205,
      "ct": 206,
      "ord": 207,
      "▁with": 208,
      "'s": 209,
      "▁(": 210,
      "ly": 211,
      "▁for": 212,
      "▁your": 213,
      "ri": 214,
      "ill": 215,
      "I.": 216,
      "ght": 217,
      "▁st": 218,
      "_,": 219,
      "oo": 220,
      "our": 221,
      "▁re": 222,
      "her": 223,
      "▁O": 224,
      "al": 225,
      "?\r\n": 226,
      "▁S": 227,
      "▁we": 228,
      "▁The": 229,
      "ver": 230,
      "▁k": 231,
      "s,": 232,
      "▁this": 233,
      "ad": 234,
      "ro": 235,
      "▁on": 236,
      "▁L": 237,
      ".)": 238,
      "id": 239,
      "▁as": 240,
      "▁C": 241,
      "▁M": 242,
      "ter": 243,
      "ur": 244,
      "▁him": 245,
      "and": 246,
      "ke": 247,
      "▁wh": 248,
      ";\r\n": 249,
      "_]": 250,
      "e._": 251,
      "▁B": 252,
      "▁li": 253,
      "▁lord": 254,
      "ue": 255,
      "▁an": 256,
      "ome": 257,
      "▁mo": 258,
      "ol": 259,
      "▁or": 260,
      "est": 261,
      "'d": 262,
      "▁And": 263,
      "▁II": 264,
      "▁[_": 265,
      "ck": 266,
      "▁have": 267,
      "▁P": 268,
      "ee": 269,
      "ould": 270,
      "▁III.": 271,
      "▁R": 272,
      "▁sp": 273,
      "▁do": 274,
      "▁con": 275,
      "▁su": 276,
      "ge": 277,
      "▁G": 278,
      "il": 279,
      "▁F": 280,
      "y,": 281,
      "▁_i": 282,
      "▁de": 283,
      "_,]": 284,
      ".e._": 285,
      "V.": 286,
      "us": 287,
      "▁I.": 288,
      "▁will": 289,
      "▁_i.e._": 290,
      "▁was": 291,
      "ess": 292,
      "▁so": 293,
      "▁by": 294,
      "if": 295,
      "▁sha": 296,
      "▁thou": 297,
      "[1": 298,
      "ain": 299,
      "ven": 300,
      ":\r\n": 301,
      "ood": 302,
      "ight": 303,
      "▁_i.e._,": 304,
      "rom": 305,
      "▁N": 306,
      "out": 307,
      ".H": 308,
      "ss": 309,
      "▁are": 310,
      "fe": 311,
      "let": 312,
      "pp": 313,
      "▁v": 314,
      "▁lo": 315,
      "art": 316,
      "ant": 317,
      "!\r\n": 318,
      "▁D": 319,
      "▁_T": 320,
      "ous": 321,
      "▁sh": 322,
      "▁but": 323,
      "▁all": 324,
      "'t": 325,
      "all": 326,
      "▁shall": 327,
      "li": 328,
      "ble": 329,
      "ard": 330,
      "▁no": 331,
      "qu": 332,
      "ind": 333,
      "▁ma": 334,
      "▁from": 335,
      "sel": 336,
      "lo": 337,
      "▁at": 338,
      "▁un": 339,
      "▁Ham": 340,
      "e,": 341,
      "ust": 342,
      "ers": 343,
      "▁pl": 344,
      "ear": 345,
      "ive": 346,
      "un": 347,
      "▁_P": 348,
      "▁what": 349,
      "▁Hamlet": 350,
      "._]": 351,
      "EN": 352,
      "um": 353,
      "▁_O": 354,
      "ic": 355,
      "ul": 356,
      "▁Th": 357,
      "han": 358,
      "King": 359,
      "ell": 360,
      "row": 361,
      "ure": 362,
      "ation": 363,
      "▁her": 364,
      "▁kn": 365,
      "▁us": 366,
      "▁thy": 367,
      "▁(R": 368,
      "▁whi": 369,
      "ueen": 370,
      "ig": 371,
      "os": 372,
      "▁r": 373,
      "▁To": 374,
      "ho": 375,
      "▁fa": 376,
      "▁ex": 377,
      "▁That": 378,
      "▁up": 379,
      "King._": 380,
      "ence": 381,
      "▁com": 382,
      "self": 383,
      "end": 384,
      "▁II.": 385,
      "▁But": 386,
      ".[": 387,
      "En": 388,
      ",[": 389,
      "ong": 390,
      "or._": 391,
      "▁pro": 392,
      "▁_Hor._": 393,
      "▁_King._": 394,
      "▁our": 395,
      "▁V.": 396,
      "aer": 397,
      "here": 398,
      "ine": 399,
      "eak": 400,
      "ate": 401,
      "▁go": 402,
      "very": 403,
      "Ex": 404,
      "ore": 405,
      "▁tim": 406,
      "▁_L": 407,
      "hen": 408,
      "ound": 409,
      "▁them": 410,
      "▁dis": 411,
      "▁_Pol": 412,
      "'ll": 413,
      "▁se": 414,
      "ather": 415,
      "▁more": 416,
      "other": 417,
      "▁_Pol._": 418,
      "▁Y": 419,
      "ink": 420,
      "▁see": 421,
      "▁What": 422,
      "▁which": 423,
      "▁man": 424,
      "▁mad": 425,
      "Queen": 426,
      "▁there": 427,
      "▁play": 428,
      "ud": 429,
      "▁king": 430,
      "▁know": 431,
      "ER": 432,
      "ag": 433,
      "ph": 434,
      "we": 435,
      "▁j": 436,
      "._]\r\n": 437,
      "▁good": 438,
      "▁(L": 439,
      "RA": 440,
      "▁may": 441,
      "▁the\r\n": 442,
      "C.)": 443,
      "to": 444,
      "▁_and": 445,
      "ort": 446,
      "▁can": 447,
      "▁_A": 448,
      "▁come": 449,
      "ance": 450,
      "--\r\n": 451,
      "ast": 452,
      "▁am": 453,
      "▁po": 454,
      "ook": 455,
      "▁lord,": 456,
      "ies": 457,
      "▁ar": 458,
      "▁It": 459,
      "Queen._": 460,
      "em": 461,
      "▁_M": 462,
      "▁would": 463,
      "▁bl": 464,
      "▁ne": 465,
      "▁This": 466,
      "▁very": 467,
      "▁here": 468,
      "▁[_Ex": 469,
      "▁love": 470,
      "▁_and_": 471,
      "ef": 472,
      "kes": 473,
      "ose": 474,
      "▁tr": 475,
      "▁than": 476,
      "▁_I": 477,
      "▁say": 478,
      "▁IV.": 479,
      "▁father": 480,
      "ed,": 481,
      "ction": 482,
      "_;": 483,
      "s\r\n": 484,
      "▁_Queen._": 485,
      "▁their": 486,
      "▁let": 487,
      "▁O,": 488,
      "▁well": 489,
      "▁III.1": 490,
      "au": 491,
      "age": 492,
      "o,": 493,
      "▁if": 494,
      "▁qu": 495,
      "ress": 496,
      "▁they": 497,
      "ame": 498,
      "Enter": 499,
      "ment": 500,
      "▁mean": 501,
      "▁most": 502,
      "▁speak": 503,
      "ci": 504,
      "ish": 505,
      "ark": 506,
      "▁gra": 507,
      "▁now": 508,
      ".H.]\r\n": 509,
      "▁hat": 510,
      "▁im": 511,
      "▁out": 512,
      "▁wor": 513,
      "▁I'll": 514,
      "one": 515,
      "▁pr": 516,
      "▁My": 517,
      "▁time": 518,
      "hi": 519,
      "▁_B": 520,
      "▁pre": 521,
      "▁like": 522,
      "1:": 523,
      "2:": 524,
      "▁_Enter": 525,
      "▁you,": 526,
      "▁He": 527,
      "▁_Laer": 528,
      "3:": 529,
      "LE": 530,
      "ake": 531,
      "ice": 532,
      "nt": 533,
      "th": 534,
      "▁In": 535,
      "▁_The": 536,
      "▁_Oph": 537,
      "▁_Laer._": 538,
      "▁_Oph._": 539,
      "5:": 540,
      "are": 541,
      "cc": 542,
      "old": 543,
      "pt": 544,
      "oul": 545,
      "ass": 546,
      "▁(R.)": 547,
      "4:": 548,
      "able": 549,
      "wn": 550,
      "▁_G": 551,
      "▁_R": 552,
      "▁make": 553,
      "6:": 554,
      "7:": 555,
      "pe": 556,
      "▁'t": 557,
      "▁ad": 558,
      "▁ag": 559,
      "▁must": 560,
      "▁fl": 561,
      "▁cha": 562,
      "▁off": 563,
      "▁too": 564,
      "ath": 565,
      "▁(_": 566,
      "▁Clo": 567,
      "▁should": 568,
      "▁upon": 569,
      "0:": 570,
      "1st": 571,
      "9:": 572,
      "oll": 573,
      "▁word": 574,
      "▁thee": 575,
      "▁did": 576,
      "ross": 577,
      "▁hath": 578,
      "▁Clo._": 579,
      "'er": 580,
      "ON": 581,
      "▁\"": 582,
      "▁app": 583,
      "▁_1st": 584,
      "ist": 585,
      "▁had": 586,
      "▁were": 587,
      ".)\r\n": 588,
      "8:": 589,
      "US": 590,
      "ick": 591,
      "▁ab": 592,
      "▁she": 593,
      "▁some": 594,
      "oth": 595,
      "ity": 596,
      "own": 597,
      "▁night": 598,
      "ign": 599,
      "▁_Enter_": 600,
      "▁these": 601,
      "▁own": 602,
      "ati": 603,
      "▁and\r\n": 604,
      "ead": 605,
      "▁lord.\r\n": 606,
      "▁such": 607,
      "od": 608,
      "per": 609,
      "▁'": 610,
      "red": 611,
      "▁bet": 612,
      "es,": 613,
      "▁per": 614,
      "▁As": 615,
      "▁How": 616,
      "host": 617,
      "▁again": 618,
      "AM": 619,
      "ave": 620,
      "ber": 621,
      "s.\r\n": 622,
      "▁For": 623,
      "▁comm": 624,
      "[2": 625,
      "_\r\n": 626,
      "ak": 627,
      "itt": 628,
      "▁If": 629,
      "▁of\r\n": 630,
      "▁think": 631,
      "▁hea": 632,
      "▁You": 633,
      "ire": 634,
      "▁U": 635,
      "▁sa": 636,
      "▁sir": 637,
      "▁ob": 638,
      "eare": 639,
      "▁one": 640,
      "▁I.1": 641,
      "▁[_Exit": 642,
      "LET": 643,
      ":_]": 644,
      "TI": 645,
      "ff": 646,
      "ness": 647,
      "▁en": 648,
      "▁_c": 649,
      "reat": 650,
      "nder": 651,
      "▁hon": 652,
      "▁We": 653,
      "▁Wh": 654,
      "_;]": 655,
      "AMLET": 656,
      "[3": 657,
      "hing": 658,
      "ious": 659,
      "uch": 660,
      "▁al": 661,
      "▁act": 662,
      "▁soul": 663,
      "ret": 664,
      "▁into": 665,
      "ay,": 666,
      "▁Sha": 667,
      "▁who": 668,
      "rosses": 669,
      "ST": 670,
      "ep": 671,
      "fore": 672,
      "ry": 673,
      "ran": 674,
      "ull": 675,
      "▁_W": 676,
      "▁mother": 677,
      "its": 678,
      "▁call": 679,
      "▁des": 680,
      ".[1": 681,
      "HE": 682,
      "el": 683,
      "iv": 684,
      "peare": 685,
      "s.]\r\n": 686,
      "▁when": 687,
      "▁then": 688,
      "atch": 689,
      "ed\r\n": 690,
      "▁HAMLET": 691,
      "▁been": 692,
      "▁With": 693,
      "ract": 694,
      "urn": 695,
      "kespeare": 696,
      "▁Shakespeare": 697,
      ".C.)": 698,
      "ORA": 699,
      "[4": 700,
      "ost": 701,
      "uil": 702,
      "▁K": 703,
      "▁Q": 704,
      "▁_F": 705,
      "▁to\r\n": 706,
      "▁pass": 707,
      "▁gent": 708,
      "▁cont": 709,
      ".H.)\r\n": 710,
      "rown": 711,
      "TIO": 712,
      "ORATIO": 713,
      "8]\r\n": 714,
      "AR": 715,
      "ect": 716,
      "phe": 717,
      "way": 718,
      "▁E": 719,
      "▁J": 720,
      "▁tell": 721,
      "int": 722,
      "ree": 723,
      "▁br": 724,
      "▁part": 725,
      "ing,": 726,
      "▁give": 727,
      "▁nat": 728,
      "▁(C.)": 729,
      "▁Let": 730,
      "▁life": 731,
      "▁'tis": 732,
      "LON": 733,
      "ful": 734,
      "mark": 735,
      "sent": 736,
      "▁ri": 737,
      "ount": 738,
      "▁sc": 739,
      "▁where": 740,
      "ren": 741,
      "▁old": 742,
      "▁to_": 743,
      "▁pur": 744,
      "▁look": 745,
      "atter": 746,
      "▁heart": 747,
      "▁ey": 748,
      "eaven": 749,
      "▁St": 750,
      "▁There": 751,
      "▁any": 752,
      "▁_Mar": 753,
      "ollow": 754,
      "5]": 755,
      "de": 756,
      "les": 757,
      "ru": 758,
      "▁o'er": 759,
      "▁dead": 760,
      "ings": 761,
      "▁how": 762,
      "▁hear": 763,
      "▁hand": 764,
      "riend": 765,
      "unt": 766,
      "▁heaven": 767,
      ",--": 768,
      ",[1": 769,
      ".\"": 770,
      ".--": 771,
      "7]\r\n": 772,
      "EEN": 773,
      "IN": 774,
      "IUS": 775,
      "UEEN": 776,
      "[5": 777,
      "_,\r\n": 778,
      "ab": 779,
      "press": 780,
      "r.": 781,
      "▁mar": 782,
      "▁might": 783,
      "▁gr": 784,
      "▁HORATIO": 785,
      "eave": 786,
      "▁Ophe": 787,
      "▁So": 788,
      "▁RO": 789,
      "▁R.H.]\r\n": 790,
      "fect": 791,
      "lia": 792,
      "▁made": 793,
      "ERN": 794,
      "▁gentle": 795,
      "▁_Mar._": 796,
      "▁Ophelia": 797,
      "0]": 798,
      "OLON": 799,
      "ap": 800,
      "che": 801,
      "ft": 802,
      "sid": 803,
      "▁a\r\n": 804,
      "ite": 805,
      "▁ch": 806,
      "ated": 807,
      "▁Heaven": 808,
      "▁Laer": 809,
      "eep": 810,
      "▁conf": 811,
      "▁thought": 812,
      "os._": 813,
      "▁disc": 814,
      "▁_Ros._": 815,
      "▁QUEEN": 816,
      "OLONIUS": 817,
      "▁Laert": 818,
      "3]": 819,
      "4]\r\n": 820,
      "Crosses": 821,
      "der": 822,
      "ms": 823,
      "s,\r\n": 824,
      "▁En": 825,
      "▁tw": 826,
      "▁sw": 827,
      "▁set": 828,
      "▁much": 829,
      "▁bre": 830,
      "enmark": 831,
      "orati": 832,
      "ing\r\n": 833,
      "▁Horati": 834,
      "▁Where": 835,
      "ome,": 836,
      "▁death": 837,
      "▁Denmark": 838,
      "RAN": 839,
      "▁cannot": 840,
      "▁grave": 841,
      "▁'T": 842,
      "▁[_Exit_": 843,
      "1]": 844,
      "2]": 845,
      "9]": 846,
      "ack": 847,
      "▁V": 848,
      "▁acc": 849,
      "▁mine": 850,
      "ise": 851,
      "._\r\n": 852,
      "▁cour": 853,
      "▁dr": 854,
      "▁day": 855,
      "▁leave": 856,
      "▁thus": 857,
      "▁eart": 858,
      "▁rem": 859,
      "▁Be": 860,
      "▁[_T": 861,
      "▁spir": 862,
      "▁(L.)": 863,
      "aught": 864,
      "▁imp": 865,
      "▁world": 866,
      "▁earth": 867,
      "1]\r\n": 868,
      "2]\r\n": 869,
      "6]": 870,
      "6]\r\n": 871,
      "eunt": 872,
      "gl": 873,
      "man": 874,
      "ng": 875,
      "op": 876,
      "sw": 877,
      "er,": 878,
      "ens": 879,
      "ons": 880,
      "ory": 881,
      "▁down": 882,
      "▁in\r\n": 883,
      "cell": 884,
      "▁it,": 885,
      "▁me,": 886,
      "rief": 887,
      "▁L.H.]\r\n": 888,
      "esty": 889,
      "▁POLONIUS": 890,
      "eech": 891,
      "▁dear": 892,
      "▁dist": 893,
      "▁sec": 894,
      "▁seen": 895,
      "weet": 896,
      "ause": 897,
      "▁means": 898,
      "▁pray": 899,
      "▁KIN": 900,
      "▁KING": 901,
      "9]\r\n": 902,
      "_.]\r\n": 903,
      "ac": 904,
      "aw": 905,
      "ase": 906,
      "aut": 907,
      "ach": 908,
      "ial": 909,
      "▁ra": 910,
      "▁af": 911,
      "._)": 912,
      "ither": 913,
      "▁bra": 914,
      "orn": 915,
      "▁friend": 916,
      "▁could": 917,
      "▁put": 918,
      "▁long": 919,
      "▁litt": 920,
      "ed.]\r\n": 921,
      "▁great": 922,
      "omet": 923,
      "▁without": 924,
      "▁himself": 925,
      "▁supp": 926,
      "▁show": 927,
      "ears": 928,
      "▁used": 929,
      "▁nature": 930,
      "▁little": 931,
      "4]": 932,
      "DEN": 933,
      "ES": 934,
      "LDEN": 935,
      "gin": 936,
      "ie": 937,
      "ian": 938,
      "lay": 939,
      "ves": 940,
      "▁ro": 941,
      "▁tra": 942,
      "▁away": 943,
      "▁_C": 944,
      "ough": 945,
      "▁matter": 946,
      "ery": 947,
      "ition": 948,
      "▁bod": 949,
      "▁yet": 950,
      "▁Ay,": 951,
      "▁har": 952,
      "irst": 953,
      "▁rep": 954,
      "▁lord?\r\n": 955,
      "▁answ": 956,
      "▁GU": 957,
      "ally": 958,
      "▁express": 959,
      "▁true": 960,
      "STERN": 961,
      "▁purp": 962,
      "▁Laertes": 963,
      "▁Engl": 964,
      "LDENSTERN": 965,
      "0]\r\n": 966,
      "3]\r\n": 967,
      "CRAN": 968,
      "ILDENSTERN": 969,
      "SEN": 970,
      "TZ": 971,
      "[6": 972,
      "[7": 973,
      "ale": 974,
      "ix": 975,
      "led": 976,
      "sr": 977,
      "ser": 978,
      "▁_D": 979,
      "ince": 980,
      "▁sk": 981,
      "▁mind": 982,
      "ont": 983,
      "▁fear": 984,
      "▁lad": 985,
      "▁thing": 986,
      "▁those": 987,
      "▁int": 988,
      "▁gi": 989,
      "ason": 990,
      "ly,": 991,
      "▁Of": 992,
      "▁Or": 993,
      "▁[_Crosses": 994,
      "▁No,": 995,
      "▁Nay,": 996,
      "▁_Osr": 997,
      "▁fair": 998,
      "ween": 999,
      "▁[_Exeunt": 1000,
      "▁_In": 1001,
      "▁'Tis": 1002,
      "▁drink": 1003,
      "▁GUILDENSTERN": 1004,
      "CRANTZ": 1005,
      "SENCRANTZ": 1006,
      "&c": 1007,
      "'st": 1008,
      "be": 1009,
      "ger": 1010,
      "hind": 1011,
      "ject": 1012,
      "ling": 1013,
      "queen": 1014,
      "ty": 1015,
      "▁queen": 1016,
      "▁sweet": 1017,
      "ern": 1018,
      "ert": 1019,
      "er._": 1020,
      "▁bu": 1021,
      "▁best": 1022,
      "▁both": 1023,
      "ense": 1024,
      "▁find": 1025,
      "▁fell": 1026,
      "▁you.\r\n": 1027,
      "▁hold": 1028,
      "▁grief": 1029,
      "▁head": 1030,
      "▁Who": 1031,
      "▁When": 1032,
      "▁nothing": 1033,
      "▁form": 1034,
      "ool": 1035,
      "▁once": 1036,
      "▁or\r\n": 1037,
      "▁Do": 1038,
      "▁_Ber._": 1039,
      "▁_Guil": 1040,
      "▁between": 1041,
      "▁Why,": 1042,
      "▁ROSENCRANTZ": 1043,
      "▁Horatio": 1044,
      "▁_Osr._": 1045,
      "▁_Guil._": 1046,
      "5]\r\n": 1047,
      "7]": 1048,
      "?_]": 1049,
      "cl": 1050,
      "cy": 1051,
      "ild": 1052,
      "igh": 1053,
      "lt": 1054,
      "ond": 1055,
      "pon": 1056,
      "▁ent": 1057,
      "▁other": 1058,
      "▁&c": 1059,
      "▁take": 1060,
      "▁_S": 1061,
      "▁_f": 1062,
      "▁sl": 1063,
      "▁sign": 1064,
      "▁somet": 1065,
      "▁watch": 1066,
      "orm": 1067,
      "▁follow": 1068,
      "▁car": 1069,
      "▁daught": 1070,
      "▁pers": 1071,
      "eth": 1072,
      "▁nor": 1073,
      "▁is\r\n": 1074,
      "▁its": 1075,
      "▁end": 1076,
      "▁ear": 1077,
      "▁has": 1078,
      "alk": 1079,
      "▁Mr.": 1080,
      "▁live": 1081,
      "▁though": 1082,
      ".H.": 1083,
      "▁Hamlet,": 1084,
      "▁But,": 1085,
      "▁blood": 1086,
      "▁now,": 1087,
      ".\"]\r\n": 1088,
      "▁ground": 1089,
      "▁signif": 1090,
      ":--": 1091,
      "IA": 1092,
      "TES": 1093,
      "gg": 1094,
      "ied": 1095,
      "ring": 1096,
      "rant": 1097,
      "son": 1098,
      "ward": 1099,
      "▁i": 1100,
      "▁̈": 1101,
      "▁tre": 1102,
      "▁_N": 1103,
      "▁_w": 1104,
      "oub": 1105,
      "ouch": 1106,
      "▁sent": 1107,
      "▁sense": 1108,
      "▁wit": 1109,
      "▁way": 1110,
      "▁wind": 1111,
      "▁Is": 1112,
      "orrow": 1113,
      "▁free": 1114,
      "▁first": 1115,
      "▁clo": 1116,
      "nother": 1117,
      "▁ph": 1118,
      "▁inde": 1119,
      "▁being": 1120,
      "▁beli": 1121,
      "ently": 1122,
      "uth": 1123,
      "ion,": 1124,
      "▁stand": 1125,
      "▁speech": 1126,
      "▁Give": 1127,
      "▁Not": 1128,
      "▁vi": 1129,
      "▁present": 1130,
      "▁Shakespeare's": 1131,
      "▁eyes": 1132,
      "-m": 1133,
      "8]": 1134,
      "AER": 1135,
      "LIA": 1136,
      "PHE": 1137,
      "eve": 1138,
      "less": 1139,
      "ock": 1140,
      "ps": 1141,
      "pos": 1142,
      "s.": 1143,
      "ved": 1144,
      "▁air": 1145,
      "▁another": 1146,
      "ought": 1147,
      "▁same": 1148,
      "▁war": 1149,
      "▁fe": 1150,
      "▁cl": 1151,
      "▁cor": 1152,
      "▁dre": 1153,
      "▁last": 1154,
      "▁hum": 1155,
      "▁itself": 1156,
      "▁every": 1157,
      "▁hast": 1158,
      "▁use": 1159,
      "▁his\r\n": 1160,
      "▁state": 1161,
      "▁Sp": 1162,
      "▁ass": 1163,
      "▁Come,": 1164,
      "▁him,": 1165,
      "▁anci": 1166,
      "▁And,": 1167,
      "▁does": 1168,
      "▁Good": 1169,
      "▁No": 1170,
      "▁_To": 1171,
      "ump": 1172,
      "ical": 1173,
      "▁comes": 1174,
      "▁time,": 1175,
      "▁seem": 1176,
      "▁jo": 1177,
      "▁two": 1178,
      "▁spirit": 1179,
      "▁answer": 1180,
      "▁̈d": 1181,
      "AERTES": 1182,
      "PHELIA": 1183,
      "CE": 1184,
      "ace": 1185,
      "lc": 1186,
      "men": 1187,
      "night": 1188,
      "ove": 1189,
      "over": 1190,
      "oil": 1191,
      "ry,": 1192,
      "rong": 1193,
      "well": 1194,
      "▁1": 1195,
      "▁ter": 1196,
      "▁sea": 1197,
      "▁mur": 1198,
      "▁wo": 1199,
      "▁over": 1200,
      "ison": 1201,
      "har": 1202,
      "ener": 1203,
      "▁dra": 1204,
      "▁done": 1205,
      "ed.\r\n": 1206,
      "ank": 1207,
      "ets": 1208,
      "▁At": 1209,
      "▁beaut": 1210,
      "▁em": 1211,
      "▁under": 1212,
      "irt": 1213,
      "ide": 1214,
      "estion": 1215,
      "▁Play": 1216,
      "aint": 1217,
      "'the": 1218,
      "▁maj": 1219,
      "ustom": 1220,
      "unn": 1221,
      "▁(R.H.)\r\n": 1222,
      "▁face": 1223,
      "▁excell": 1224,
      "▁Your": 1225,
      "▁madness": 1226,
      "▁(L.H.)\r\n": 1227,
      "▁Here": 1228,
      "▁adv": 1229,
      "▁about": 1230,
      "▁better": 1231,
      "▁against": 1232,
      "▁common": 1233,
      "▁said": 1234,
      "▁body": 1235,
      "▁expression": 1236,
      "▁purpose": 1237,
      "▁given": 1238,
      "▁daughter": 1239,
      "CEN": 1240,
      "ced": 1241,
      "form": 1242,
      "get": 1243,
      "rit": 1244,
      "rist": 1245,
      "shi": 1246,
      "ther": 1247,
      "tend": 1248,
      "ura": 1249,
      "▁ill": 1250,
      "▁tri": 1251,
      "oun": 1252,
      "▁mon": 1253,
      "▁far": 1254,
      "▁fool": 1255,
      "▁cause": 1256,
      "▁di": 1257,
      "▁dut": 1258,
      "▁ple": 1259,
      "ary": 1260,
      "▁ho": 1261,
      "▁and,": 1262,
      "oman": 1263,
      "se,": 1264,
      "▁it.\r\n": 1265,
      "▁me.\r\n": 1266,
      "▁yourself": 1267,
      "▁stran": 1268,
      "▁ret": 1269,
      "▁OPHELIA": 1270,
      "▁SCEN": 1271,
      "verb": 1272,
      "vers": 1273,
      "▁L.]\r\n": 1274,
      "▁LAERTES": 1275,
      "▁Mar": 1276,
      "'d,": 1277,
      "▁Now": 1278,
      "▁_Th": 1279,
      "▁unc": 1280,
      "ume": 1281,
      "▁(R.C.)": 1282,
      "▁while": 1283,
      ",[4": 1284,
      "▁_And": 1285,
      "▁poor": 1286,
      "▁art": 1287,
      "▁never": 1288,
      "▁work": 1289,
      "▁sir,": 1290,
      "▁_For": 1291,
      "▁brother": 1292,
      "▁right": 1293,
      "▁brain": 1294,
      "▁England": 1295,
      "▁[_Exeunt_": 1296,
      "▁i'the": 1297,
      "▁SCENE": 1298,
      "-d": 1299,
      "_.": 1300,
      "ces": 1301,
      "ey": 1302,
      "gment": 1303,
      "oh": 1304,
      "pre": 1305,
      "up": 1306,
      "us,": 1307,
      "ving": 1308,
      "▁tong": 1309,
      "oud": 1310,
      "▁wis": 1311,
      "▁the_": 1312,
      "erc": 1313,
      "once": 1314,
      "one,": 1315,
      "ors": 1316,
      "▁hour": 1317,
      "▁THE": 1318,
      "▁gener": 1319,
      "ower": 1320,
      "▁An": 1321,
      "▁name": 1322,
      "leep": 1323,
      "ute": 1324,
      "▁ever": 1325,
      "ash": 1326,
      "ly\r\n": 1327,
      "ried": 1328,
      "▁rest": 1329,
      "▁read": 1330,
      "▁kind": 1331,
      "▁keep": 1332,
      "▁only": 1333,
      "e._]": 1334,
      "▁lie": 1335,
      "▁R.": 1336,
      "▁conce": 1337,
      "▁consid": 1338,
      "venge": 1339,
      "▁vis": 1340,
      "▁noble": 1341,
      "▁makes": 1342,
      "ung": 1343,
      "▁Hamlet's": 1344,
      "ument": 1345,
      "rows": 1346,
      "ation.]\r\n": 1347,
      ".[6": 1348,
      "▁proverb": 1349,
      "▁therefore": 1350,
      "ude": 1351,
      "▁jud": 1352,
      "ies,": 1353,
      "▁new": 1354,
      "▁father's": 1355,
      "▁grace": 1356,
      "hich": 1357,
      "▁_Ghost": 1358,
      "▁command": 1359,
      "▁Un": 1360,
      "▁Upon": 1361,
      "▁Why": 1362,
      "▁HORATIO,": 1363,
      "▁QUEEN,": 1364,
      "▁sword": 1365,
      "▁remem": 1366,
      "._)\r\n": 1367,
      "▁suppos": 1368,
      "▁fellow": 1369,
      "▁phra": 1370,
      "▁believe": 1371,
      "ship": 1372,
      "▁duty": 1373,
      "▁_Ghost._": 1374,
      ".E": 1375,
      "2nd": 1376,
      ";--": 1377,
      "LL": 1378,
      "cri": 1379,
      "cess": 1380,
      "dd": 1381,
      "ged": 1382,
      "most": 1383,
      "sol": 1384,
      "vour": 1385,
      "▁Ex": 1386,
      "▁aff": 1387,
      "▁_U": 1388,
      "▁ser": 1389,
      "▁min": 1390,
      "▁men": 1391,
      "ene": 1392,
      "oni": 1393,
      "▁col": 1394,
      "▁chan": 1395,
      "▁came": 1396,
      "es\r\n": 1397,
      "▁pati": 1398,
      "ans": 1399,
      "▁gall": 1400,
      "▁before": 1401,
      "▁is,": 1402,
      "entre": 1403,
      "▁even": 1404,
      "▁each": 1405,
      "▁Will": 1406,
      "▁that,": 1407,
      "▁within": 1408,
      "▁for\r\n": 1409,
      "▁rel": 1410,
      "▁OF": 1411,
      "▁welc": 1412,
      "▁Then": 1413,
      "▁whose": 1414,
      "e._]\r\n": 1415,
      "▁By": 1416,
      "▁sub": 1417,
      "▁Ghost": 1418,
      "▁by\r\n": 1419,
      "iffe": 1420,
      "▁virt": 1421,
      "'t,": 1422,
      "umb": 1423,
      "▁round": 1424,
      "▁faith": 1425,
      "▁come,": 1426,
      "▁bless": 1427,
      "ption": 1428,
      "▁charact": 1429,
      "▁honour": 1430,
      "▁whole": 1431,
      "▁Joh": 1432,
      "rench": 1433,
      "▁gentleman": 1434,
      "▁court": 1435,
      "▁import": 1436,
      "▁after": 1437,
      "▁something": 1438,
      "▁person": 1439,
      "ural": 1440,
      "▁strange": 1441,
      "▁uncle": 1442,
      "▁tongue": 1443,
      "▁John": 1444,
      ".--\r\n": 1445,
      "CT": 1446,
      "OR": 1447,
      "U.E": 1448,
      "[8": 1449,
      "_]\r\n": 1450,
      "dom": 1451,
      "ever": 1452,
      "ered": 1453,
      "ffect": 1454,
      "ier": 1455,
      "ken": 1456,
      "ls": 1457,
      "mir": 1458,
      "oc": 1459,
      "oint": 1460,
      "ras": 1461,
      "rance": 1462,
      "sp": 1463,
      "s_,]": 1464,
      "vil": 1465,
      "yr": 1466,
      "▁till": 1467,
      "hed": 1468,
      "▁action": 1469,
      "▁auth": 1470,
      "▁_Y": 1471,
      "▁_2nd": 1472,
      "ouse": 1473,
      "▁sm": 1474,
      "▁son": 1475,
      "▁sleep": 1476,
      "▁walk": 1477,
      "rent": 1478,
      "▁occ": 1479,
      "ister": 1480,
      "▁I,": 1481,
      "▁fal": 1482,
      "▁fee": 1483,
      "▁fall": 1484,
      "▁custom": 1485,
      "▁oft": 1486,
      "▁drown": 1487,
      "▁pi": 1488,
      "▁less": 1489,
      "▁thine": 1490,
      "▁guil": 1491,
      "▁heard": 1492,
      "▁Have": 1493,
      "▁bec": 1494,
      "▁it\r\n": 1495,
      "▁effect": 1496,
      "▁not\r\n": 1497,
      "▁that\r\n": 1498,
      "illain": 1499,
      "▁strong": 1500,
      "ourse": 1501,
      "▁rec": 1502,
      "▁On": 1503,
      "▁Look": 1504,
      "▁MAR": 1505,
      "▁light": 1506,
      "▁lord;": 1507,
      "▁Pol": 1508,
      "▁III.4": 1509,
      "▁III.5": 1510,
      "▁III.6": 1511,
      "▁III.7": 1512,
      "▁III.8": 1513,
      "▁R.]\r\n": 1514,
      "▁sun": 1515,
      "▁French": 1516,
      "[11": 1517,
      "[12": 1518,
      "▁Nor": 1519,
      ".H.)": 1520,
      "▁are\r\n": 1521,
      "▁villain": 1522,
      "▁lost": 1523,
      "▁Dan": 1524,
      "▁att": 1525,
      "une": 1526,
      "ult": 1527,
      "ation,": 1528,
      "▁favour": 1529,
      "▁II.4": 1530,
      ".[5": 1531,
      ".[7": 1532,
      "ager": 1533,
      "▁(L.C.)": 1534,
      "▁poison": 1535,
      "▁here,": 1536,
      "▁thank": 1537,
      "cious": 1538,
      "hile": 1539,
      "▁obser": 1540,
      "▁honest": 1541,
      "▁passion": 1542,
      "ably": 1543,
      "▁[_To": 1544,
      "▁lady": 1545,
      ".H.U.E": 1546,
      "▁signify": 1547,
      "oubt": 1548,
      "CELL": 1549,
      "▁murder": 1550,
      "▁excellent": 1551,
      "ristian": 1552,
      "▁supposed": 1553,
      "▁phrase": 1554,
      "onius": 1555,
      "▁MARCELL": 1556,
      "▁MARCELLUS": 1557,
      "!--": 1558,
      "'S": 1559,
      "'en": 1560,
      "),": 1561,
      "Asid": 1562,
      "[9": 1563,
      "act": 1564,
      "bit": 1565,
      "but": 1566,
      "band": 1567,
      "du": 1568,
      "gn": 1569,
      "ience": 1570,
      "s:": 1571,
      "the": 1572,
      "uck": 1573,
      "v'd": 1574,
      "▁est": 1575,
      "▁turn": 1576,
      "iness": 1577,
      "ous,": 1578,
      "▁since": 1579,
      "▁sorrow": 1580,
      "▁wa": 1581,
      "▁woman": 1582,
      "▁opp": 1583,
      "iss": 1584,
      "er's": 1585,
      "▁bon": 1586,
      "▁fire": 1587,
      "▁count": 1588,
      "▁offe": 1589,
      "▁law": 1590,
      "▁year": 1591,
      "ing_": 1592,
      "▁you,\r\n": 1593,
      "▁young": 1594,
      "▁hus": 1595,
      "▁ind": 1596,
      "▁inter": 1597,
      "am,": 1598,
      "▁gl": 1599,
      "▁hel": 1600,
      "ceive": 1601,
      "▁Act": 1602,
      "▁ACT": 1603,
      "▁be,": 1604,
      "▁bear": 1605,
      "▁behind": 1606,
      "▁myself": 1607,
      "ent,": 1608,
      "▁mem": 1609,
      "▁not,": 1610,
      "'s\r\n": 1611,
      "▁still": 1612,
      "▁as\r\n": 1613,
      "▁III.2": 1614,
      "▁III.3": 1615,
      "▁III.9": 1616,
      "▁Re": 1617,
      "▁cons": 1618,
      "▁suit": 1619,
      "ilt": 1620,
      "▁From": 1621,
      "▁Fare": 1622,
      "▁def": 1623,
      "usion": 1624,
      "▁I.2": 1625,
      "▁I.3": 1626,
      "▁I.4": 1627,
      "▁I.5": 1628,
      "▁I.6": 1629,
      "▁I.7": 1630,
      "▁I.8": 1631,
      "▁I.9": 1632,
      "ift": 1633,
      "fection": 1634,
      "ular": 1635,
      "▁II.1": 1636,
      "▁II.2": 1637,
      "▁II.3": 1638,
      "▁II.5": 1639,
      "▁II.6": 1640,
      ".[3": 1641,
      ",[2": 1642,
      ",[3": 1643,
      "▁V.1": 1644,
      "▁V.2": 1645,
      "▁V.3": 1646,
      "▁V.4": 1647,
      "▁V.5": 1648,
      "▁V.6": 1649,
      "▁players": 1650,
      "were": 1651,
      "▁just": 1652,
      "▁_As": 1653,
      "▁IV.1": 1654,
      "▁IV.2": 1655,
      "▁IV.3": 1656,
      "▁IV.4": 1657,
      "▁well,": 1658,
      "▁III.10": 1659,
      "▁III.11": 1660,
      "▁III.12": 1661,
      "▁III.13": 1662,
      "▁question": 1663,
      "pect": 1664,
      "▁\"T": 1665,
      "▁appear": 1666,
      "▁I.10": 1667,
      "▁I.11": 1668,
      "▁[_Exit_,": 1669,
      "▁then,": 1670,
      "rence": 1671,
      "▁course": 1672,
      "▁GUILDENSTERN,": 1673,
      "▁viol": 1674,
      "▁term": 1675,
      "▁majesty": 1676,
      "gether": 1677,
      "tendant": 1678,
      "▁return": 1679,
      "▁Polonius": 1680,
      "!_]": 1681,
      ",--\r\n": 1682,
      "-night": 1683,
      ".,": 1684,
      "AT": 1685,
      "bably": 1686,
      "cu": 1687,
      "ere": 1688,
      "h,": 1689,
      "ike": 1690,
      "s;": 1691,
      "ught": 1692,
      "y.\r\n": 1693,
      "Ã©": 1694,
      "▁id": 1695,
      "▁tears": 1696,
      "▁_be": 1697,
      "▁sat": 1698,
      "▁sim": 1699,
      "▁song": 1700,
      "▁mark": 1701,
      "▁wat": 1702,
      "▁bus": 1703,
      "▁IN": 1704,
      "enc": 1705,
      "▁fun": 1706,
      "▁fig": 1707,
      "▁full": 1708,
      "▁foil": 1709,
      "▁fash": 1710,
      "▁cur": 1711,
      "ess,": 1712,
      "▁dam": 1713,
      "▁doth": 1714,
      "▁to-night": 1715,
      "▁pe": 1716,
      "▁pri": 1717,
      "ing.]\r\n": 1718,
      "▁you?\r\n": 1719,
      "▁gone": 1720,
      "▁_He": 1721,
      "lect": 1722,
      "asion": 1723,
      "asure": 1724,
      "--A": 1725,
      "▁not.\r\n": 1726,
      "eace": 1727,
      "▁with\r\n": 1728,
      "▁fort": 1729,
      "▁reg": 1730,
      "▁revenge": 1731,
      "▁Our": 1732,
      "▁Sir": 1733,
      "▁wear": 1734,
      "▁kill": 1735,
      "▁this\r\n": 1736,
      "▁Mad": 1737,
      "▁Make": 1738,
      "▁him.\r\n": 1739,
      "▁liber": 1740,
      "'d,\r\n": 1741,
      "▁[_S": 1742,
      "ession": 1743,
      "ife": 1744,
      "[10": 1745,
      "▁vo": 1746,
      "▁Did": 1747,
      "▁maid": 1748,
      "▁_P.": 1749,
      "▁Thou": 1750,
      "▁comp": 1751,
      ",[5": 1752,
      "▁many": 1753,
      "▁point": 1754,
      "▁arg": 1755,
      "▁arras": 1756,
      "▁love,": 1757,
      "▁qui": 1758,
      "▁'tw": 1759,
      "▁char": 1760,
      "▁saw": 1761,
      "▁There's": 1762,
      ",----\r\n": 1763,
      "▁gentlemen": 1764,
      "▁thoughts": 1765,
      "▁POLONIUS,": 1766,
      "▁secret": 1767,
      "▁skull": 1768,
      "position": 1769,
      "umpet": 1770,
      "▁judgment": 1771,
      "▁Johnson": 1772,
      "▁author": 1773,
      "▁[_To_": 1774,
      "▁husband": 1775,
      "▁damn": 1776,
      "-s": 1777,
      "-t": 1778,
      ":[5": 1779,
      "AN": 1780,
      "OM": 1781,
      "With": 1782,
      "_)": 1783,
      "ail": 1784,
      "d,": 1785,
      "ible": 1786,
      "king": 1787,
      "lf": 1788,
      "lse": 1789,
      "me": 1790,
      "med": 1791,
      "now": 1792,
      "ners": 1793,
      "ront": 1794,
      "s._]\r\n": 1795,
      "ual": 1796,
      "upp": 1797,
      "uff": 1798,
      "vi": 1799,
      "vent": 1800,
      "}\r\n": 1801,
      "▁ut": 1802,
      "▁tem": 1803,
      "▁table": 1804,
      "▁age": 1805,
      "▁aud": 1806,
      "▁_V": 1807,
      "▁_to": 1808,
      "oup": 1809,
      "▁mer": 1810,
      "▁mom": 1811,
      "▁mount": 1812,
      "▁whe": 1813,
      "▁win": 1814,
      "rew": 1815,
      "requ": 1816,
      "resent": 1817,
      "▁thee,": 1818,
      "▁op": 1819,
      "ished": 1820,
      "ers,": 1821,
      "▁bes": 1822,
      "enber": 1823,
      "▁fit": 1824,
      "▁fur": 1825,
      "▁foul": 1826,
      "▁cold": 1827,
      "▁crown": 1828,
      "▁cunn": 1829,
      "▁dull": 1830,
      "▁doubt": 1831,
      "▁past": 1832,
      "▁power": 1833,
      "▁lack": 1834,
      "▁youth": 1835,
      "▁hor": 1836,
      "att": 1837,
      "atin": 1838,
      "ative": 1839,
      "ed,\r\n": 1840,
      "▁thri": 1841,
      "ancy": 1842,
      "▁inc": 1843,
      "owers": 1844,
      "▁he's": 1845,
      "▁heal": 1846,
      "▁_His": 1847,
      "▁His": 1848,
      "▁beg": 1849,
      "▁beard": 1850,
      "▁begin": 1851,
      "▁near": 1852,
      "lex": 1853,
      "le\r\n": 1854,
      "▁ere": 1855,
      "▁else": 1856,
      "▁hang": 1857,
      "▁us,": 1858,
      "asy": 1859,
      "▁me;": 1860,
      "▁meet": 1861,
      "▁hist": 1862,
      "▁that's": 1863,
      "ly.]\r\n": 1864,
      "▁stay": 1865,
      "▁stop": 1866,
      "▁reason": 1867,
      "▁receive": 1868,
      "▁They": 1869,
      "ade": 1870,
      "idd": 1871,
      "▁More": 1872,
      "ury": 1873,
      "▁him\r\n": 1874,
      "▁an\r\n": 1875,
      "▁mod": 1876,
      "▁Pr": 1877,
      "▁Pro": 1878,
      "▁Gert": 1879,
      "▁_i.e._,\r\n": 1880,
      "▁Dr.": 1881,
      "▁_There": 1882,
      "lic": 1883,
      "▁place": 1884,
      "icular": 1885,
      "▁rank": 1886,
      "▁ext": 1887,
      ".[4": 1888,
      "▁prof": 1889,
      "▁Yet": 1890,
      "▁seek": 1891,
      "▁What,": 1892,
      "ages": 1893,
      "agant": 1894,
      "▁say,": 1895,
      "▁says": 1896,
      "▁quick": 1897,
      "▁add": 1898,
      "▁words": 1899,
      "▁enc": 1900,
      "▁honesty": 1901,
      "ran._": 1902,
      "▁desire": 1903,
      "▁_Fran._": 1904,
      "▁bring": 1905,
      "▁eye": 1906,
      "▁marri": 1907,
      "▁chur": 1908,
      "▁christian": 1909,
      "▁break": 1910,
      "▁spirits": 1911,
      "▁second": 1912,
      "▁rose": 1913,
      "▁hard": 1914,
      "ertain": 1915,
      "-mak": 1916,
      "▁dread": 1917,
      "▁Speak": 1918,
      "▁anciently": 1919,
      "▁draw": 1920,
      "▁Attendant": 1921,
      "▁beauty": 1922,
      "▁underst": 1923,
      "▁Play._": 1924,
      "▁consider": 1925,
      "▁_Un": 1926,
      "▁patience": 1927,
      "▁virtue": 1928,
      "▁character": 1929,
      "▁_You": 1930,
      "▁occasion": 1931,
      "gnant": 1932,
      "▁help": 1933,
      "▁fashion": 1934,
      "▁Sir,": 1935,
      "▁voice": 1936,
      "enberg": 1937,
      "▁Gertr": 1938,
      "-f": 1939,
      ":[2": 1940,
      ";[2": 1941,
      "DO": 1942,
      "Ghost": 1943,
      "T.\r\n": 1944,
      "ax": 1945,
      "az": 1946,
      "aid": 1947,
      "akes": 1948,
      "bed": 1949,
      "ew": 1950,
      "gue": 1951,
      "l,": 1952,
      "las": 1953,
      "land": 1954,
      "ner": 1955,
      "ping": 1956,
      "pic": 1957,
      "ron": 1958,
      "ram": 1959,
      "rung": 1960,
      "set": 1961,
      "spect": 1962,
      "tic": 1963,
      "uild": 1964,
      "ying": 1965,
      "Ã¦": 1966,
      "▁}": 1967,
      "▁es": 1968,
      "▁King": 1969,
      "▁ten": 1970,
      "▁touch": 1971,
      "▁_E": 1972,
      "▁_d": 1973,
      "▁_p": 1974,
      "▁_on": 1975,
      "▁sit": 1976,
      "▁sound": 1977,
      "▁mus": 1978,
      "▁mist": 1979,
      "▁wager": 1980,
      "▁wife": 1981,
      "ott": 1982,
      "▁ori": 1983,
      "nde": 1984,
      "▁bar": 1985,
      "▁book": 1986,
      "▁born": 1987,
      "▁Inde": 1988,
      "▁fret": 1989,
      "▁frequ": 1990,
      "▁cal": 1991,
      "▁chi": 1992,
      "▁cap": 1993,
      "▁cens": 1994,
      "▁cup": 1995,
      "es.]\r\n": 1996,
      "▁den": 1997,
      "▁dan": 1998,
      "▁dire": 1999,
      "▁deep": 2000,
      "▁pard": 2001,
      "▁pale": 2002,
      "▁late": 2003,
      "▁you\r\n": 2004,
      "▁home": 2005,
      "▁high": 2006,
      "▁[H": 2007,
      "▁thr": 2008,
      "stant": 2009,
      "ety": 2010,
      "▁ghost": 2011,
      "ows": 2012,
      "▁he,": 2013,
      "▁hell": 2014,
      "sequ": 2015,
      "▁_How": 2016,
      "▁bell": 2017,
      "ime": 2018,
      "▁ease": 2019,
      "▁habit": 2020,
      "▁Would": 2021,
      "▁Which": 2022,
      "raw": 2023,
      "ly.\r\n": 2024,
      "▁for,": 2025,
      "▁your\r\n": 2026,
      "▁star": 2027,
      "▁story": 2028,
      "oof": 2029,
      "oose": 2030,
      "al,": 2031,
      "▁weep": 2032,
      "▁Latin": 2033,
      "▁lordship": 2034,
      "▁or,": 2035,
      "▁[_Asid": 2036,
      "▁Pri": 2037,
      "▁spe": 2038,
      "▁suff": 2039,
      "▁Go": 2040,
      "▁del": 2041,
      "▁was\r\n": 2042,
      "▁so.\r\n": 2043,
      "▁lose": 2044,
      "ousin": 2045,
      "▁short": 2046,
      "▁allusion": 2047,
      "selves": 2048,
      "▁Hamlet.\r\n": 2049,
      "ure,": 2050,
      "▁herself": 2051,
      "▁knave": 2052,
      "▁(R.": 2053,
      "▁fare": 2054,
      "ence,": 2055,
      ",[6": 2056,
      "▁process": 2057,
      "▁probably": 2058,
      "▁our\r\n": 2059,
      "▁disposition": 2060,
      "▁man's": 2061,
      "udes": 2062,
      "▁king,": 2063,
      "▁known": 2064,
      "▁(L.H.)": 2065,
      "▁poet": 2066,
      "▁arm": 2067,
      "▁arms": 2068,
      "▁_If": 2069,
      "cience": 2070,
      "▁image": 2071,
      "▁_But": 2072,
      "pted": 2073,
      "able.]\r\n": 2074,
      "▁_Re": 2075,
      "▁admir": 2076,
      "▁(_With": 2077,
      "▁above": 2078,
      "▁night,": 2079,
      "▁_crosses": 2080,
      "▁We'll": 2081,
      "▁almost": 2082,
      "iving": 2083,
      "▁contin": 2084,
      "▁particular": 2085,
      ",[10": 2086,
      "▁ROOM": 2087,
      "ches": 2088,
      "▁Very": 2089,
      "▁[_The": 2090,
      "▁KING,": 2091,
      "▁shows": 2092,
      "▁traged": 2093,
      "▁represent": 2094,
      "▁English": 2095,
      "▁indeed,": 2096,
      "▁corru": 2097,
      "▁dream": 2098,
      "▁ancient": 2099,
      "▁woe": 2100,
      "▁wonder": 2101,
      "▁month": 2102,
      "▁please": 2103,
      "▁brains": 2104,
      "▁wisdom": 2105,
      "▁remember": 2106,
      "▁colour": 2107,
      "▁welcome": 2108,
      "▁blessing": 2109,
      "▁observ": 2110,
      "▁offend": 2111,
      "▁memory": 2112,
      "▁water": 2113,
      "▁libert": 2114,
      "▁quiet": 2115,
      "▁audience": 2116,
      "▁mountain": 2117,
      "▁further": 2118,
      "▁cunning": 2119,
      "▁horri": 2120,
      "▁health": 2121,
      "▁origin": 2122,
      "▁censure": 2123,
      "▁danger": 2124,
      "▁pardon": 2125,
      "▁(_Without": 2126,
      "!--\r\n": 2127,
      "'lt": 2128,
      ",\"": 2129,
      "-p": 2130,
      ";[4": 2131,
      "?--": 2132,
      "AST": 2133,
      "FOR": 2134,
      "RI": 2135,
      "ais": 2136,
      "air": 2137,
      "app": 2138,
      "bl": 2139,
      "blet": 2140,
      "ca": 2141,
      "con": 2142,
      "cst": 2143,
      "chan": 2144,
      "ex": 2145,
      "ept": 2146,
      "gu": 2147,
      "g'd": 2148,
      "ip": 2149,
      "kin": 2150,
      "mit": 2151,
      "ob": 2152,
      "of": 2153,
      "ole": 2154,
      "rh": 2155,
      "so": 2156,
      "sar": 2157,
      "sand": 2158,
      "s'd": 2159,
      "und": 2160,
      "ule": 2161,
      "vid": 2162,
      "with": 2163,
      "yp": 2164,
      "yal": 2165,
      "▁Queen": 2166,
      "▁ign": 2167,
      "▁tend": 2168,
      "hes": 2169,
      "▁aw": 2170,
      "▁_b": 2171,
      "▁_in": 2172,
      "ine,": 2173,
      "ination": 2174,
      "▁sy": 2175,
      "▁sight": 2176,
      "▁sister": 2177,
      "▁mot": 2178,
      "▁mis": 2179,
      "▁mort": 2180,
      "▁morn": 2181,
      "▁weak": 2182,
      "▁wilt": 2183,
      "reen": 2184,
      "read": 2185,
      "ots": 2186,
      "▁o'": 2187,
      "▁odd": 2188,
      "er\r\n": 2189,
      "itter": 2190,
      "itude": 2191,
      "▁bent": 2192,
      "▁brow": 2193,
      "▁back": 2194,
      "enst": 2195,
      "onf": 2196,
      "▁fore": 2197,
      "▁found": 2198,
      "▁fix": 2199,
      "▁co": 2200,
      "▁cr": 2201,
      "▁cho": 2202,
      "▁dust": 2203,
      "▁dark": 2204,
      "▁diffe": 2205,
      "▁to,": 2206,
      "▁told": 2207,
      "▁together": 2208,
      "▁pract": 2209,
      "▁peace": 2210,
      "▁le": 2211,
      "▁you:": 2212,
      "▁hot": 2213,
      "▁hit": 2214,
      "▁hither": 2215,
      "▁[Ghost": 2216,
      "ats": 2217,
      "eds": 2218,
      "▁thir": 2219,
      "▁Till": 2220,
      "▁Than": 2221,
      "vel": 2222,
      "vell": 2223,
      "▁gave": 2224,
      "om'd": 2225,
      "ceed": 2226,
      "▁Ad": 2227,
      "▁Her": 2228,
      "▁Hold": 2229,
      "▁be\r\n": 2230,
      "▁nunn": 2231,
      "▁my\r\n": 2232,
      "▁it.]\r\n": 2233,
      "enter": 2234,
      "cho": 2235,
      "▁me.]\r\n": 2236,
      "▁me?\r\n": 2237,
      "--a": 2238,
      "eal": 2239,
      "ries": 2240,
      "right": 2241,
      "▁stri": 2242,
      "▁stru": 2243,
      "_,]\r\n": 2244,
      "ourn": 2245,
      "alm": 2246,
      "▁She": 2247,
      "▁Such": 2248,
      "▁These": 2249,
      "rodu": 2250,
      "▁on't": 2251,
      "▁CH": 2252,
      "▁Ch": 2253,
      "▁CÃ¦": 2254,
      "▁CAST": 2255,
      "▁Must": 2256,
      "urt": 2257,
      "▁why": 2258,
      "▁BERN": 2259,
      "▁lord,\r\n": 2260,
      "oles": 2261,
      "▁order": 2262,
      "'d.\r\n": 2263,
      "▁[_R": 2264,
      "ckons": 2265,
      "▁Pl": 2266,
      "▁Pyr": 2267,
      "▁do,\r\n": 2268,
      "▁succ": 2269,
      "▁God": 2270,
      "▁Guild": 2271,
      "ilar": 2272,
      "▁devil": 2273,
      "us'": 2274,
      "▁will.\r\n": 2275,
      "▁so,": 2276,
      "▁thousand": 2277,
      "▁val": 2278,
      "▁vice": 2279,
      "▁lock": 2280,
      "▁allow": 2281,
      "liver": 2282,
      "like": 2283,
      "ard,": 2284,
      "▁no\r\n": 2285,
      "▁unp": 2286,
      "▁uns": 2287,
      "▁plac": 2288,
      "ulate": 2289,
      "ation\r\n": 2290,
      "▁thyself": 2291,
      "▁fac": 2292,
      "▁exerc": 2293,
      "▁II.7": 2294,
      ".[2": 2295,
      ".[8": 2296,
      ".[9": 2297,
      ",[7": 2298,
      "▁proper": 2299,
      "▁goes": 2300,
      "▁go.\r\n": 2301,
      "hens": 2302,
      "▁which\r\n": 2303,
      "▁know,": 2304,
      "▁_All": 2305,
      "ies\r\n": 2306,
      "▁_My": 2307,
      "▁love,\r\n": 2308,
      "▁trans": 2309,
      "▁trumpet": 2310,
      "ctions": 2311,
      "_;]\r\n": 2312,
      "▁letter": 2313,
      "age;": 2314,
      "▁quant": 2315,
      "▁imag": 2316,
      "▁worn": 2317,
      "▁_By": 2318,
      "▁chair": 2319,
      "▁(_B": 2320,
      "OND": 2321,
      "▁appears": 2322,
      "▁perfect": 2323,
      "▁obey": 2324,
      "▁I.12": 2325,
      "▁enough": 2326,
      "▁alone": 2327,
      "▁_With": 2328,
      "▁mother's": 2329,
      "▁descri": 2330,
      ".[11": 2331,
      "ives": 2332,
      "▁HAMLET,": 2333,
      "racted": 2334,
      "ARDO": 2335,
      "▁life,": 2336,
      "▁look,": 2337,
      "ched": 2338,
      "▁discourse": 2339,
      "▁breath": 2340,
      "▁Horatio,": 2341,
      "▁accent": 2342,
      "▁affection": 2343,
      "iece": 2344,
      "ixt": 2345,
      "▁introdu": 2346,
      "▁buri": 2347,
      "▁&c._]": 2348,
      "▁close": 2349,
      "▁joy": 2350,
      "▁emp": 2351,
      "▁advice": 2352,
      "▁hope": 2353,
      "▁general": 2354,
      "▁conceit": 2355,
      "▁visit": 2356,
      "▁proverbial": 2357,
      "▁news": 2358,
      "▁rememb": 2359,
      "▁subject": 2360,
      "▁false": 2361,
      "▁feeling": 2362,
      "▁guilt": 2363,
      "▁because": 2364,
      "▁One": 2365,
      "▁Dane": 2366,
      "▁bones": 2367,
      "▁conscience": 2368,
      "▁Farewell": 2369,
      "▁business": 2370,
      "▁peop": 2371,
      "▁priv": 2372,
      "▁moment": 2373,
      "▁beseech": 2374,
      "▁_There's": 2375,
      "▁understand": 2376,
      "▁Indeed,": 2377,
      "▁admiration": 2378,
      "▁ignor": 2379,
      "enstern": 2380,
      "▁practice": 2381,
      "▁struck": 2382,
      "▁CÃ¦sar": 2383,
      "▁CASTLE": 2384,
      "▁BERNARDO": 2385,
      "▁Pyrrh": 2386,
      "▁Guildenstern": 2387,
      "!_\r\n": 2388,
      "-c": 2389,
      "-w": 2390,
      ":[3": 2391,
      "C.]\r\n": 2392,
      "ED": 2393,
      "E.\r\n": 2394,
      "IG": 2395,
      "IR": 2396,
      "IS": 2397,
      "LA": 2398,
      "_.\r\n": 2399,
      "aim": 2400,
      "aith": 2401,
      "afe": 2402,
      "cum": 2403,
      "eph": 2404,
      "ehind": 2405,
      "full": 2406,
      "hy": 2407,
      "iers": 2408,
      "iance": 2409,
      "ivers": 2410,
      "kn": 2411,
      "kind": 2412,
      "lish": 2413,
      "mon": 2414,
      "mand": 2415,
      "non": 2416,
      "nat": 2417,
      "nel": 2418,
      "noc": 2419,
      "oes": 2420,
      "oke": 2421,
      "por": 2422,
      "ps,": 2423,
      "s!": 2424,
      "s!\r\n": 2425,
      "safe": 2426,
      "tha": 2427,
      "ued": 2428,
      "use": 2429,
      "under": 2430,
      "vice": 2431,
      "ves,": 2432,
      "vagant": 2433,
      "wk": 2434,
      "y.]\r\n": 2435,
      "y,\r\n": 2436,
      "▁er": 2437,
      "▁et": 2438,
      "▁note": 2439,
      "▁--": 2440,
      "▁ver": 2441,
      "▁EN": 2442,
      "▁King._": 2443,
      "head": 2444,
      "▁aught": 2445,
      "▁_s": 2446,
      "▁_lo": 2447,
      "▁sin": 2448,
      "▁sing": 2449,
      "▁sol": 2450,
      "▁sil": 2451,
      "▁sens": 2452,
      "▁med": 2453,
      "▁met": 2454,
      "▁mout": 2455,
      "▁meth": 2456,
      "▁wed": 2457,
      "▁wea": 2458,
      "▁want": 2459,
      "▁wret": 2460,
      "reign": 2461,
      "rehens": 2462,
      "ises": 2463,
      "ised": 2464,
      "erm": 2465,
      "er.\r\n": 2466,
      "eral": 2467,
      "haw": 2468,
      "nds": 2469,
      "▁bed": 2470,
      "▁bro": 2471,
      "▁bos": 2472,
      "▁bound": 2473,
      "▁bitter": 2474,
      "▁I\r\n": 2475,
      "en\r\n": 2476,
      "enance": 2477,
      "enry": 2478,
      "ory,": 2479,
      "▁fish": 2480,
      "▁cle": 2481,
      "▁cent": 2482,
      "▁cir": 2483,
      "▁card": 2484,
      "▁cast": 2485,
      "▁cock": 2486,
      "esh": 2487,
      "▁dri": 2488,
      "▁done,": 2489,
      "▁dumb": 2490,
      "▁dais": 2491,
      "▁toward": 2492,
      "▁pit": 2493,
      "▁pol": 2494,
      "▁pos": 2495,
      "▁pick": 2496,
      "▁piece": 2497,
      "▁lay": 2498,
      "▁lau": 2499,
      "arn": 2500,
      "ing?": 2501,
      "▁you;": 2502,
      "▁you;\r\n": 2503,
      "▁ho,": 2504,
      "▁[P": 2505,
      "ating": 2506,
      "▁throw": 2507,
      "▁thrown": 2508,
      "▁things": 2509,
      "▁inf": 2510,
      "▁incl": 2511,
      "▁Take": 2512,
      "ames": 2513,
      "ett": 2514,
      "vey": 2515,
      "▁gu": 2516,
      "▁get": 2517,
      "▁gir": 2518,
      "▁glo": 2519,
      "▁grow": 2520,
      "omp": 2521,
      "ce,": 2522,
      "cept": 2523,
      "ceiv": 2524,
      "▁Ar": 2525,
      "▁Are": 2526,
      "▁Alex": 2527,
      "▁Alas": 2528,
      "▁Had": 2529,
      "▁Hath": 2530,
      "▁Henry": 2531,
      "▁none": 2532,
      "▁is,\r\n": 2533,
      "▁is't,": 2534,
      "imes": 2535,
      "▁it.": 2536,
      "ion's": 2537,
      "▁eas": 2538,
      "▁e'en": 2539,
      "▁happ": 2540,
      "▁having": 2541,
      "▁half": 2542,
      "▁hawk": 2543,
      "ass,": 2544,
      "▁me:": 2545,
      "▁Well": 2546,
      "▁Witt": 2547,
      "--T": 2548,
      "--_": 2549,
      "--to": 2550,
      "--the": 2551,
      "raight": 2552,
      "rable": 2553,
      "raction": 2554,
      "▁forg": 2555,
      "▁forth": 2556,
      "▁start": 2557,
      "▁straight": 2558,
      "ourish": 2559,
      "▁ref": 2560,
      "▁reck": 2561,
      "▁resol": 2562,
      "alent": 2563,
      "▁ST": 2564,
      "▁See": 2565,
      "vert": 2566,
      "▁kept": 2567,
      "▁this,": 2568,
      "▁this?\r\n": 2569,
      "▁on_": 2570,
      "▁Lord": 2571,
      "▁Lad": 2572,
      "▁L.H.": 2573,
      "▁Like": 2574,
      "▁C.": 2575,
      "▁Cl": 2576,
      "▁Cha": 2577,
      "▁Come": 2578,
      "▁Centre": 2579,
      "▁May": 2580,
      "▁Most": 2581,
      "urp": 2582,
      "uring": 2583,
      "urative": 2584,
      "ander": 2585,
      "▁wholes": 2586,
      "▁Bern": 2587,
      "▁lies": 2588,
      "▁mock": 2589,
      "▁moder": 2590,
      "est,": 2591,
      "▁[_D": 2592,
      "▁[_G": 2593,
      "▁[_P": 2594,
      "▁PR": 2595,
      "▁Pel": 2596,
      "▁Ros": 2597,
      "▁Rep": 2598,
      "▁spring": 2599,
      "▁do,": 2600,
      "▁dog": 2601,
      "▁dost": 2602,
      "▁conj": 2603,
      "▁convey": 2604,
      "▁sure": 2605,
      "▁sudd": 2606,
      "gel": 2607,
      "▁Go,": 2608,
      "▁Follow": 2609,
      "▁deg": 2610,
      "▁defe": 2611,
      "ush": 2612,
      "▁was,": 2613,
      "▁so\r\n": 2614,
      "▁soft": 2615,
      "ified": 2616,
      "[1]": 2617,
      "[12]\r\n": 2618,
      "ainst": 2619,
      "ood,": 2620,
      "ssa": 2621,
      "▁vow": 2622,
      "▁but,": 2623,
      "▁alludes": 2624,
      "'t.\r\n": 2625,
      "alls": 2626,
      "lig": 2627,
      "blem": 2628,
      "arded": 2629,
      "quest": 2630,
      "▁making": 2631,
      "▁unf": 2632,
      "▁unw": 2633,
      "▁univers": 2634,
      "ulg": 2635,
      "▁Thy": 2636,
      "▁Though": 2637,
      "ures": 2638,
      "▁hern": 2639,
      "▁uses": 2640,
      "▁rue": 2641,
      "▁rather": 2642,
      "▁That,": 2643,
      "▁That's": 2644,
      "ence.]\r\n": 2645,
      ",[8": 2646,
      "▁god": 2647,
      "▁times": 2648,
      "ounded": 2649,
      "▁them\r\n": 2650,
      "▁seems": 2651,
      "▁which,": 2652,
      "▁play,": 2653,
      "▁played": 2654,
      "ude,": 2655,
      "▁king's": 2656,
      "ER.\r\n": 2657,
      "▁ju": 2658,
      "▁(L.H.U.E": 2659,
      "aste": 2660,
      "▁would\r\n": 2661,
      "▁neg": 2662,
      "▁neither": 2663,
      "▁_and_\r\n": 2664,
      "eft": 2665,
      "▁tru": 2666,
      "▁troub": 2667,
      "▁_It": 2668,
      "▁_I'll": 2669,
      "▁says,": 2670,
      "▁IV.5": 2671,
      "▁father.\r\n": 2672,
      "▁well.\r\n": 2673,
      "▁mean,": 2674,
      "▁means,": 2675,
      "▁most\r\n": 2676,
      "▁now!": 2677,
      "▁time.]\r\n": 2678,
      "thing": 2679,
      "▁'twere": 2680,
      "▁flesh": 2681,
      "▁offence": 2682,
      "▁took": 2683,
      "▁(_Crosses": 2684,
      "ollect": 2685,
      "▁were\r\n": 2686,
      "▁night.\r\n": 2687,
      "▁own\r\n": 2688,
      "▁such\r\n": 2689,
      "▁perha": 2690,
      "▁perform": 2691,
      "aking": 2692,
      "▁sir.\r\n": 2693,
      "▁_centre": 2694,
      "▁actor": 2695,
      "▁_What": 2696,
      ".[13": 2697,
      ".C.)\r\n": 2698,
      "ways": 2699,
      "▁Ju": 2700,
      "▁Jeph": 2701,
      "▁natural": 2702,
      "▁scene": 2703,
      "▁Therefore": 2704,
      ".--S": 2705,
      "▁Ophelia,": 2706,
      "▁Ophelia!\r\n": 2707,
      "fty": 2708,
      "▁Laertes,": 2709,
      "▁breed": 2710,
      "▁accord": 2711,
      "▁account": 2712,
      "▁remain": 2713,
      "▁distem": 2714,
      "▁distracted": 2715,
      "ieu": 2716,
      "▁report": 2717,
      "▁queen,": 2718,
      "▁buried": 2719,
      "▁bestow": 2720,
      "▁Whose": 2721,
      "▁former": 2722,
      "▁ROSENCRANTZ,": 2723,
      "▁entreat": 2724,
      "▁entertain": 2725,
      "▁_follow": 2726,
      "▁carri": 2727,
      "▁signified": 2728,
      "▁_with": 2729,
      "ouchsafe": 2730,
      "▁witha": 2731,
      "▁freely": 2732,
      "▁Notes\r\n": 2733,
      "▁warrant": 2734,
      "▁cloud": 2735,
      "▁human": 2736,
      "▁haste": 2737,
      "▁15": 2738,
      "▁emblem": 2739,
      "▁majest": 2740,
      "ounter": 2741,
      "▁Marcell": 2742,
      "▁_This": 2743,
      "-day": 2744,
      "▁considered": 2745,
      "▁affli": 2746,
      "▁change": 2747,
      "ifferent": 2748,
      "▁falcon": 2749,
      "▁guilty": 2750,
      "▁Look,": 2751,
      "▁estim": 2752,
      "▁oppress": 2753,
      "▁countenance": 2754,
      "▁defence": 2755,
      "▁_beckons": 2756,
      "▁similar": 2757,
      "▁funeral": 2758,
      "▁figurative": 2759,
      "▁fortune": 2760,
      "▁charge": 2761,
      "▁utter": 2762,
      "▁modesty": 2763,
      "▁Gertrude,": 2764,
      "▁through": 2765,
      "▁[_Aside._]\r\n": 2766,
      "▁delight": 2767,
      "▁farewell": 2768,
      "▁(_Without._)": 2769,
      "FORM": 2770,
      "▁awhile": 2771,
      "▁quantity": 2772,
      "▁burial": 2773,
      "▁remembrance": 2774,
      "▁private": 2775,
      "▁CASTLE.\r\n": 2776,
      "known": 2777,
      "▁etern": 2778,
      "▁END": 2779,
      "▁bosom": 2780,
      "▁circum": 2781,
      "▁laugh": 2782,
      "▁Alas,": 2783,
      "▁Wittenberg": 2784,
      "▁wholesome": 2785,
      "▁Bernard": 2786,
      "▁(L.H.U.E.)\r\n": 2787,
      "▁troubles": 2788,
      "▁Jephtha": 2789,
      "'r": 2790,
      "**": 2791,
      "-a": 2792,
      "-b": 2793,
      "-h": 2794,
      "-enter": 2795,
      ":[7": 2796,
      ";[3": 2797,
      "?_\r\n": 2798,
      "?[6": 2799,
      "Book": 2800,
      "EC": 2801,
      "EAN": 2802,
      "S.\r\n": 2803,
      "SRI": 2804,
      "UR": 2805,
      "What": 2806,
      "Y.\r\n": 2807,
      "_.\"]\r\n": 2808,
      "ah": 2809,
      "ba": 2810,
      "bly": 2811,
      "bid": 2812,
      "bated": 2813,
      "bled": 2814,
      "can": 2815,
      "conce": 2816,
      "dge": 2817,
      "dic": 2818,
      "draw": 2819,
      "eous": 2820,
      "gainst": 2821,
      "hou": 2822,
      "ich": 2823,
      "ily": 2824,
      "ief": 2825,
      "late": 2826,
      "mp": 2827,
      "ness,": 2828,
      "oe": 2829,
      "oken": 2830,
      "part": 2831,
      "pend": 2832,
      "pare": 2833,
      "pret": 2834,
      "rust": 2835,
      "s?": 2836,
      "s_": 2837,
      "sh": 2838,
      "scri": 2839,
      "then": 2840,
      "ub": 2841,
      "uc": 2842,
      "uz": 2843,
      "uous": 2844,
      "ugg": 2845,
      "what": 2846,
      "ye": 2847,
      "zag": 2848,
      "▁3": 2849,
      "▁ed": 2850,
      "▁Queen._": 2851,
      "▁Enter": 2852,
      "▁tear": 2853,
      "▁talk": 2854,
      "▁takes": 2855,
      "▁a_": 2856,
      "▁av": 2857,
      "▁_K": 2858,
      "▁_Q": 2859,
      "▁_m": 2860,
      "▁_r": 2861,
      "▁_Ex": 2862,
      "▁_pre": 2863,
      "▁_kind": 2864,
      "ines": 2865,
      "inore": 2866,
      "oured": 2867,
      "ou'lt": 2868,
      "ourable": 2869,
      "▁sch": 2870,
      "▁sid": 2871,
      "▁send": 2872,
      "▁sick": 2873,
      "▁side": 2874,
      "▁mor": 2875,
      "▁mut": 2876,
      "▁mouse": 2877,
      "▁midd": 2878,
      "▁went": 2879,
      "▁wood": 2880,
      "▁wore": 2881,
      "▁wont": 2882,
      "▁wild": 2883,
      "▁wrong": 2884,
      "▁writ": 2885,
      "reg": 2886,
      "rer": 2887,
      "ote": 2888,
      "er.]\r\n": 2889,
      "iting": 2890,
      "ity,": 2891,
      "ities": 2892,
      "▁bo": 2893,
      "▁bur": 2894,
      "▁bul": 2895,
      "▁bare": 2896,
      "▁bold": 2897,
      "▁IV": 2898,
      "▁Im": 2899,
      "ences": 2900,
      "on,": 2901,
      "on_]": 2902,
      "onoun": 2903,
      "onzag": 2904,
      "orical": 2905,
      "▁fing": 2906,
      "▁fain": 2907,
      "▁cat": 2908,
      "▁care": 2909,
      "▁coup": 2910,
      "ester": 2911,
      "▁dress": 2912,
      "▁div": 2913,
      "▁dally": 2914,
      "▁top": 2915,
      "▁pin": 2916,
      "▁par": 2917,
      "▁pat": 2918,
      "▁prom": 2919,
      "▁pear": 2920,
      "▁press": 2921,
      "▁pite": 2922,
      "▁paint": 2923,
      "▁low": 2924,
      "▁list": 2925,
      "▁lead": 2926,
      "▁laid": 2927,
      "ary,": 2928,
      "arition": 2929,
      "ing.": 2930,
      "ingly": 2931,
      "ing._]\r\n": 2932,
      "▁you:\r\n": 2933,
      "▁hid": 2934,
      "▁hide": 2935,
      "atre": 2936,
      "▁three": 2937,
      "anc": 2938,
      "ange": 2939,
      "angu": 2940,
      "▁in.\r\n": 2941,
      "▁inst": 2942,
      "▁innoc": 2943,
      "amb": 2944,
      "vereign": 2945,
      "▁ga": 2946,
      "▁gard": 2947,
      "▁gone,": 2948,
      "oward": 2949,
      "▁All": 2950,
      "▁H.": 2951,
      "▁Hand": 2952,
      "▁beho": 2953,
      "▁being\r\n": 2954,
      "▁is't": 2955,
      "▁it:": 2956,
      "▁it;": 2957,
      "▁it,\r\n": 2958,
      "▁it?\r\n": 2959,
      "ents": 2960,
      "ution": 2961,
      "ions": 2962,
      "▁ele": 2963,
      "▁equ": 2964,
      "▁either": 2965,
      "▁evil": 2966,
      "ased.]\r\n": 2967,
      "▁me\r\n": 2968,
      "▁meant": 2969,
      "▁me:--": 2970,
      "▁_Ham._\r\n": 2971,
      "--H": 2972,
      "rapp": 2973,
      "ravagant": 2974,
      "▁(w": 2975,
      "▁forms": 2976,
      "▁stith": 2977,
      "▁stir": 2978,
      "▁stag": 2979,
      "▁stage": 2980,
      "▁stole": 2981,
      "ours": 2982,
      "▁remark": 2983,
      "▁respect": 2984,
      "▁Out": 2985,
      "▁OSRI": 2986,
      "alt": 2987,
      "ality": 2988,
      "▁Sh": 2989,
      "▁Say": 2990,
      "▁Sweet": 2991,
      "▁Since": 2992,
      "▁Saint": 2993,
      "▁The\r\n": 2994,
      "s,[3": 2995,
      "▁this,\r\n": 2996,
      "roach": 2997,
      "▁L.": 2998,
      "▁Long": 2999,
      "▁L.H.U.E": 3000,
      "▁Left": 3001,
      "ids": 3002,
      "▁C.]\r\n": 3003,
      "▁C.)": 3004,
      "▁Could": 3005,
      "▁Cont": 3006,
      "▁him.]\r\n": 3007,
      "▁whom": 3008,
      "▁Bl": 3009,
      "▁Both": 3010,
      "▁lived": 3011,
      "▁anim": 3012,
      "▁move": 3013,
      "▁mobled": 3014,
      "'d\r\n": 3015,
      "cket": 3016,
      "▁Po": 3017,
      "▁Right": 3018,
      "▁spect": 3019,
      "▁const": 3020,
      "▁convers": 3021,
      "▁consequ": 3022,
      "▁sum": 3023,
      "▁Get": 3024,
      "▁Gonzag": 3025,
      "ilst": 3026,
      "▁FRAN": 3027,
      "▁France": 3028,
      "▁deed": 3029,
      "▁decl": 3030,
      "▁demand": 3031,
      "▁I.--A": 3032,
      "▁will,": 3033,
      "▁will\r\n": 3034,
      "▁sovereign": 3035,
      "▁by_": 3036,
      "iff": 3037,
      "ific": 3038,
      "▁shalt": 3039,
      "▁shame": 3040,
      "[13": 3041,
      "▁Never": 3042,
      "ference": 3043,
      "▁var": 3044,
      "▁vent": 3045,
      "ant,": 3046,
      "antage": 3047,
      "ously": 3048,
      "▁shr": 3049,
      "▁shot": 3050,
      "▁all,\r\n": 3051,
      "▁no,": 3052,
      "quis": 3053,
      "loy": 3054,
      "▁what's": 3055,
      "▁_O,": 3056,
      "▁_Our": 3057,
      "ules": 3058,
      "▁Thus": 3059,
      "▁her,": 3060,
      "▁knew": 3061,
      "▁us.\r\n": 3062,
      "igence": 3063,
      "▁rat": 3064,
      "▁range": 3065,
      "hose": 3066,
      "▁fast": 3067,
      "▁exist": 3068,
      ",[9": 3069,
      "▁go,": 3070,
      "▁gold": 3071,
      "▁goblet": 3072,
      "▁_Let": 3073,
      "▁_Like": 3074,
      "▁them,": 3075,
      "▁season": 3076,
      "inks": 3077,
      "▁What's": 3078,
      "▁man,": 3079,
      "▁man\r\n": 3080,
      "▁manners": 3081,
      "▁there's": 3082,
      "▁there?\r\n": 3083,
      "▁kingdom": 3084,
      "▁jig": 3085,
      "▁_An": 3086,
      "▁come;": 3087,
      "ance,": 3088,
      "▁among": 3089,
      "▁amaz": 3090,
      "▁poss": 3091,
      "▁arrant": 3092,
      "▁_Make": 3093,
      "▁blast": 3094,
      "▁black": 3095,
      "▁need": 3096,
      "▁ne'er": 3097,
      "▁here\r\n": 3098,
      "efore": 3099,
      "▁truth": 3100,
      "▁lets": 3101,
      "▁quill": 3102,
      "ments": 3103,
      "▁speak!\r\n": 3104,
      "cial": 3105,
      "▁gracious": 3106,
      "▁imper": 3107,
      "▁out,": 3108,
      "▁pronoun": 3109,
      "▁pregnant": 3110,
      "▁Hecu": 3111,
      "LES": 3112,
      "▁_Laer._\r\n": 3113,
      "pel": 3114,
      "▁flow": 3115,
      "▁flatter": 3116,
      "▁flower": 3117,
      "▁flowers": 3118,
      "▁chast": 3119,
      "▁too\r\n": 3120,
      "▁(_S": 3121,
      "▁shoulder": 3122,
      "▁word,": 3123,
      "▁word\r\n": 3124,
      "▁thee.\r\n": 3125,
      "▁\"_": 3126,
      "▁appare": 3127,
      "▁apprehens": 3128,
      "▁absol": 3129,
      "▁'F": 3130,
      "▁peril": 3131,
      "▁again,": 3132,
      "aken": 3133,
      "▁heav": 3134,
      "▁sir;": 3135,
      "▁object": 3136,
      "ness;": 3137,
      "ness.]\r\n": 3138,
      "▁alread": 3139,
      "▁soul,": 3140,
      "▁who\r\n": 3141,
      "▁_Wh": 3142,
      "▁mother,": 3143,
      "▁mother.\r\n": 3144,
      "▁mother,\r\n": 3145,
      "▁called": 3146,
      ".[10": 3147,
      ".[12": 3148,
      "els": 3149,
      "atch'd": 3150,
      "▁HAMLET'S": 3151,
      "▁Without": 3152,
      "[42]": 3153,
      "▁KEAN": 3154,
      "▁Qu": 3155,
      "▁passage": 3156,
      "▁contri": 3157,
      "ARLES": 3158,
      "▁Even": 3159,
      "▁Els": 3160,
      "▁life\r\n": 3161,
      "▁rich": 3162,
      "▁ridic": 3163,
      "▁old\r\n": 3164,
      "▁purs": 3165,
      "▁Still": 3166,
      "▁Stage;": 3167,
      "less,": 3168,
      "ings_,]": 3169,
      "ings._]\r\n": 3170,
      "▁hear.\r\n": 3171,
      "▁hands": 3172,
      "▁heaven,": 3173,
      ".--M": 3174,
      "▁marry,": 3175,
      "▁grass": 3176,
      "▁confess": 3177,
      "▁confession": 3178,
      "▁disclo": 3179,
      "▁twice": 3180,
      "▁death\r\n": 3181,
      "▁grave._)\r\n": 3182,
      "▁grave-mak": 3183,
      "▁impart": 3184,
      "▁earth,": 3185,
      "acher": 3186,
      "▁rap": 3187,
      "ield": 3188,
      "▁rogue": 3189,
      "▁royal": 3190,
      "▁answer,": 3191,
      "▁Laertes,\r\n": 3192,
      "serve": 3193,
      "▁skin": 3194,
      "▁skill": 3195,
      "▁lady,": 3196,
      "▁intell": 3197,
      "▁[_Exeunt_,": 3198,
      "▁drink,": 3199,
      "▁build": 3200,
      "▁between\r\n": 3201,
      "▁Horatio,\r\n": 3202,
      "▁&c.]\r\n": 3203,
      "▁slain": 3204,
      "▁slave": 3205,
      "▁sometimes": 3206,
      "▁carried": 3207,
      "▁ears": 3208,
      "ggats": 3209,
      "rantz": 3210,
      "▁treasure": 3211,
      "▁_No": 3212,
      "▁closet": 3213,
      "▁indeed.\r\n": 3214,
      "▁stands": 3215,
      "▁vile": 3216,
      "▁few": 3217,
      "▁humbly": 3218,
      "▁assume": 3219,
      "umpets": 3220,
      "hard": 3221,
      "▁face,": 3222,
      "▁common\r\n": 3223,
      "▁purpose,": 3224,
      "ceded": 3225,
      "▁trick": 3226,
      "▁monument": 3227,
      "▁die,": 3228,
      "▁LAERTES,": 3229,
      "▁Marry,": 3230,
      "▁Now,": 3231,
      "▁brother's": 3232,
      "▁liege": 3233,
      "▁R.C.]\r\n": 3234,
      "▁visage": 3235,
      "▁proverb,": 3236,
      "▁service": 3237,
      "▁gallows": 3238,
      "▁welcome,": 3239,
      "▁Ghost,": 3240,
      "▁faithful": 3241,
      "▁imports": 3242,
      "▁pict": 3243,
      "▁pipe": 3244,
      "▁stronger": 3245,
      "▁record": 3246,
      "▁attent": 3247,
      "▁indifferent": 3248,
      "▁justly": 3249,
      "▁\"The": 3250,
      "Ã©r": 3251,
      "▁idle": 3252,
      "▁satyr": 3253,
      "▁simp": 3254,
      "encrantz": 3255,
      "▁foils": 3256,
      "▁curs": 3257,
      "▁regard": 3258,
      "▁Madam,": 3259,
      "▁[_Sings._]\r\n": 3260,
      "▁argument": 3261,
      "▁'twas": 3262,
      "▁age,": 3263,
      "▁whether": 3264,
      "▁thrice": 3265,
      "▁history": 3266,
      "▁address": 3267,
      "▁marriage": 3268,
      "▁churche": 3269,
      "▁Attendants,": 3270,
      "ronic": 3271,
      "▁_do": 3272,
      "▁music": 3273,
      "▁mistress": 3274,
      "▁frequently": 3275,
      "▁chief": 3276,
      "▁[HORATIO": 3277,
      "▁ease,": 3278,
      "▁Priam": 3279,
      "▁suffer": 3280,
      "▁_Re-enter": 3281,
      "▁[_They": 3282,
      "▁corruption": 3283,
      "▁liberty,": 3284,
      "▁horrible": 3285,
      "▁original": 3286,
      "appoint": 3287,
      "cstasy": 3288,
      "▁syll": 3289,
      "▁morning": 3290,
      "▁difference": 3291,
      "▁CHARLES": 3292,
      "▁succession": 3293,
      "▁unpro": 3294,
      "▁exercise": 3295,
      "▁property": 3296,
      "▁imagination": 3297,
      "▁(_Behind": 3298,
      "▁employ": 3299,
      "▁people": 3300,
      "▁ignorance": 3301,
      "fully": 3302,
      "natural": 3303,
      "▁silence": 3304,
      "▁mouth": 3305,
      "▁Arm": 3306,
      "▁Ladies,": 3307,
      "▁Clown": 3308,
      "▁Rosencrantz": 3309,
      "▁sudden": 3310,
      "▁_centre._)\r\n": 3311,
      "▁Marcellus": 3312,
      "▁affliction": 3313,
      "▁falconers": 3314,
      "▁figuratively": 3315,
      "▁circumst": 3316,
      "▁Bernardo": 3317,
      "▁_preceded": 3318,
      "▁piteous": 3319,
      "anguage": 3320,
      "▁OSRIC": 3321,
      "▁spectat": 3322,
      "▁Gonzago": 3323,
      "▁Hecuba": 3324,
      "▁absolute": 3325,
      "▁Elsinore": 3326,
      "▁ridicule": 3327,
      "▁_Re-enter_": 3328,
      "![2": 3329,
      "\"_": 3330,
      "'T": 3331,
      "),\r\n": 3332,
      "-g": 3333,
      "-l": 3334,
      "-quest": 3335,
      "1,": 3336,
      "20": 3337,
      "59": 3338,
      "8:\r\n": 3339,
      "859": 3340,
      ":_": 3341,
      ":_\r\n": 3342,
      ":[4": 3343,
      ":_]\r\n": 3344,
      ":[11": 3345,
      ";_\r\n": 3346,
      ";[7": 3347,
      ";[11": 3348,
      "AL": 3349,
      "As": 3350,
      "ALON": 3351,
      "CO": 3352,
      "CIS": 3353,
      "E.]\r\n": 3354,
      "HT.\r\n": 3355,
      "II": 3356,
      "LAT": 3357,
      "S,": 3358,
      "While": 3359,
      "_;\r\n": 3360,
      "aff": 3361,
      "avi": 3362,
      "ben": 3363,
      "bes": 3364,
      "bble": 3365,
      "bell": 3366,
      "bles": 3367,
      "cor": 3368,
      "cher": 3369,
      "cock": 3370,
      "course": 3371,
      "chard": 3372,
      "dig": 3373,
      "eb": 3374,
      "ean": 3375,
      "e.]\r\n": 3376,
      "ely": 3377,
      "e'er": 3378,
      "eason": 3379,
      "echo": 3380,
      "ford": 3381,
      "fter": 3382,
      "face": 3383,
      "fume": 3384,
      "fety": 3385,
      "ging": 3386,
      "gra": 3387,
      "gers": 3388,
      "gth": 3389,
      "gthen": 3390,
      "iam": 3391,
      "iven": 3392,
      "ipp": 3393,
      "iate": 3394,
      "iable": 3395,
      "ks": 3396,
      "len": 3397,
      "lan": 3398,
      "l,\r\n": 3399,
      "lve": 3400,
      "lourish": 3401,
      "mble": 3402,
      "mong": 3403,
      "mber": 3404,
      "mitt": 3405,
      "miss": 3406,
      "ne": 3407,
      "ny": 3408,
      "ning": 3409,
      "oon": 3410,
      "oid": 3411,
      "oph": 3412,
      "p,": 3413,
      "pit": 3414,
      "port": 3415,
      "post": 3416,
      "que": 3417,
      "ror": 3418,
      "rut": 3419,
      "rous": 3420,
      "rink": 3421,
      "rame": 3422,
      "rated": 3423,
      "rument": 3424,
      "rumpet": 3425,
      "rumpets": 3426,
      "sing": 3427,
      "sri": 3428,
      "s_,": 3429,
      "s;\r\n": 3430,
      "s:\r\n": 3431,
      "s_.]\r\n": 3432,
      "sift": 3433,
      "t\r\n": 3434,
      "ton": 3435,
      "tand": 3436,
      "titude": 3437,
      "ux": 3438,
      "ues": 3439,
      "val": 3440,
      "ving\r\n": 3441,
      "wo": 3442,
      "ww": 3443,
      "wear": 3444,
      "wise": 3445,
      "xe": 3446,
      "xford": 3447,
      "y!": 3448,
      "y;": 3449,
      "ym": 3450,
      "you": 3451,
      "yper": 3452,
      "▁{": 3453,
      "▁ven": 3454,
      "▁row": 3455,
      "▁ought": 3456,
      "▁vers": 3457,
      "▁venge": 3458,
      "▁ty": 3459,
      "▁tin": 3460,
      "▁tor": 3461,
      "▁ted": 3462,
      "▁tent": 3463,
      "▁tea": 3464,
      "▁tro": 3465,
      "▁tard": 3466,
      "▁twe": 3467,
      "▁tale": 3468,
      "hee,": 3469,
      "hether": 3470,
      "▁ac": 3471,
      "▁a-d": 3472,
      "▁axe": 3473,
      "▁_\"": 3474,
      "▁_J": 3475,
      "▁_at": 3476,
      "▁_se": 3477,
      "▁_th": 3478,
      "▁_son": 3479,
      "▁_of": 3480,
      "▁_'T": 3481,
      "ining": 3482,
      "ined": 3483,
      "▁sur": 3484,
      "▁sits": 3485,
      "▁sigh": 3486,
      "▁mir": 3487,
      "▁match": 3488,
      "▁mixt": 3489,
      "▁wan": 3490,
      "▁wom": 3491,
      "▁wine": 3492,
      "▁wag": 3493,
      "▁wish": 3494,
      "▁wick": 3495,
      "▁wounded": 3496,
      "▁waste": 3497,
      "▁wou'lt": 3498,
      "re,\r\n": 3499,
      "ream": 3500,
      "reet": 3501,
      "rect": 3502,
      "reation": 3503,
      "recy": 3504,
      "▁ow": 3505,
      "▁oath": 3506,
      "isc": 3507,
      "ise,": 3508,
      "isure": 3509,
      "isons": 3510,
      "erg": 3511,
      "erve": 3512,
      "ery,": 3513,
      "er._]": 3514,
      "erman": 3515,
      "ndar": 3516,
      "nded": 3517,
      "._\"": 3518,
      "ites": 3519,
      "ited": 3520,
      "itive": 3521,
      "ities,": 3522,
      "▁ben": 3523,
      "▁bow": 3524,
      "▁ble": 3525,
      "▁bad": 3526,
      "▁bout": 3527,
      "▁ball": 3528,
      "▁bak": 3529,
      "▁burn": 3530,
      "▁brief": 3531,
      "▁base": 3532,
      "▁borrow": 3533,
      "▁batt": 3534,
      "ennel": 3535,
      "ength": 3536,
      "on's": 3537,
      "orc": 3538,
      "orous": 3539,
      "orick": 3540,
      "▁fi": 3541,
      "▁fin": 3542,
      "▁fam": 3543,
      "▁fet": 3544,
      "▁foot": 3545,
      "▁footnote": 3546,
      "▁fly": 3547,
      "▁fill": 3548,
      "▁fil": 3549,
      "▁fight": 3550,
      "▁fant": 3551,
      "▁fate": 3552,
      "▁fru": 3553,
      "▁front": 3554,
      "▁fancy": 3555,
      "▁foe": 3556,
      "▁ce": 3557,
      "▁che": 3558,
      "▁cot": 3559,
      "▁cra": 3560,
      "▁cro": 3561,
      "▁cart": 3562,
      "▁creat": 3563,
      "▁catch": 3564,
      "▁cost": 3565,
      "▁cop": 3566,
      "▁caut": 3567,
      "▁clay": 3568,
      "▁cale": 3569,
      "▁cond": 3570,
      "▁cere": 3571,
      "▁certain": 3572,
      "▁cousin": 3573,
      "▁coward": 3574,
      "▁creation": 3575,
      "esp": 3576,
      "▁der": 3577,
      "▁dig": 3578,
      "▁dag": 3579,
      "▁dare": 3580,
      "▁day,": 3581,
      "▁die": 3582,
      "▁dwell": 3583,
      "▁to.\r\n": 3584,
      "▁to't,": 3585,
      "▁pot": 3586,
      "▁pure": 3587,
      "▁pate": 3588,
      "▁port": 3589,
      "▁pity": 3590,
      "▁pious": 3591,
      "▁pause": 3592,
      "▁pupp": 3593,
      "▁powers": 3594,
      "▁lest": 3595,
      "▁lend": 3596,
      "▁line": 3597,
      "▁loose": 3598,
      "▁language": 3599,
      "▁length": 3600,
      "aries": 3601,
      "ingu": 3602,
      "ing.\r\n": 3603,
      "ing._)\r\n": 3604,
      "▁you.]\r\n": 3605,
      "▁you!\r\n": 3606,
      "▁you._]": 3607,
      "▁hung": 3608,
      "▁[R": 3609,
      "atis": 3610,
      "aten": 3611,
      "ates": 3612,
      "ate,": 3613,
      "ed;": 3614,
      "edy": 3615,
      "ed--": 3616,
      "▁thro": 3617,
      "▁thing\r\n": 3618,
      "anel": 3619,
      "▁in't": 3620,
      "▁in't,": 3621,
      "▁inex": 3622,
      "▁Tell": 3623,
      "▁Term": 3624,
      "ame,": 3625,
      "amity": 3626,
      "▁gather": 3627,
      "▁gross": 3628,
      "▁grows": 3629,
      "▁gift": 3630,
      "▁giving": 3631,
      "▁gives": 3632,
      "oms": 3633,
      "omin": 3634,
      "omes": 3635,
      "▁hen": 3636,
      "▁he\r\n": 3637,
      "▁heat": 3638,
      "▁held": 3639,
      "▁hera": 3640,
      "seen": 3641,
      "se_.": 3642,
      "▁_Heaven": 3643,
      "▁Ab": 3644,
      "▁App": 3645,
      "▁Ah,": 3646,
      "▁Against": 3647,
      "▁Ha": 3648,
      "▁Hence": 3649,
      "▁Hyp": 3650,
      "▁be,\r\n": 3651,
      "▁beck": 3652,
      "▁beating": 3653,
      "▁nort": 3654,
      "▁nay,": 3655,
      "lease": 3656,
      "ent\r\n": 3657,
      "ent.]\r\n": 3658,
      "utenberg": 3659,
      "ion;": 3660,
      "ion.]\r\n": 3661,
      "▁elo": 3662,
      "▁elect": 3663,
      "▁evid": 3664,
      "▁epit": 3665,
      "chief": 3666,
      "▁und": 3667,
      "▁mere": 3668,
      "▁me:\r\n": 3669,
      "▁melan": 3670,
      "▁Whether": 3671,
      "▁_Hamlet": 3672,
      "----": 3673,
      "----\r\n": 3674,
      "irm": 3675,
      "irous": 3676,
      "irgin": 3677,
      "▁with.]\r\n": 3678,
      "▁withdraw": 3679,
      "▁(as": 3680,
      "▁(As": 3681,
      "ly._]": 3682,
      "lymp": 3683,
      "▁for.\r\n": 3684,
      "▁force": 3685,
      "I.,": 3686,
      "▁stea": 3687,
      "▁stood": 3688,
      "▁step": 3689,
      "▁stock": 3690,
      "▁stuck": 3691,
      "▁stoup": 3692,
      "▁strew": 3693,
      "▁steal": 3694,
      "ourt": 3695,
      "▁reven": 3696,
      "▁reli": 3697,
      "▁reform": 3698,
      "▁reserve": 3699,
      "▁O'er": 3700,
      "▁Osri": 3701,
      "▁Oxford": 3702,
      "▁Olymp": 3703,
      "al.]\r\n": 3704,
      "▁So,": 3705,
      "▁Sax": 3706,
      "▁SEC": 3707,
      "▁Swear": 3708,
      "▁weigh": 3709,
      "▁key": 3710,
      "▁kiss": 3711,
      "s,[4": 3712,
      "▁this.\r\n": 3713,
      "adem": 3714,
      "rove": 3715,
      "▁Leave": 3716,
      "idnight": 3717,
      "▁ask": 3718,
      "▁Con": 3719,
      "▁Chan": 3720,
      "▁Char": 3721,
      "▁Conf": 3722,
      "▁Mus": 3723,
      "▁Mah": 3724,
      "ter's": 3725,
      "▁him.": 3726,
      "▁him,\r\n": 3727,
      "▁him:\r\n": 3728,
      "▁white": 3729,
      "e._\r\n": 3730,
      "▁BRA": 3731,
      "▁Before": 3732,
      "▁liest": 3733,
      "▁liqu": 3734,
      "▁living": 3735,
      "▁lord;\r\n": 3736,
      "▁ant": 3737,
      "▁anon": 3738,
      "▁antic": 3739,
      "▁angel": 3740,
      "▁moon": 3741,
      "▁orb": 3742,
      "▁ord": 3743,
      "ested": 3744,
      "▁[_L": 3745,
      "▁have,": 3746,
      "▁Part": 3747,
      "▁Peace": 3748,
      "▁PLAT": 3749,
      "eem": 3750,
      "▁RE": 3751,
      "▁R.H": 3752,
      "▁R.)\r\n": 3753,
      "▁sphere": 3754,
      "▁sport": 3755,
      "▁spies": 3756,
      "▁spade": 3757,
      "▁door": 3758,
      "▁consent": 3759,
      "▁convert": 3760,
      "▁sult": 3761,
      "▁Glo": 3762,
      "▁GRA": 3763,
      "iling": 3764,
      "ilos": 3765,
      "▁F.": 3766,
      "▁Fort": 3767,
      "▁FIR": 3768,
      "▁deliver": 3769,
      "uses": 3770,
      "uspic": 3771,
      "▁so:": 3772,
      "▁soon": 3773,
      "▁sole": 3774,
      "▁sold": 3775,
      "▁so;\r\n": 3776,
      "iful": 3777,
      "▁shap": 3778,
      "▁shape": 3779,
      "▁thou,": 3780,
      "[15]": 3781,
      "ained": 3782,
      "▁NIG": 3783,
      "▁vac": 3784,
      "▁vulg": 3785,
      "▁vouchsafe": 3786,
      "▁lover": 3787,
      "▁loved": 3788,
      "▁loving": 3789,
      "▁lov'd": 3790,
      "▁lofty": 3791,
      "▁Doth": 3792,
      "▁ship": 3793,
      "'tis": 3794,
      "allecho": 3795,
      "▁shall\r\n": 3796,
      "▁shall,\r\n": 3797,
      "live": 3798,
      "lius": 3799,
      "▁nose": 3800,
      "▁noise": 3801,
      "quite": 3802,
      "▁mast": 3803,
      "▁magg": 3804,
      "sel.\r\n": 3805,
      "selves,": 3806,
      "▁unction": 3807,
      "▁unman": 3808,
      "▁unpre": 3809,
      "▁unknown": 3810,
      "▁unnatural": 3811,
      "▁unseen": 3812,
      "ustious": 3813,
      "ers.]\r\n": 3814,
      "▁pluck": 3815,
      "▁what,": 3816,
      "▁what\r\n": 3817,
      "▁Hamlet;": 3818,
      "▁Hamlet?\r\n": 3819,
      "▁Hamlet:\r\n": 3820,
      "▁Hamlet!\r\n": 3821,
      "▁_Or": 3822,
      "▁_O'er": 3823,
      "ician": 3824,
      "▁Thought": 3825,
      "ure.]\r\n": 3826,
      "▁knee": 3827,
      "▁us.]\r\n": 3828,
      "▁us,\r\n": 3829,
      "▁used\r\n": 3830,
      "▁(R.H.)": 3831,
      "▁rash": 3832,
      "▁rude": 3833,
      "▁Together": 3834,
      "▁exact": 3835,
      "▁except": 3836,
      "ence,\r\n": 3837,
      "endo": 3838,
      "ended": 3839,
      "▁II.--A": 3840,
      "▁prove": 3841,
      "▁procl": 3842,
      "▁proceed": 3843,
      "▁prodig": 3844,
      "▁_Hor._\r\n": 3845,
      "▁ourselves": 3846,
      "▁V.7": 3847,
      "▁go;": 3848,
      "▁them.": 3849,
      "▁them;": 3850,
      "▁sep": 3851,
      "▁more,": 3852,
      "▁more\r\n": 3853,
      "▁Yorick": 3854,
      "▁man.\r\n": 3855,
      "▁mad,": 3856,
      "▁madam": 3857,
      "▁madam,": 3858,
      "▁there.\r\n": 3859,
      "▁plays": 3860,
      "▁play?\r\n": 3861,
      "▁play._]\r\n": 3862,
      "▁king.\r\n": 3863,
      "▁king.]\r\n": 3864,
      "▁king,\r\n": 3865,
      "▁know\r\n": 3866,
      "ages,": 3867,
      "▁canst": 3868,
      "▁cannon": 3869,
      "▁_At": 3870,
      "▁come.\r\n": 3871,
      "▁come,\r\n": 3872,
      "▁come;\r\n": 3873,
      "ast,": 3874,
      "asting": 3875,
      "astic": 3876,
      "▁amb": 3877,
      "ies;": 3878,
      "▁It\r\n": 3879,
      "empor": 3880,
      "▁_More": 3881,
      "▁blank": 3882,
      "▁blaz": 3883,
      "▁necess": 3884,
      "▁here,\r\n": 3885,
      "▁here's": 3886,
      "▁father,": 3887,
      "▁father\r\n": 3888,
      "▁let's": 3889,
      "▁III.14": 3890,
      "▁they\r\n": 3891,
      "▁means\r\n": 3892,
      "▁speak.\r\n": 3893,
      "ishment": 3894,
      "▁hate": 3895,
      "▁impress": 3896,
      "▁immed": 3897,
      "▁out.\r\n": 3898,
      "▁print": 3899,
      "▁proud": 3900,
      "▁proof": 3901,
      "▁time,\r\n": 3902,
      "▁_Be": 3903,
      "▁pretend": 3904,
      "▁precious": 3905,
      "▁prevent": 3906,
      "▁prepare": 3907,
      "▁In\r\n": 3908,
      "▁Into": 3909,
      "▁_They": 3910,
      "▁(R.)\r\n": 3911,
      "▁make\r\n": 3912,
      "pered": 3913,
      "▁flam": 3914,
      "▁chari": 3915,
      "▁offer": 3916,
      "▁offic": 3917,
      "▁should\r\n": 3918,
      "olly": 3919,
      "▁words,": 3920,
      "▁didst": 3921,
      "▁did;\r\n": 3922,
      "▁\"I": 3923,
      "▁\"a": 3924,
      "▁applic": 3925,
      "▁apparition": 3926,
      "▁abo": 3927,
      "▁sheet": 3928,
      "ity.]\r\n": 3929,
      "own-a": 3930,
      "▁night,\r\n": 3931,
      "red_": 3932,
      "▁perchan": 3933,
      "▁again.\r\n": 3934,
      "▁commend": 3935,
      "[21]": 3936,
      "aked": 3937,
      "itting": 3938,
      "▁heavi": 3939,
      "▁You\r\n": 3940,
      "▁sables": 3941,
      "▁safety": 3942,
      "▁sir:": 3943,
      "▁obsequ": 3944,
      "TION": 3945,
      "▁ens": 3946,
      "▁enact": 3947,
      "▁_cousin": 3948,
      "▁honourable": 3949,
      "▁along": 3950,
      "▁also": 3951,
      "▁always": 3952,
      "▁altitude": 3953,
      "▁act,": 3954,
      "▁act,\r\n": 3955,
      "retion": 3956,
      "ry.]\r\n": 3957,
      "▁_We": 3958,
      "▁_Which": 3959,
      "▁calls": 3960,
      "▁desk": 3961,
      "▁desp": 3962,
      "▁design": 3963,
      "▁desirous": 3964,
      ".[14]\r\n": 3965,
      "ived": 3966,
      "▁whence": 3967,
      "▁HAMLET,\r\n": 3968,
      "▁Within": 3969,
      "▁Shakespeare,": 3970,
      "[4]": 3971,
      "▁_From": 3972,
      "▁passing": 3973,
      "▁passion,": 3974,
      "▁content": 3975,
      "▁contract": 3976,
      "▁contempor": 3977,
      "▁EV": 3978,
      "▁E'en": 3979,
      "▁part,": 3980,
      "▁life,\r\n": 3981,
      "▁scorn": 3982,
      "▁sconce": 3983,
      "rengthen": 3984,
      "▁heart,": 3985,
      "▁heart,\r\n": 3986,
      "▁Stay": 3987,
      "▁anything": 3988,
      "derer": 3989,
      "ruct": 3990,
      "▁o'er-": 3991,
      "▁dead.\r\n": 3992,
      "▁however": 3993,
      "▁heaven\r\n": 3994,
      ",[11": 3995,
      "[55]": 3996,
      "ables": 3997,
      "▁march": 3998,
      "▁marry": 3999
    },
    "merges": [
      [
        "\r",
        "\n"
      ],
      [
        "▁",
        "t"
      ],
      [
        "h",
        "e"
      ],
      [
        "▁",
        "a"
      ],
      [
        "▁",
        "_"
      ],
      [
        "▁",
        "\r\n"
      ],
      [
        "i",
        "n"
      ],
      [
        "o",
        "u"
      ],
      [
        "▁",
        "s"
      ],
      [
        "▁",
        "m"
      ],
      [
        "▁",
        "w"
      ],
      [
        "r",
        "e"
      ],
      [
        "▁t",
        "he"
      ],
      [
        "o",
        "t"
      ],
      [
        "▁",
        "o"
      ],
      [
        "i",
        "s"
      ],
      [
        "e",
        "r"
      ],
      [
        "h",
        "a"
      ],
      [
        "n",
        "d"
      ],
      [
        ".",
        "_"
      ],
      [
        "i",
        "t"
      ],
      [
        "▁",
        "b"
      ],
      [
        "▁",
        "I"
      ],
      [
        "e",
        "n"
      ],
      [
        "o",
        "n"
      ],
      [
        "o",
        "r"
      ],
      [
        "▁",
        "f"
      ],
      [
        "l",
        "l"
      ],
      [
        "]",
        "\r\n"
      ],
      [
        "▁",
        "c"
      ],
      [
        "e",
        "s"
      ],
      [
        "▁o",
        "f"
      ],
      [
        "▁",
        "d"
      ],
      [
        "n",
        "ot"
      ],
      [
        "▁t",
        "o"
      ],
      [
        "▁",
        "p"
      ],
      [
        "▁",
        "l"
      ],
      [
        "▁",
        "y"
      ],
      [
        ".",
        "\r\n"
      ],
      [
        "a",
        "r"
      ],
      [
        "in",
        "g"
      ],
      [
        "▁y",
        "ou"
      ],
      [
        "▁",
        "h"
      ],
      [
        "▁",
        "["
      ],
      [
        "a",
        "t"
      ],
      [
        "e",
        "d"
      ],
      [
        "▁t",
        "h"
      ],
      [
        "▁a",
        "nd"
      ],
      [
        "a",
        "n"
      ],
      [
        "ha",
        "t"
      ],
      [
        "▁",
        "in"
      ],
      [
        ".",
        "]\r\n"
      ],
      [
        ",",
        "\r\n"
      ],
      [
        "s",
        "t"
      ],
      [
        "▁",
        "T"
      ],
      [
        "a",
        "m"
      ],
      [
        "e",
        "t"
      ],
      [
        "v",
        "e"
      ],
      [
        "▁",
        "g"
      ],
      [
        "o",
        "w"
      ],
      [
        "o",
        "m"
      ],
      [
        "o",
        "ot"
      ],
      [
        "not",
        "e"
      ],
      [
        "▁",
        "he"
      ],
      [
        "oot",
        "note"
      ],
      [
        "F",
        "ootnote"
      ],
      [
        "▁[",
        "Footnote"
      ],
      [
        "s",
        "e"
      ],
      [
        "c",
        "e"
      ],
      [
        "▁_",
        "H"
      ],
      [
        "▁",
        "A"
      ],
      [
        "▁",
        "H"
      ],
      [
        "a",
        "y"
      ],
      [
        "▁b",
        "e"
      ],
      [
        "▁",
        "n"
      ],
      [
        "▁",
        "is"
      ],
      [
        "i",
        "m"
      ],
      [
        "l",
        "e"
      ],
      [
        "▁m",
        "y"
      ],
      [
        "▁",
        "it"
      ],
      [
        "en",
        "t"
      ],
      [
        "u",
        "t"
      ],
      [
        "i",
        "on"
      ],
      [
        "▁",
        "e"
      ],
      [
        "it",
        "h"
      ],
      [
        "c",
        "h"
      ],
      [
        "▁",
        "ha"
      ],
      [
        "▁",
        "u"
      ],
      [
        "a",
        "s"
      ],
      [
        "▁m",
        "e"
      ],
      [
        "▁",
        "W"
      ],
      [
        "l",
        "d"
      ],
      [
        "g",
        "h"
      ],
      [
        "▁_H",
        "am"
      ],
      [
        "▁_Ham",
        "._"
      ],
      [
        "-",
        "-"
      ],
      [
        "▁",
        "not"
      ],
      [
        "i",
        "r"
      ],
      [
        "e",
        "a"
      ],
      [
        "r",
        "a"
      ],
      [
        "▁h",
        "is"
      ],
      [
        "▁t",
        "hat"
      ],
      [
        "c",
        "t"
      ],
      [
        "or",
        "d"
      ],
      [
        "▁w",
        "ith"
      ],
      [
        "'",
        "s"
      ],
      [
        "▁",
        "("
      ],
      [
        "l",
        "y"
      ],
      [
        "▁f",
        "or"
      ],
      [
        "▁you",
        "r"
      ],
      [
        "r",
        "i"
      ],
      [
        "i",
        "ll"
      ],
      [
        "I",
        "."
      ],
      [
        "gh",
        "t"
      ],
      [
        "▁s",
        "t"
      ],
      [
        "_",
        ","
      ],
      [
        "o",
        "o"
      ],
      [
        "ou",
        "r"
      ],
      [
        "▁",
        "re"
      ],
      [
        "he",
        "r"
      ],
      [
        "▁",
        "O"
      ],
      [
        "a",
        "l"
      ],
      [
        "?",
        "\r\n"
      ],
      [
        "▁",
        "S"
      ],
      [
        "▁w",
        "e"
      ],
      [
        "▁T",
        "he"
      ],
      [
        "v",
        "er"
      ],
      [
        "▁",
        "k"
      ],
      [
        "s",
        ","
      ],
      [
        "▁th",
        "is"
      ],
      [
        "a",
        "d"
      ],
      [
        "r",
        "o"
      ],
      [
        "▁o",
        "n"
      ],
      [
        "▁",
        "L"
      ],
      [
        ".",
        ")"
      ],
      [
        "i",
        "d"
      ],
      [
        "▁a",
        "s"
      ],
      [
        "▁",
        "C"
      ],
      [
        "▁",
        "M"
      ],
      [
        "t",
        "er"
      ],
      [
        "u",
        "r"
      ],
      [
        "▁h",
        "im"
      ],
      [
        "a",
        "nd"
      ],
      [
        "k",
        "e"
      ],
      [
        "▁w",
        "h"
      ],
      [
        ";",
        "\r\n"
      ],
      [
        "_",
        "]"
      ],
      [
        "e",
        "._"
      ],
      [
        "▁",
        "B"
      ],
      [
        "▁l",
        "i"
      ],
      [
        "▁l",
        "ord"
      ],
      [
        "u",
        "e"
      ],
      [
        "▁a",
        "n"
      ],
      [
        "om",
        "e"
      ],
      [
        "▁m",
        "o"
      ],
      [
        "o",
        "l"
      ],
      [
        "▁o",
        "r"
      ],
      [
        "es",
        "t"
      ],
      [
        "'",
        "d"
      ],
      [
        "▁A",
        "nd"
      ],
      [
        "▁I",
        "I"
      ],
      [
        "▁[",
        "_"
      ],
      [
        "c",
        "k"
      ],
      [
        "▁ha",
        "ve"
      ],
      [
        "▁",
        "P"
      ],
      [
        "e",
        "e"
      ],
      [
        "ou",
        "ld"
      ],
      [
        "▁II",
        "I."
      ],
      [
        "▁",
        "R"
      ],
      [
        "▁s",
        "p"
      ],
      [
        "▁d",
        "o"
      ],
      [
        "▁c",
        "on"
      ],
      [
        "▁s",
        "u"
      ],
      [
        "g",
        "e"
      ],
      [
        "▁",
        "G"
      ],
      [
        "i",
        "l"
      ],
      [
        "▁",
        "F"
      ],
      [
        "y",
        ","
      ],
      [
        "▁_",
        "i"
      ],
      [
        "▁d",
        "e"
      ],
      [
        "_,",
        "]"
      ],
      [
        ".",
        "e._"
      ],
      [
        "V",
        "."
      ],
      [
        "u",
        "s"
      ],
      [
        "▁I",
        "."
      ],
      [
        "▁w",
        "ill"
      ],
      [
        "▁_i",
        ".e._"
      ],
      [
        "▁w",
        "as"
      ],
      [
        "es",
        "s"
      ],
      [
        "▁s",
        "o"
      ],
      [
        "▁b",
        "y"
      ],
      [
        "i",
        "f"
      ],
      [
        "▁s",
        "ha"
      ],
      [
        "▁th",
        "ou"
      ],
      [
        "[",
        "1"
      ],
      [
        "a",
        "in"
      ],
      [
        "v",
        "en"
      ],
      [
        ":",
        "\r\n"
      ],
      [
        "oo",
        "d"
      ],
      [
        "i",
        "ght"
      ],
      [
        "▁_i.e._",
        ","
      ],
      [
        "r",
        "om"
      ],
      [
        "▁",
        "N"
      ],
      [
        "ou",
        "t"
      ],
      [
        ".",
        "H"
      ],
      [
        "s",
        "s"
      ],
      [
        "▁a",
        "re"
      ],
      [
        "f",
        "e"
      ],
      [
        "l",
        "et"
      ],
      [
        "p",
        "p"
      ],
      [
        "▁",
        "v"
      ],
      [
        "▁l",
        "o"
      ],
      [
        "ar",
        "t"
      ],
      [
        "an",
        "t"
      ],
      [
        "!",
        "\r\n"
      ],
      [
        "▁",
        "D"
      ],
      [
        "▁_",
        "T"
      ],
      [
        "ou",
        "s"
      ],
      [
        "▁s",
        "h"
      ],
      [
        "▁b",
        "ut"
      ],
      [
        "▁a",
        "ll"
      ],
      [
        "'",
        "t"
      ],
      [
        "a",
        "ll"
      ],
      [
        "▁sha",
        "ll"
      ],
      [
        "l",
        "i"
      ],
      [
        "b",
        "le"
      ],
      [
        "ar",
        "d"
      ],
      [
        "▁n",
        "o"
      ],
      [
        "q",
        "u"
      ],
      [
        "in",
        "d"
      ],
      [
        "▁m",
        "a"
      ],
      [
        "▁f",
        "rom"
      ],
      [
        "se",
        "l"
      ],
      [
        "l",
        "o"
      ],
      [
        "▁a",
        "t"
      ],
      [
        "▁u",
        "n"
      ],
      [
        "▁H",
        "am"
      ],
      [
        "e",
        ","
      ],
      [
        "u",
        "st"
      ],
      [
        "er",
        "s"
      ],
      [
        "▁p",
        "l"
      ],
      [
        "e",
        "ar"
      ],
      [
        "i",
        "ve"
      ],
      [
        "u",
        "n"
      ],
      [
        "▁_",
        "P"
      ],
      [
        "▁w",
        "hat"
      ],
      [
        "▁Ham",
        "let"
      ],
      [
        "._",
        "]"
      ],
      [
        "E",
        "N"
      ],
      [
        "u",
        "m"
      ],
      [
        "▁_",
        "O"
      ],
      [
        "i",
        "c"
      ],
      [
        "u",
        "l"
      ],
      [
        "▁T",
        "h"
      ],
      [
        "ha",
        "n"
      ],
      [
        "K",
        "ing"
      ],
      [
        "e",
        "ll"
      ],
      [
        "r",
        "ow"
      ],
      [
        "u",
        "re"
      ],
      [
        "at",
        "ion"
      ],
      [
        "▁he",
        "r"
      ],
      [
        "▁k",
        "n"
      ],
      [
        "▁u",
        "s"
      ],
      [
        "▁th",
        "y"
      ],
      [
        "▁(",
        "R"
      ],
      [
        "▁wh",
        "i"
      ],
      [
        "ue",
        "en"
      ],
      [
        "i",
        "g"
      ],
      [
        "o",
        "s"
      ],
      [
        "▁",
        "r"
      ],
      [
        "▁T",
        "o"
      ],
      [
        "h",
        "o"
      ],
      [
        "▁f",
        "a"
      ],
      [
        "▁e",
        "x"
      ],
      [
        "▁T",
        "hat"
      ],
      [
        "▁u",
        "p"
      ],
      [
        "King",
        "._"
      ],
      [
        "en",
        "ce"
      ],
      [
        "▁c",
        "om"
      ],
      [
        "sel",
        "f"
      ],
      [
        "e",
        "nd"
      ],
      [
        "▁I",
        "I."
      ],
      [
        "▁B",
        "ut"
      ],
      [
        ".",
        "["
      ],
      [
        "E",
        "n"
      ],
      [
        ",",
        "["
      ],
      [
        "on",
        "g"
      ],
      [
        "or",
        "._"
      ],
      [
        "▁p",
        "ro"
      ],
      [
        "▁_H",
        "or._"
      ],
      [
        "▁_",
        "King._"
      ],
      [
        "▁",
        "our"
      ],
      [
        "▁",
        "V."
      ],
      [
        "a",
        "er"
      ],
      [
        "he",
        "re"
      ],
      [
        "in",
        "e"
      ],
      [
        "ea",
        "k"
      ],
      [
        "at",
        "e"
      ],
      [
        "▁g",
        "o"
      ],
      [
        "ver",
        "y"
      ],
      [
        "E",
        "x"
      ],
      [
        "o",
        "re"
      ],
      [
        "▁t",
        "im"
      ],
      [
        "▁_",
        "L"
      ],
      [
        "he",
        "n"
      ],
      [
        "ou",
        "nd"
      ],
      [
        "▁the",
        "m"
      ],
      [
        "▁d",
        "is"
      ],
      [
        "▁_P",
        "ol"
      ],
      [
        "'",
        "ll"
      ],
      [
        "▁s",
        "e"
      ],
      [
        "at",
        "her"
      ],
      [
        "▁mo",
        "re"
      ],
      [
        "ot",
        "her"
      ],
      [
        "▁_Pol",
        "._"
      ],
      [
        "▁",
        "Y"
      ],
      [
        "in",
        "k"
      ],
      [
        "▁s",
        "ee"
      ],
      [
        "▁W",
        "hat"
      ],
      [
        "▁whi",
        "ch"
      ],
      [
        "▁m",
        "an"
      ],
      [
        "▁m",
        "ad"
      ],
      [
        "Q",
        "ueen"
      ],
      [
        "▁the",
        "re"
      ],
      [
        "▁pl",
        "ay"
      ],
      [
        "u",
        "d"
      ],
      [
        "▁k",
        "ing"
      ],
      [
        "▁kn",
        "ow"
      ],
      [
        "E",
        "R"
      ],
      [
        "a",
        "g"
      ],
      [
        "p",
        "h"
      ],
      [
        "w",
        "e"
      ],
      [
        "▁",
        "j"
      ],
      [
        "._",
        "]\r\n"
      ],
      [
        "▁g",
        "ood"
      ],
      [
        "▁(",
        "L"
      ],
      [
        "R",
        "A"
      ],
      [
        "▁m",
        "ay"
      ],
      [
        "▁the",
        "\r\n"
      ],
      [
        "C",
        ".)"
      ],
      [
        "t",
        "o"
      ],
      [
        "▁_",
        "and"
      ],
      [
        "or",
        "t"
      ],
      [
        "▁c",
        "an"
      ],
      [
        "▁_",
        "A"
      ],
      [
        "▁c",
        "ome"
      ],
      [
        "an",
        "ce"
      ],
      [
        "--",
        "\r\n"
      ],
      [
        "a",
        "st"
      ],
      [
        "▁a",
        "m"
      ],
      [
        "▁p",
        "o"
      ],
      [
        "oo",
        "k"
      ],
      [
        "▁lord",
        ","
      ],
      [
        "i",
        "es"
      ],
      [
        "▁a",
        "r"
      ],
      [
        "▁I",
        "t"
      ],
      [
        "Queen",
        "._"
      ],
      [
        "e",
        "m"
      ],
      [
        "▁_",
        "M"
      ],
      [
        "▁w",
        "ould"
      ],
      [
        "▁b",
        "l"
      ],
      [
        "▁n",
        "e"
      ],
      [
        "▁Th",
        "is"
      ],
      [
        "▁",
        "very"
      ],
      [
        "▁he",
        "re"
      ],
      [
        "▁[_",
        "Ex"
      ],
      [
        "▁lo",
        "ve"
      ],
      [
        "▁_and",
        "_"
      ],
      [
        "e",
        "f"
      ],
      [
        "k",
        "es"
      ],
      [
        "o",
        "se"
      ],
      [
        "▁t",
        "r"
      ],
      [
        "▁t",
        "han"
      ],
      [
        "▁_",
        "I"
      ],
      [
        "▁s",
        "ay"
      ],
      [
        "▁I",
        "V."
      ],
      [
        "▁f",
        "ather"
      ],
      [
        "ed",
        ","
      ],
      [
        "ct",
        "ion"
      ],
      [
        "_",
        ";"
      ],
      [
        "s",
        "\r\n"
      ],
      [
        "▁_",
        "Queen._"
      ],
      [
        "▁the",
        "ir"
      ],
      [
        "▁l",
        "et"
      ],
      [
        "▁O",
        ","
      ],
      [
        "▁we",
        "ll"
      ],
      [
        "▁III.",
        "1"
      ],
      [
        "a",
        "u"
      ],
      [
        "a",
        "ge"
      ],
      [
        "o",
        ","
      ],
      [
        "▁",
        "if"
      ],
      [
        "▁",
        "qu"
      ],
      [
        "re",
        "ss"
      ],
      [
        "▁the",
        "y"
      ],
      [
        "am",
        "e"
      ],
      [
        "En",
        "ter"
      ],
      [
        "m",
        "ent"
      ],
      [
        "▁me",
        "an"
      ],
      [
        "▁mo",
        "st"
      ],
      [
        "▁sp",
        "eak"
      ],
      [
        "c",
        "i"
      ],
      [
        "is",
        "h"
      ],
      [
        "ar",
        "k"
      ],
      [
        "▁g",
        "ra"
      ],
      [
        "▁n",
        "ow"
      ],
      [
        ".H",
        ".]\r\n"
      ],
      [
        "▁",
        "hat"
      ],
      [
        "▁",
        "im"
      ],
      [
        "▁",
        "out"
      ],
      [
        "▁w",
        "or"
      ],
      [
        "▁I",
        "'ll"
      ],
      [
        "on",
        "e"
      ],
      [
        "▁p",
        "r"
      ],
      [
        "▁M",
        "y"
      ],
      [
        "▁tim",
        "e"
      ],
      [
        "h",
        "i"
      ],
      [
        "▁_",
        "B"
      ],
      [
        "▁p",
        "re"
      ],
      [
        "▁li",
        "ke"
      ],
      [
        "1",
        ":"
      ],
      [
        "2",
        ":"
      ],
      [
        "▁_",
        "Enter"
      ],
      [
        "▁you",
        ","
      ],
      [
        "▁H",
        "e"
      ],
      [
        "▁_L",
        "aer"
      ],
      [
        "3",
        ":"
      ],
      [
        "L",
        "E"
      ],
      [
        "a",
        "ke"
      ],
      [
        "i",
        "ce"
      ],
      [
        "n",
        "t"
      ],
      [
        "t",
        "h"
      ],
      [
        "▁I",
        "n"
      ],
      [
        "▁_T",
        "he"
      ],
      [
        "▁_O",
        "ph"
      ],
      [
        "▁_Laer",
        "._"
      ],
      [
        "▁_Oph",
        "._"
      ],
      [
        "5",
        ":"
      ],
      [
        "a",
        "re"
      ],
      [
        "c",
        "c"
      ],
      [
        "o",
        "ld"
      ],
      [
        "p",
        "t"
      ],
      [
        "ou",
        "l"
      ],
      [
        "as",
        "s"
      ],
      [
        "▁(R",
        ".)"
      ],
      [
        "4",
        ":"
      ],
      [
        "a",
        "ble"
      ],
      [
        "w",
        "n"
      ],
      [
        "▁_",
        "G"
      ],
      [
        "▁_",
        "R"
      ],
      [
        "▁ma",
        "ke"
      ],
      [
        "6",
        ":"
      ],
      [
        "7",
        ":"
      ],
      [
        "p",
        "e"
      ],
      [
        "▁",
        "'t"
      ],
      [
        "▁a",
        "d"
      ],
      [
        "▁a",
        "g"
      ],
      [
        "▁m",
        "ust"
      ],
      [
        "▁f",
        "l"
      ],
      [
        "▁c",
        "ha"
      ],
      [
        "▁of",
        "f"
      ],
      [
        "▁to",
        "o"
      ],
      [
        "at",
        "h"
      ],
      [
        "▁(",
        "_"
      ],
      [
        "▁C",
        "lo"
      ],
      [
        "▁sh",
        "ould"
      ],
      [
        "▁up",
        "on"
      ],
      [
        "0",
        ":"
      ],
      [
        "1",
        "st"
      ],
      [
        "9",
        ":"
      ],
      [
        "o",
        "ll"
      ],
      [
        "▁w",
        "ord"
      ],
      [
        "▁the",
        "e"
      ],
      [
        "▁d",
        "id"
      ],
      [
        "ro",
        "ss"
      ],
      [
        "▁hat",
        "h"
      ],
      [
        "▁Clo",
        "._"
      ],
      [
        "'",
        "er"
      ],
      [
        "O",
        "N"
      ],
      [
        "▁",
        "\""
      ],
      [
        "▁a",
        "pp"
      ],
      [
        "▁_",
        "1st"
      ],
      [
        "is",
        "t"
      ],
      [
        "▁ha",
        "d"
      ],
      [
        "▁we",
        "re"
      ],
      [
        ".)",
        "\r\n"
      ],
      [
        "8",
        ":"
      ],
      [
        "U",
        "S"
      ],
      [
        "i",
        "ck"
      ],
      [
        "▁a",
        "b"
      ],
      [
        "▁s",
        "he"
      ],
      [
        "▁s",
        "ome"
      ],
      [
        "ot",
        "h"
      ],
      [
        "it",
        "y"
      ],
      [
        "ow",
        "n"
      ],
      [
        "▁n",
        "ight"
      ],
      [
        "ig",
        "n"
      ],
      [
        "▁_Enter",
        "_"
      ],
      [
        "▁the",
        "se"
      ],
      [
        "▁o",
        "wn"
      ],
      [
        "at",
        "i"
      ],
      [
        "▁and",
        "\r\n"
      ],
      [
        "ea",
        "d"
      ],
      [
        "▁lord",
        ".\r\n"
      ],
      [
        "▁su",
        "ch"
      ],
      [
        "o",
        "d"
      ],
      [
        "p",
        "er"
      ],
      [
        "▁",
        "'"
      ],
      [
        "re",
        "d"
      ],
      [
        "▁b",
        "et"
      ],
      [
        "es",
        ","
      ],
      [
        "▁p",
        "er"
      ],
      [
        "▁A",
        "s"
      ],
      [
        "▁H",
        "ow"
      ],
      [
        "ho",
        "st"
      ],
      [
        "▁ag",
        "ain"
      ],
      [
        "A",
        "M"
      ],
      [
        "a",
        "ve"
      ],
      [
        "b",
        "er"
      ],
      [
        "s",
        ".\r\n"
      ],
      [
        "▁F",
        "or"
      ],
      [
        "▁com",
        "m"
      ],
      [
        "[",
        "2"
      ],
      [
        "_",
        "\r\n"
      ],
      [
        "a",
        "k"
      ],
      [
        "it",
        "t"
      ],
      [
        "▁I",
        "f"
      ],
      [
        "▁of",
        "\r\n"
      ],
      [
        "▁th",
        "ink"
      ],
      [
        "▁he",
        "a"
      ],
      [
        "▁Y",
        "ou"
      ],
      [
        "i",
        "re"
      ],
      [
        "▁",
        "U"
      ],
      [
        "▁s",
        "a"
      ],
      [
        "▁s",
        "ir"
      ],
      [
        "▁o",
        "b"
      ],
      [
        "ea",
        "re"
      ],
      [
        "▁on",
        "e"
      ],
      [
        "▁I.",
        "1"
      ],
      [
        "▁[_Ex",
        "it"
      ],
      [
        "LE",
        "T"
      ],
      [
        ":",
        "_]"
      ],
      [
        "T",
        "I"
      ],
      [
        "f",
        "f"
      ],
      [
        "n",
        "ess"
      ],
      [
        "▁",
        "en"
      ],
      [
        "▁_",
        "c"
      ],
      [
        "re",
        "at"
      ],
      [
        "nd",
        "er"
      ],
      [
        "▁h",
        "on"
      ],
      [
        "▁W",
        "e"
      ],
      [
        "▁W",
        "h"
      ],
      [
        "_;",
        "]"
      ],
      [
        "AM",
        "LET"
      ],
      [
        "[",
        "3"
      ],
      [
        "h",
        "ing"
      ],
      [
        "i",
        "ous"
      ],
      [
        "u",
        "ch"
      ],
      [
        "▁a",
        "l"
      ],
      [
        "▁a",
        "ct"
      ],
      [
        "▁s",
        "oul"
      ],
      [
        "re",
        "t"
      ],
      [
        "▁in",
        "to"
      ],
      [
        "ay",
        ","
      ],
      [
        "▁S",
        "ha"
      ],
      [
        "▁wh",
        "o"
      ],
      [
        "ross",
        "es"
      ],
      [
        "S",
        "T"
      ],
      [
        "e",
        "p"
      ],
      [
        "f",
        "ore"
      ],
      [
        "r",
        "y"
      ],
      [
        "r",
        "an"
      ],
      [
        "u",
        "ll"
      ],
      [
        "▁_",
        "W"
      ],
      [
        "▁m",
        "other"
      ],
      [
        "it",
        "s"
      ],
      [
        "▁c",
        "all"
      ],
      [
        "▁d",
        "es"
      ],
      [
        ".",
        "[1"
      ],
      [
        "H",
        "E"
      ],
      [
        "e",
        "l"
      ],
      [
        "i",
        "v"
      ],
      [
        "p",
        "eare"
      ],
      [
        "s",
        ".]\r\n"
      ],
      [
        "▁w",
        "hen"
      ],
      [
        "▁the",
        "n"
      ],
      [
        "at",
        "ch"
      ],
      [
        "ed",
        "\r\n"
      ],
      [
        "▁H",
        "AMLET"
      ],
      [
        "▁be",
        "en"
      ],
      [
        "▁W",
        "ith"
      ],
      [
        "ra",
        "ct"
      ],
      [
        "ur",
        "n"
      ],
      [
        "kes",
        "peare"
      ],
      [
        "▁Sha",
        "kespeare"
      ],
      [
        ".",
        "C.)"
      ],
      [
        "O",
        "RA"
      ],
      [
        "[",
        "4"
      ],
      [
        "o",
        "st"
      ],
      [
        "u",
        "il"
      ],
      [
        "▁",
        "K"
      ],
      [
        "▁",
        "Q"
      ],
      [
        "▁_",
        "F"
      ],
      [
        "▁to",
        "\r\n"
      ],
      [
        "▁p",
        "ass"
      ],
      [
        "▁g",
        "ent"
      ],
      [
        "▁con",
        "t"
      ],
      [
        ".H",
        ".)\r\n"
      ],
      [
        "row",
        "n"
      ],
      [
        "TI",
        "O"
      ],
      [
        "ORA",
        "TIO"
      ],
      [
        "8",
        "]\r\n"
      ],
      [
        "A",
        "R"
      ],
      [
        "e",
        "ct"
      ],
      [
        "p",
        "he"
      ],
      [
        "w",
        "ay"
      ],
      [
        "▁",
        "E"
      ],
      [
        "▁",
        "J"
      ],
      [
        "▁t",
        "ell"
      ],
      [
        "in",
        "t"
      ],
      [
        "re",
        "e"
      ],
      [
        "▁b",
        "r"
      ],
      [
        "▁p",
        "art"
      ],
      [
        "ing",
        ","
      ],
      [
        "▁g",
        "ive"
      ],
      [
        "▁n",
        "at"
      ],
      [
        "▁(",
        "C.)"
      ],
      [
        "▁L",
        "et"
      ],
      [
        "▁li",
        "fe"
      ],
      [
        "▁'t",
        "is"
      ],
      [
        "L",
        "ON"
      ],
      [
        "f",
        "ul"
      ],
      [
        "m",
        "ark"
      ],
      [
        "s",
        "ent"
      ],
      [
        "▁",
        "ri"
      ],
      [
        "ou",
        "nt"
      ],
      [
        "▁s",
        "c"
      ],
      [
        "▁w",
        "here"
      ],
      [
        "re",
        "n"
      ],
      [
        "▁o",
        "ld"
      ],
      [
        "▁to",
        "_"
      ],
      [
        "▁p",
        "ur"
      ],
      [
        "▁l",
        "ook"
      ],
      [
        "at",
        "ter"
      ],
      [
        "▁he",
        "art"
      ],
      [
        "▁e",
        "y"
      ],
      [
        "ea",
        "ven"
      ],
      [
        "▁S",
        "t"
      ],
      [
        "▁The",
        "re"
      ],
      [
        "▁an",
        "y"
      ],
      [
        "▁_M",
        "ar"
      ],
      [
        "oll",
        "ow"
      ],
      [
        "5",
        "]"
      ],
      [
        "d",
        "e"
      ],
      [
        "l",
        "es"
      ],
      [
        "r",
        "u"
      ],
      [
        "▁o",
        "'er"
      ],
      [
        "▁d",
        "ead"
      ],
      [
        "ing",
        "s"
      ],
      [
        "▁h",
        "ow"
      ],
      [
        "▁he",
        "ar"
      ],
      [
        "▁ha",
        "nd"
      ],
      [
        "ri",
        "end"
      ],
      [
        "un",
        "t"
      ],
      [
        "▁hea",
        "ven"
      ],
      [
        ",",
        "--"
      ],
      [
        ",",
        "[1"
      ],
      [
        ".",
        "\""
      ],
      [
        ".",
        "--"
      ],
      [
        "7",
        "]\r\n"
      ],
      [
        "E",
        "EN"
      ],
      [
        "I",
        "N"
      ],
      [
        "I",
        "US"
      ],
      [
        "U",
        "EEN"
      ],
      [
        "[",
        "5"
      ],
      [
        "_",
        ",\r\n"
      ],
      [
        "a",
        "b"
      ],
      [
        "p",
        "ress"
      ],
      [
        "r",
        "."
      ],
      [
        "▁m",
        "ar"
      ],
      [
        "▁m",
        "ight"
      ],
      [
        "▁g",
        "r"
      ],
      [
        "▁H",
        "ORATIO"
      ],
      [
        "ea",
        "ve"
      ],
      [
        "▁O",
        "phe"
      ],
      [
        "▁S",
        "o"
      ],
      [
        "▁R",
        "O"
      ],
      [
        "▁R",
        ".H.]\r\n"
      ],
      [
        "fe",
        "ct"
      ],
      [
        "li",
        "a"
      ],
      [
        "▁mad",
        "e"
      ],
      [
        "ER",
        "N"
      ],
      [
        "▁gent",
        "le"
      ],
      [
        "▁_Mar",
        "._"
      ],
      [
        "▁Ophe",
        "lia"
      ],
      [
        "0",
        "]"
      ],
      [
        "O",
        "LON"
      ],
      [
        "a",
        "p"
      ],
      [
        "c",
        "he"
      ],
      [
        "f",
        "t"
      ],
      [
        "s",
        "id"
      ],
      [
        "▁a",
        "\r\n"
      ],
      [
        "it",
        "e"
      ],
      [
        "▁c",
        "h"
      ],
      [
        "at",
        "ed"
      ],
      [
        "▁H",
        "eaven"
      ],
      [
        "▁L",
        "aer"
      ],
      [
        "ee",
        "p"
      ],
      [
        "▁con",
        "f"
      ],
      [
        "▁thou",
        "ght"
      ],
      [
        "os",
        "._"
      ],
      [
        "▁dis",
        "c"
      ],
      [
        "▁_R",
        "os._"
      ],
      [
        "▁Q",
        "UEEN"
      ],
      [
        "OLON",
        "IUS"
      ],
      [
        "▁Laer",
        "t"
      ],
      [
        "3",
        "]"
      ],
      [
        "4",
        "]\r\n"
      ],
      [
        "C",
        "rosses"
      ],
      [
        "d",
        "er"
      ],
      [
        "m",
        "s"
      ],
      [
        "s",
        ",\r\n"
      ],
      [
        "▁",
        "En"
      ],
      [
        "▁t",
        "w"
      ],
      [
        "▁s",
        "w"
      ],
      [
        "▁s",
        "et"
      ],
      [
        "▁m",
        "uch"
      ],
      [
        "▁b",
        "re"
      ],
      [
        "en",
        "mark"
      ],
      [
        "or",
        "ati"
      ],
      [
        "ing",
        "\r\n"
      ],
      [
        "▁H",
        "orati"
      ],
      [
        "▁W",
        "here"
      ],
      [
        "ome",
        ","
      ],
      [
        "▁de",
        "ath"
      ],
      [
        "▁D",
        "enmark"
      ],
      [
        "RA",
        "N"
      ],
      [
        "▁can",
        "not"
      ],
      [
        "▁gra",
        "ve"
      ],
      [
        "▁'",
        "T"
      ],
      [
        "▁[_Exit",
        "_"
      ],
      [
        "1",
        "]"
      ],
      [
        "2",
        "]"
      ],
      [
        "9",
        "]"
      ],
      [
        "a",
        "ck"
      ],
      [
        "▁",
        "V"
      ],
      [
        "▁a",
        "cc"
      ],
      [
        "▁m",
        "ine"
      ],
      [
        "is",
        "e"
      ],
      [
        "._",
        "\r\n"
      ],
      [
        "▁c",
        "our"
      ],
      [
        "▁d",
        "r"
      ],
      [
        "▁d",
        "ay"
      ],
      [
        "▁l",
        "eave"
      ],
      [
        "▁th",
        "us"
      ],
      [
        "▁e",
        "art"
      ],
      [
        "▁re",
        "m"
      ],
      [
        "▁B",
        "e"
      ],
      [
        "▁[_",
        "T"
      ],
      [
        "▁sp",
        "ir"
      ],
      [
        "▁(L",
        ".)"
      ],
      [
        "au",
        "ght"
      ],
      [
        "▁im",
        "p"
      ],
      [
        "▁wor",
        "ld"
      ],
      [
        "▁eart",
        "h"
      ],
      [
        "1",
        "]\r\n"
      ],
      [
        "2",
        "]\r\n"
      ],
      [
        "6",
        "]"
      ],
      [
        "6",
        "]\r\n"
      ],
      [
        "e",
        "unt"
      ],
      [
        "g",
        "l"
      ],
      [
        "m",
        "an"
      ],
      [
        "n",
        "g"
      ],
      [
        "o",
        "p"
      ],
      [
        "s",
        "w"
      ],
      [
        "er",
        ","
      ],
      [
        "en",
        "s"
      ],
      [
        "on",
        "s"
      ],
      [
        "or",
        "y"
      ],
      [
        "▁d",
        "own"
      ],
      [
        "▁in",
        "\r\n"
      ],
      [
        "ce",
        "ll"
      ],
      [
        "▁it",
        ","
      ],
      [
        "▁me",
        ","
      ],
      [
        "ri",
        "ef"
      ],
      [
        "▁L",
        ".H.]\r\n"
      ],
      [
        "est",
        "y"
      ],
      [
        "▁P",
        "OLONIUS"
      ],
      [
        "ee",
        "ch"
      ],
      [
        "▁de",
        "ar"
      ],
      [
        "▁dis",
        "t"
      ],
      [
        "▁se",
        "c"
      ],
      [
        "▁se",
        "en"
      ],
      [
        "we",
        "et"
      ],
      [
        "au",
        "se"
      ],
      [
        "▁mean",
        "s"
      ],
      [
        "▁pr",
        "ay"
      ],
      [
        "▁K",
        "IN"
      ],
      [
        "▁KIN",
        "G"
      ],
      [
        "9",
        "]\r\n"
      ],
      [
        "_",
        ".]\r\n"
      ],
      [
        "a",
        "c"
      ],
      [
        "a",
        "w"
      ],
      [
        "a",
        "se"
      ],
      [
        "a",
        "ut"
      ],
      [
        "a",
        "ch"
      ],
      [
        "i",
        "al"
      ],
      [
        "▁",
        "ra"
      ],
      [
        "▁a",
        "f"
      ],
      [
        "._",
        ")"
      ],
      [
        "it",
        "her"
      ],
      [
        "▁b",
        "ra"
      ],
      [
        "or",
        "n"
      ],
      [
        "▁f",
        "riend"
      ],
      [
        "▁c",
        "ould"
      ],
      [
        "▁p",
        "ut"
      ],
      [
        "▁l",
        "ong"
      ],
      [
        "▁l",
        "itt"
      ],
      [
        "ed",
        ".]\r\n"
      ],
      [
        "▁g",
        "reat"
      ],
      [
        "om",
        "et"
      ],
      [
        "▁with",
        "out"
      ],
      [
        "▁him",
        "self"
      ],
      [
        "▁su",
        "pp"
      ],
      [
        "▁sh",
        "ow"
      ],
      [
        "ear",
        "s"
      ],
      [
        "▁us",
        "ed"
      ],
      [
        "▁nat",
        "ure"
      ],
      [
        "▁litt",
        "le"
      ],
      [
        "4",
        "]"
      ],
      [
        "D",
        "EN"
      ],
      [
        "E",
        "S"
      ],
      [
        "L",
        "DEN"
      ],
      [
        "g",
        "in"
      ],
      [
        "i",
        "e"
      ],
      [
        "i",
        "an"
      ],
      [
        "l",
        "ay"
      ],
      [
        "v",
        "es"
      ],
      [
        "▁",
        "ro"
      ],
      [
        "▁t",
        "ra"
      ],
      [
        "▁a",
        "way"
      ],
      [
        "▁_",
        "C"
      ],
      [
        "ou",
        "gh"
      ],
      [
        "▁m",
        "atter"
      ],
      [
        "er",
        "y"
      ],
      [
        "it",
        "ion"
      ],
      [
        "▁b",
        "od"
      ],
      [
        "▁y",
        "et"
      ],
      [
        "▁A",
        "y,"
      ],
      [
        "▁ha",
        "r"
      ],
      [
        "ir",
        "st"
      ],
      [
        "▁re",
        "p"
      ],
      [
        "▁lord",
        "?\r\n"
      ],
      [
        "▁an",
        "sw"
      ],
      [
        "▁G",
        "U"
      ],
      [
        "all",
        "y"
      ],
      [
        "▁ex",
        "press"
      ],
      [
        "▁tr",
        "ue"
      ],
      [
        "ST",
        "ERN"
      ],
      [
        "▁pur",
        "p"
      ],
      [
        "▁Laert",
        "es"
      ],
      [
        "▁En",
        "gl"
      ],
      [
        "LDEN",
        "STERN"
      ],
      [
        "0",
        "]\r\n"
      ],
      [
        "3",
        "]\r\n"
      ],
      [
        "C",
        "RAN"
      ],
      [
        "I",
        "LDENSTERN"
      ],
      [
        "S",
        "EN"
      ],
      [
        "T",
        "Z"
      ],
      [
        "[",
        "6"
      ],
      [
        "[",
        "7"
      ],
      [
        "a",
        "le"
      ],
      [
        "i",
        "x"
      ],
      [
        "l",
        "ed"
      ],
      [
        "s",
        "r"
      ],
      [
        "s",
        "er"
      ],
      [
        "▁_",
        "D"
      ],
      [
        "in",
        "ce"
      ],
      [
        "▁s",
        "k"
      ],
      [
        "▁m",
        "ind"
      ],
      [
        "on",
        "t"
      ],
      [
        "▁f",
        "ear"
      ],
      [
        "▁l",
        "ad"
      ],
      [
        "▁th",
        "ing"
      ],
      [
        "▁th",
        "ose"
      ],
      [
        "▁in",
        "t"
      ],
      [
        "▁g",
        "i"
      ],
      [
        "as",
        "on"
      ],
      [
        "ly",
        ","
      ],
      [
        "▁O",
        "f"
      ],
      [
        "▁O",
        "r"
      ],
      [
        "▁[_",
        "Crosses"
      ],
      [
        "▁N",
        "o,"
      ],
      [
        "▁N",
        "ay,"
      ],
      [
        "▁_O",
        "sr"
      ],
      [
        "▁fa",
        "ir"
      ],
      [
        "we",
        "en"
      ],
      [
        "▁[_Ex",
        "eunt"
      ],
      [
        "▁_I",
        "n"
      ],
      [
        "▁'T",
        "is"
      ],
      [
        "▁dr",
        "ink"
      ],
      [
        "▁GU",
        "ILDENSTERN"
      ],
      [
        "CRAN",
        "TZ"
      ],
      [
        "SEN",
        "CRANTZ"
      ],
      [
        "&",
        "c"
      ],
      [
        "'",
        "st"
      ],
      [
        "b",
        "e"
      ],
      [
        "g",
        "er"
      ],
      [
        "h",
        "ind"
      ],
      [
        "j",
        "ect"
      ],
      [
        "l",
        "ing"
      ],
      [
        "q",
        "ueen"
      ],
      [
        "t",
        "y"
      ],
      [
        "▁",
        "queen"
      ],
      [
        "▁s",
        "weet"
      ],
      [
        "er",
        "n"
      ],
      [
        "er",
        "t"
      ],
      [
        "er",
        "._"
      ],
      [
        "▁b",
        "u"
      ],
      [
        "▁b",
        "est"
      ],
      [
        "▁b",
        "oth"
      ],
      [
        "en",
        "se"
      ],
      [
        "▁f",
        "ind"
      ],
      [
        "▁f",
        "ell"
      ],
      [
        "▁you",
        ".\r\n"
      ],
      [
        "▁h",
        "old"
      ],
      [
        "▁g",
        "rief"
      ],
      [
        "▁he",
        "ad"
      ],
      [
        "▁W",
        "ho"
      ],
      [
        "▁W",
        "hen"
      ],
      [
        "▁not",
        "hing"
      ],
      [
        "▁for",
        "m"
      ],
      [
        "oo",
        "l"
      ],
      [
        "▁on",
        "ce"
      ],
      [
        "▁or",
        "\r\n"
      ],
      [
        "▁D",
        "o"
      ],
      [
        "▁_B",
        "er._"
      ],
      [
        "▁_G",
        "uil"
      ],
      [
        "▁bet",
        "ween"
      ],
      [
        "▁Wh",
        "y,"
      ],
      [
        "▁RO",
        "SENCRANTZ"
      ],
      [
        "▁Horati",
        "o"
      ],
      [
        "▁_Osr",
        "._"
      ],
      [
        "▁_Guil",
        "._"
      ],
      [
        "5",
        "]\r\n"
      ],
      [
        "7",
        "]"
      ],
      [
        "?",
        "_]"
      ],
      [
        "c",
        "l"
      ],
      [
        "c",
        "y"
      ],
      [
        "i",
        "ld"
      ],
      [
        "i",
        "gh"
      ],
      [
        "l",
        "t"
      ],
      [
        "o",
        "nd"
      ],
      [
        "p",
        "on"
      ],
      [
        "▁",
        "ent"
      ],
      [
        "▁",
        "other"
      ],
      [
        "▁",
        "&c"
      ],
      [
        "▁t",
        "ake"
      ],
      [
        "▁_",
        "S"
      ],
      [
        "▁_",
        "f"
      ],
      [
        "▁s",
        "l"
      ],
      [
        "▁s",
        "ign"
      ],
      [
        "▁s",
        "omet"
      ],
      [
        "▁w",
        "atch"
      ],
      [
        "or",
        "m"
      ],
      [
        "▁f",
        "ollow"
      ],
      [
        "▁c",
        "ar"
      ],
      [
        "▁d",
        "aught"
      ],
      [
        "▁p",
        "ers"
      ],
      [
        "et",
        "h"
      ],
      [
        "▁n",
        "or"
      ],
      [
        "▁is",
        "\r\n"
      ],
      [
        "▁it",
        "s"
      ],
      [
        "▁e",
        "nd"
      ],
      [
        "▁e",
        "ar"
      ],
      [
        "▁ha",
        "s"
      ],
      [
        "al",
        "k"
      ],
      [
        "▁M",
        "r."
      ],
      [
        "▁li",
        "ve"
      ],
      [
        "▁thou",
        "gh"
      ],
      [
        ".H",
        "."
      ],
      [
        "▁Hamlet",
        ","
      ],
      [
        "▁But",
        ","
      ],
      [
        "▁bl",
        "ood"
      ],
      [
        "▁now",
        ","
      ],
      [
        ".\"",
        "]\r\n"
      ],
      [
        "▁gr",
        "ound"
      ],
      [
        "▁sign",
        "if"
      ],
      [
        ":",
        "--"
      ],
      [
        "I",
        "A"
      ],
      [
        "T",
        "ES"
      ],
      [
        "g",
        "g"
      ],
      [
        "i",
        "ed"
      ],
      [
        "r",
        "ing"
      ],
      [
        "r",
        "ant"
      ],
      [
        "s",
        "on"
      ],
      [
        "w",
        "ard"
      ],
      [
        "▁",
        "i"
      ],
      [
        "▁",
        "̈"
      ],
      [
        "▁t",
        "re"
      ],
      [
        "▁_",
        "N"
      ],
      [
        "▁_",
        "w"
      ],
      [
        "ou",
        "b"
      ],
      [
        "ou",
        "ch"
      ],
      [
        "▁s",
        "ent"
      ],
      [
        "▁s",
        "ense"
      ],
      [
        "▁w",
        "it"
      ],
      [
        "▁w",
        "ay"
      ],
      [
        "▁w",
        "ind"
      ],
      [
        "▁I",
        "s"
      ],
      [
        "or",
        "row"
      ],
      [
        "▁f",
        "ree"
      ],
      [
        "▁f",
        "irst"
      ],
      [
        "▁c",
        "lo"
      ],
      [
        "not",
        "her"
      ],
      [
        "▁p",
        "h"
      ],
      [
        "▁in",
        "de"
      ],
      [
        "▁be",
        "ing"
      ],
      [
        "▁be",
        "li"
      ],
      [
        "ent",
        "ly"
      ],
      [
        "ut",
        "h"
      ],
      [
        "ion",
        ","
      ],
      [
        "▁st",
        "and"
      ],
      [
        "▁sp",
        "eech"
      ],
      [
        "▁G",
        "ive"
      ],
      [
        "▁N",
        "ot"
      ],
      [
        "▁v",
        "i"
      ],
      [
        "▁pre",
        "sent"
      ],
      [
        "▁Shakespeare",
        "'s"
      ],
      [
        "▁ey",
        "es"
      ],
      [
        "-",
        "m"
      ],
      [
        "8",
        "]"
      ],
      [
        "A",
        "ER"
      ],
      [
        "L",
        "IA"
      ],
      [
        "P",
        "HE"
      ],
      [
        "e",
        "ve"
      ],
      [
        "l",
        "ess"
      ],
      [
        "o",
        "ck"
      ],
      [
        "p",
        "s"
      ],
      [
        "p",
        "os"
      ],
      [
        "s",
        "."
      ],
      [
        "v",
        "ed"
      ],
      [
        "▁a",
        "ir"
      ],
      [
        "▁a",
        "nother"
      ],
      [
        "ou",
        "ght"
      ],
      [
        "▁s",
        "ame"
      ],
      [
        "▁w",
        "ar"
      ],
      [
        "▁f",
        "e"
      ],
      [
        "▁c",
        "l"
      ],
      [
        "▁c",
        "or"
      ],
      [
        "▁d",
        "re"
      ],
      [
        "▁l",
        "ast"
      ],
      [
        "▁h",
        "um"
      ],
      [
        "▁it",
        "self"
      ],
      [
        "▁e",
        "very"
      ],
      [
        "▁ha",
        "st"
      ],
      [
        "▁u",
        "se"
      ],
      [
        "▁his",
        "\r\n"
      ],
      [
        "▁st",
        "ate"
      ],
      [
        "▁S",
        "p"
      ],
      [
        "▁as",
        "s"
      ],
      [
        "▁C",
        "ome,"
      ],
      [
        "▁him",
        ","
      ],
      [
        "▁an",
        "ci"
      ],
      [
        "▁And",
        ","
      ],
      [
        "▁do",
        "es"
      ],
      [
        "▁G",
        "ood"
      ],
      [
        "▁N",
        "o"
      ],
      [
        "▁_T",
        "o"
      ],
      [
        "um",
        "p"
      ],
      [
        "ic",
        "al"
      ],
      [
        "▁com",
        "es"
      ],
      [
        "▁tim",
        "e,"
      ],
      [
        "▁see",
        "m"
      ],
      [
        "▁j",
        "o"
      ],
      [
        "▁tw",
        "o"
      ],
      [
        "▁spir",
        "it"
      ],
      [
        "▁answ",
        "er"
      ],
      [
        "▁̈",
        "d"
      ],
      [
        "AER",
        "TES"
      ],
      [
        "PHE",
        "LIA"
      ],
      [
        "C",
        "E"
      ],
      [
        "a",
        "ce"
      ],
      [
        "l",
        "c"
      ],
      [
        "m",
        "en"
      ],
      [
        "n",
        "ight"
      ],
      [
        "o",
        "ve"
      ],
      [
        "o",
        "ver"
      ],
      [
        "o",
        "il"
      ],
      [
        "r",
        "y,"
      ],
      [
        "r",
        "ong"
      ],
      [
        "w",
        "ell"
      ],
      [
        "▁",
        "1"
      ],
      [
        "▁t",
        "er"
      ],
      [
        "▁s",
        "ea"
      ],
      [
        "▁m",
        "ur"
      ],
      [
        "▁w",
        "o"
      ],
      [
        "▁o",
        "ver"
      ],
      [
        "is",
        "on"
      ],
      [
        "ha",
        "r"
      ],
      [
        "en",
        "er"
      ],
      [
        "▁d",
        "ra"
      ],
      [
        "▁d",
        "one"
      ],
      [
        "ed",
        ".\r\n"
      ],
      [
        "an",
        "k"
      ],
      [
        "et",
        "s"
      ],
      [
        "▁A",
        "t"
      ],
      [
        "▁be",
        "aut"
      ],
      [
        "▁e",
        "m"
      ],
      [
        "▁u",
        "nder"
      ],
      [
        "ir",
        "t"
      ],
      [
        "id",
        "e"
      ],
      [
        "est",
        "ion"
      ],
      [
        "▁P",
        "lay"
      ],
      [
        "ain",
        "t"
      ],
      [
        "'t",
        "he"
      ],
      [
        "▁ma",
        "j"
      ],
      [
        "ust",
        "om"
      ],
      [
        "un",
        "n"
      ],
      [
        "▁(R",
        ".H.)\r\n"
      ],
      [
        "▁fa",
        "ce"
      ],
      [
        "▁ex",
        "cell"
      ],
      [
        "▁Y",
        "our"
      ],
      [
        "▁mad",
        "ness"
      ],
      [
        "▁(L",
        ".H.)\r\n"
      ],
      [
        "▁He",
        "re"
      ],
      [
        "▁ad",
        "v"
      ],
      [
        "▁ab",
        "out"
      ],
      [
        "▁bet",
        "ter"
      ],
      [
        "▁again",
        "st"
      ],
      [
        "▁comm",
        "on"
      ],
      [
        "▁sa",
        "id"
      ],
      [
        "▁bod",
        "y"
      ],
      [
        "▁express",
        "ion"
      ],
      [
        "▁purp",
        "ose"
      ],
      [
        "▁gi",
        "ven"
      ],
      [
        "▁daught",
        "er"
      ],
      [
        "C",
        "EN"
      ],
      [
        "c",
        "ed"
      ],
      [
        "f",
        "orm"
      ],
      [
        "g",
        "et"
      ],
      [
        "r",
        "it"
      ],
      [
        "r",
        "ist"
      ],
      [
        "s",
        "hi"
      ],
      [
        "t",
        "her"
      ],
      [
        "t",
        "end"
      ],
      [
        "u",
        "ra"
      ],
      [
        "▁",
        "ill"
      ],
      [
        "▁t",
        "ri"
      ],
      [
        "ou",
        "n"
      ],
      [
        "▁m",
        "on"
      ],
      [
        "▁f",
        "ar"
      ],
      [
        "▁f",
        "ool"
      ],
      [
        "▁c",
        "ause"
      ],
      [
        "▁d",
        "i"
      ],
      [
        "▁d",
        "ut"
      ],
      [
        "▁p",
        "le"
      ],
      [
        "ar",
        "y"
      ],
      [
        "▁h",
        "o"
      ],
      [
        "▁and",
        ","
      ],
      [
        "om",
        "an"
      ],
      [
        "se",
        ","
      ],
      [
        "▁it",
        ".\r\n"
      ],
      [
        "▁me",
        ".\r\n"
      ],
      [
        "▁your",
        "self"
      ],
      [
        "▁st",
        "ran"
      ],
      [
        "▁re",
        "t"
      ],
      [
        "▁O",
        "PHELIA"
      ],
      [
        "▁S",
        "CEN"
      ],
      [
        "ver",
        "b"
      ],
      [
        "ver",
        "s"
      ],
      [
        "▁L",
        ".]\r\n"
      ],
      [
        "▁L",
        "AERTES"
      ],
      [
        "▁M",
        "ar"
      ],
      [
        "'d",
        ","
      ],
      [
        "▁N",
        "ow"
      ],
      [
        "▁_T",
        "h"
      ],
      [
        "▁un",
        "c"
      ],
      [
        "um",
        "e"
      ],
      [
        "▁(R",
        ".C.)"
      ],
      [
        "▁whi",
        "le"
      ],
      [
        ",[",
        "4"
      ],
      [
        "▁_A",
        "nd"
      ],
      [
        "▁po",
        "or"
      ],
      [
        "▁ar",
        "t"
      ],
      [
        "▁ne",
        "ver"
      ],
      [
        "▁wor",
        "k"
      ],
      [
        "▁sir",
        ","
      ],
      [
        "▁_F",
        "or"
      ],
      [
        "▁br",
        "other"
      ],
      [
        "▁ri",
        "ght"
      ],
      [
        "▁bra",
        "in"
      ],
      [
        "▁Engl",
        "and"
      ],
      [
        "▁[_Exeunt",
        "_"
      ],
      [
        "▁i",
        "'the"
      ],
      [
        "▁SCEN",
        "E"
      ],
      [
        "-",
        "d"
      ],
      [
        "_",
        "."
      ],
      [
        "c",
        "es"
      ],
      [
        "e",
        "y"
      ],
      [
        "g",
        "ment"
      ],
      [
        "o",
        "h"
      ],
      [
        "p",
        "re"
      ],
      [
        "u",
        "p"
      ],
      [
        "u",
        "s,"
      ],
      [
        "v",
        "ing"
      ],
      [
        "▁t",
        "ong"
      ],
      [
        "ou",
        "d"
      ],
      [
        "▁w",
        "is"
      ],
      [
        "▁the",
        "_"
      ],
      [
        "er",
        "c"
      ],
      [
        "on",
        "ce"
      ],
      [
        "on",
        "e,"
      ],
      [
        "or",
        "s"
      ],
      [
        "▁h",
        "our"
      ],
      [
        "▁T",
        "HE"
      ],
      [
        "▁g",
        "ener"
      ],
      [
        "ow",
        "er"
      ],
      [
        "▁A",
        "n"
      ],
      [
        "▁n",
        "ame"
      ],
      [
        "le",
        "ep"
      ],
      [
        "ut",
        "e"
      ],
      [
        "▁e",
        "ver"
      ],
      [
        "as",
        "h"
      ],
      [
        "ly",
        "\r\n"
      ],
      [
        "ri",
        "ed"
      ],
      [
        "▁re",
        "st"
      ],
      [
        "▁re",
        "ad"
      ],
      [
        "▁k",
        "ind"
      ],
      [
        "▁k",
        "eep"
      ],
      [
        "▁on",
        "ly"
      ],
      [
        "e._",
        "]"
      ],
      [
        "▁li",
        "e"
      ],
      [
        "▁R",
        "."
      ],
      [
        "▁con",
        "ce"
      ],
      [
        "▁con",
        "sid"
      ],
      [
        "ven",
        "ge"
      ],
      [
        "▁v",
        "is"
      ],
      [
        "▁no",
        "ble"
      ],
      [
        "▁ma",
        "kes"
      ],
      [
        "un",
        "g"
      ],
      [
        "▁Hamlet",
        "'s"
      ],
      [
        "um",
        "ent"
      ],
      [
        "row",
        "s"
      ],
      [
        "ation",
        ".]\r\n"
      ],
      [
        ".[",
        "6"
      ],
      [
        "▁pro",
        "verb"
      ],
      [
        "▁there",
        "fore"
      ],
      [
        "ud",
        "e"
      ],
      [
        "▁j",
        "ud"
      ],
      [
        "ies",
        ","
      ],
      [
        "▁ne",
        "w"
      ],
      [
        "▁father",
        "'s"
      ],
      [
        "▁gra",
        "ce"
      ],
      [
        "hi",
        "ch"
      ],
      [
        "▁_G",
        "host"
      ],
      [
        "▁comm",
        "and"
      ],
      [
        "▁U",
        "n"
      ],
      [
        "▁U",
        "pon"
      ],
      [
        "▁Wh",
        "y"
      ],
      [
        "▁HORATIO",
        ","
      ],
      [
        "▁QUEEN",
        ","
      ],
      [
        "▁sw",
        "ord"
      ],
      [
        "▁rem",
        "em"
      ],
      [
        "._)",
        "\r\n"
      ],
      [
        "▁supp",
        "os"
      ],
      [
        "▁fell",
        "ow"
      ],
      [
        "▁ph",
        "ra"
      ],
      [
        "▁beli",
        "eve"
      ],
      [
        "shi",
        "p"
      ],
      [
        "▁dut",
        "y"
      ],
      [
        "▁_Ghost",
        "._"
      ],
      [
        ".",
        "E"
      ],
      [
        "2",
        "nd"
      ],
      [
        ";",
        "--"
      ],
      [
        "L",
        "L"
      ],
      [
        "c",
        "ri"
      ],
      [
        "c",
        "ess"
      ],
      [
        "d",
        "d"
      ],
      [
        "g",
        "ed"
      ],
      [
        "m",
        "ost"
      ],
      [
        "s",
        "ol"
      ],
      [
        "v",
        "our"
      ],
      [
        "▁",
        "Ex"
      ],
      [
        "▁a",
        "ff"
      ],
      [
        "▁_",
        "U"
      ],
      [
        "▁s",
        "er"
      ],
      [
        "▁m",
        "in"
      ],
      [
        "▁m",
        "en"
      ],
      [
        "en",
        "e"
      ],
      [
        "on",
        "i"
      ],
      [
        "▁c",
        "ol"
      ],
      [
        "▁c",
        "han"
      ],
      [
        "▁c",
        "ame"
      ],
      [
        "es",
        "\r\n"
      ],
      [
        "▁p",
        "ati"
      ],
      [
        "an",
        "s"
      ],
      [
        "▁g",
        "all"
      ],
      [
        "▁be",
        "fore"
      ],
      [
        "▁is",
        ","
      ],
      [
        "ent",
        "re"
      ],
      [
        "▁e",
        "ven"
      ],
      [
        "▁e",
        "ach"
      ],
      [
        "▁W",
        "ill"
      ],
      [
        "▁that",
        ","
      ],
      [
        "▁with",
        "in"
      ],
      [
        "▁for",
        "\r\n"
      ],
      [
        "▁re",
        "l"
      ],
      [
        "▁O",
        "F"
      ],
      [
        "▁we",
        "lc"
      ],
      [
        "▁The",
        "n"
      ],
      [
        "▁wh",
        "ose"
      ],
      [
        "e._",
        "]\r\n"
      ],
      [
        "▁B",
        "y"
      ],
      [
        "▁su",
        "b"
      ],
      [
        "▁G",
        "host"
      ],
      [
        "▁by",
        "\r\n"
      ],
      [
        "if",
        "fe"
      ],
      [
        "▁v",
        "irt"
      ],
      [
        "'t",
        ","
      ],
      [
        "um",
        "b"
      ],
      [
        "▁r",
        "ound"
      ],
      [
        "▁fa",
        "ith"
      ],
      [
        "▁come",
        ","
      ],
      [
        "▁bl",
        "ess"
      ],
      [
        "pt",
        "ion"
      ],
      [
        "▁cha",
        "ract"
      ],
      [
        "▁hon",
        "our"
      ],
      [
        "▁who",
        "le"
      ],
      [
        "▁J",
        "oh"
      ],
      [
        "ren",
        "ch"
      ],
      [
        "▁gentle",
        "man"
      ],
      [
        "▁cour",
        "t"
      ],
      [
        "▁imp",
        "ort"
      ],
      [
        "▁af",
        "ter"
      ],
      [
        "▁somet",
        "hing"
      ],
      [
        "▁pers",
        "on"
      ],
      [
        "ura",
        "l"
      ],
      [
        "▁stran",
        "ge"
      ],
      [
        "▁unc",
        "le"
      ],
      [
        "▁tong",
        "ue"
      ],
      [
        "▁Joh",
        "n"
      ],
      [
        ".",
        "--\r\n"
      ],
      [
        "C",
        "T"
      ],
      [
        "O",
        "R"
      ],
      [
        "U",
        ".E"
      ],
      [
        "[",
        "8"
      ],
      [
        "_",
        "]\r\n"
      ],
      [
        "d",
        "om"
      ],
      [
        "e",
        "ver"
      ],
      [
        "e",
        "red"
      ],
      [
        "f",
        "fect"
      ],
      [
        "i",
        "er"
      ],
      [
        "k",
        "en"
      ],
      [
        "l",
        "s"
      ],
      [
        "m",
        "ir"
      ],
      [
        "o",
        "c"
      ],
      [
        "o",
        "int"
      ],
      [
        "r",
        "as"
      ],
      [
        "r",
        "ance"
      ],
      [
        "s",
        "p"
      ],
      [
        "s",
        "_,]"
      ],
      [
        "v",
        "il"
      ],
      [
        "y",
        "r"
      ],
      [
        "▁t",
        "ill"
      ],
      [
        "he",
        "d"
      ],
      [
        "▁a",
        "ction"
      ],
      [
        "▁a",
        "uth"
      ],
      [
        "▁_",
        "Y"
      ],
      [
        "▁_",
        "2nd"
      ],
      [
        "ou",
        "se"
      ],
      [
        "▁s",
        "m"
      ],
      [
        "▁s",
        "on"
      ],
      [
        "▁s",
        "leep"
      ],
      [
        "▁w",
        "alk"
      ],
      [
        "re",
        "nt"
      ],
      [
        "▁o",
        "cc"
      ],
      [
        "is",
        "ter"
      ],
      [
        "▁I",
        ","
      ],
      [
        "▁f",
        "al"
      ],
      [
        "▁f",
        "ee"
      ],
      [
        "▁f",
        "all"
      ],
      [
        "▁c",
        "ustom"
      ],
      [
        "▁of",
        "t"
      ],
      [
        "▁d",
        "rown"
      ],
      [
        "▁p",
        "i"
      ],
      [
        "▁l",
        "ess"
      ],
      [
        "▁th",
        "ine"
      ],
      [
        "▁g",
        "uil"
      ],
      [
        "▁he",
        "ard"
      ],
      [
        "▁H",
        "ave"
      ],
      [
        "▁be",
        "c"
      ],
      [
        "▁it",
        "\r\n"
      ],
      [
        "▁e",
        "ffect"
      ],
      [
        "▁not",
        "\r\n"
      ],
      [
        "▁that",
        "\r\n"
      ],
      [
        "ill",
        "ain"
      ],
      [
        "▁st",
        "rong"
      ],
      [
        "our",
        "se"
      ],
      [
        "▁re",
        "c"
      ],
      [
        "▁O",
        "n"
      ],
      [
        "▁L",
        "ook"
      ],
      [
        "▁M",
        "AR"
      ],
      [
        "▁li",
        "ght"
      ],
      [
        "▁lord",
        ";"
      ],
      [
        "▁P",
        "ol"
      ],
      [
        "▁III.",
        "4"
      ],
      [
        "▁III.",
        "5"
      ],
      [
        "▁III.",
        "6"
      ],
      [
        "▁III.",
        "7"
      ],
      [
        "▁III.",
        "8"
      ],
      [
        "▁R",
        ".]\r\n"
      ],
      [
        "▁su",
        "n"
      ],
      [
        "▁F",
        "rench"
      ],
      [
        "[1",
        "1"
      ],
      [
        "[1",
        "2"
      ],
      [
        "▁N",
        "or"
      ],
      [
        ".H",
        ".)"
      ],
      [
        "▁are",
        "\r\n"
      ],
      [
        "▁v",
        "illain"
      ],
      [
        "▁lo",
        "st"
      ],
      [
        "▁D",
        "an"
      ],
      [
        "▁at",
        "t"
      ],
      [
        "un",
        "e"
      ],
      [
        "ul",
        "t"
      ],
      [
        "ation",
        ","
      ],
      [
        "▁fa",
        "vour"
      ],
      [
        "▁II.",
        "4"
      ],
      [
        ".[",
        "5"
      ],
      [
        ".[",
        "7"
      ],
      [
        "ag",
        "er"
      ],
      [
        "▁(L",
        ".C.)"
      ],
      [
        "▁po",
        "ison"
      ],
      [
        "▁here",
        ","
      ],
      [
        "▁than",
        "k"
      ],
      [
        "ci",
        "ous"
      ],
      [
        "hi",
        "le"
      ],
      [
        "▁ob",
        "ser"
      ],
      [
        "▁hon",
        "est"
      ],
      [
        "▁pass",
        "ion"
      ],
      [
        "ab",
        "ly"
      ],
      [
        "▁[_T",
        "o"
      ],
      [
        "▁lad",
        "y"
      ],
      [
        ".H.",
        "U.E"
      ],
      [
        "▁signif",
        "y"
      ],
      [
        "oub",
        "t"
      ],
      [
        "CE",
        "LL"
      ],
      [
        "▁mur",
        "der"
      ],
      [
        "▁excell",
        "ent"
      ],
      [
        "rist",
        "ian"
      ],
      [
        "▁suppos",
        "ed"
      ],
      [
        "▁phra",
        "se"
      ],
      [
        "oni",
        "us"
      ],
      [
        "▁MAR",
        "CELL"
      ],
      [
        "▁MARCELL",
        "US"
      ],
      [
        "!",
        "--"
      ],
      [
        "'",
        "S"
      ],
      [
        "'",
        "en"
      ],
      [
        ")",
        ","
      ],
      [
        "A",
        "sid"
      ],
      [
        "[",
        "9"
      ],
      [
        "a",
        "ct"
      ],
      [
        "b",
        "it"
      ],
      [
        "b",
        "ut"
      ],
      [
        "b",
        "and"
      ],
      [
        "d",
        "u"
      ],
      [
        "g",
        "n"
      ],
      [
        "i",
        "ence"
      ],
      [
        "s",
        ":"
      ],
      [
        "t",
        "he"
      ],
      [
        "u",
        "ck"
      ],
      [
        "v",
        "'d"
      ],
      [
        "▁",
        "est"
      ],
      [
        "▁t",
        "urn"
      ],
      [
        "in",
        "ess"
      ],
      [
        "ou",
        "s,"
      ],
      [
        "▁s",
        "ince"
      ],
      [
        "▁s",
        "orrow"
      ],
      [
        "▁w",
        "a"
      ],
      [
        "▁w",
        "oman"
      ],
      [
        "▁o",
        "pp"
      ],
      [
        "is",
        "s"
      ],
      [
        "er",
        "'s"
      ],
      [
        "▁b",
        "on"
      ],
      [
        "▁f",
        "ire"
      ],
      [
        "▁c",
        "ount"
      ],
      [
        "▁of",
        "fe"
      ],
      [
        "▁l",
        "aw"
      ],
      [
        "▁y",
        "ear"
      ],
      [
        "ing",
        "_"
      ],
      [
        "▁you",
        ",\r\n"
      ],
      [
        "▁you",
        "ng"
      ],
      [
        "▁h",
        "us"
      ],
      [
        "▁in",
        "d"
      ],
      [
        "▁in",
        "ter"
      ],
      [
        "am",
        ","
      ],
      [
        "▁g",
        "l"
      ],
      [
        "▁he",
        "l"
      ],
      [
        "ce",
        "ive"
      ],
      [
        "▁A",
        "ct"
      ],
      [
        "▁A",
        "CT"
      ],
      [
        "▁be",
        ","
      ],
      [
        "▁be",
        "ar"
      ],
      [
        "▁be",
        "hind"
      ],
      [
        "▁my",
        "self"
      ],
      [
        "ent",
        ","
      ],
      [
        "▁me",
        "m"
      ],
      [
        "▁not",
        ","
      ],
      [
        "'s",
        "\r\n"
      ],
      [
        "▁st",
        "ill"
      ],
      [
        "▁as",
        "\r\n"
      ],
      [
        "▁III.",
        "2"
      ],
      [
        "▁III.",
        "3"
      ],
      [
        "▁III.",
        "9"
      ],
      [
        "▁R",
        "e"
      ],
      [
        "▁con",
        "s"
      ],
      [
        "▁su",
        "it"
      ],
      [
        "il",
        "t"
      ],
      [
        "▁F",
        "rom"
      ],
      [
        "▁F",
        "are"
      ],
      [
        "▁de",
        "f"
      ],
      [
        "us",
        "ion"
      ],
      [
        "▁I.",
        "2"
      ],
      [
        "▁I.",
        "3"
      ],
      [
        "▁I.",
        "4"
      ],
      [
        "▁I.",
        "5"
      ],
      [
        "▁I.",
        "6"
      ],
      [
        "▁I.",
        "7"
      ],
      [
        "▁I.",
        "8"
      ],
      [
        "▁I.",
        "9"
      ],
      [
        "if",
        "t"
      ],
      [
        "fe",
        "ction"
      ],
      [
        "ul",
        "ar"
      ],
      [
        "▁II.",
        "1"
      ],
      [
        "▁II.",
        "2"
      ],
      [
        "▁II.",
        "3"
      ],
      [
        "▁II.",
        "5"
      ],
      [
        "▁II.",
        "6"
      ],
      [
        ".[",
        "3"
      ],
      [
        ",[",
        "2"
      ],
      [
        ",[",
        "3"
      ],
      [
        "▁V.",
        "1"
      ],
      [
        "▁V.",
        "2"
      ],
      [
        "▁V.",
        "3"
      ],
      [
        "▁V.",
        "4"
      ],
      [
        "▁V.",
        "5"
      ],
      [
        "▁V.",
        "6"
      ],
      [
        "▁play",
        "ers"
      ],
      [
        "we",
        "re"
      ],
      [
        "▁j",
        "ust"
      ],
      [
        "▁_A",
        "s"
      ],
      [
        "▁IV.",
        "1"
      ],
      [
        "▁IV.",
        "2"
      ],
      [
        "▁IV.",
        "3"
      ],
      [
        "▁IV.",
        "4"
      ],
      [
        "▁well",
        ","
      ],
      [
        "▁III.1",
        "0"
      ],
      [
        "▁III.1",
        "1"
      ],
      [
        "▁III.1",
        "2"
      ],
      [
        "▁III.1",
        "3"
      ],
      [
        "▁qu",
        "estion"
      ],
      [
        "pe",
        "ct"
      ],
      [
        "▁\"",
        "T"
      ],
      [
        "▁app",
        "ear"
      ],
      [
        "▁I.1",
        "0"
      ],
      [
        "▁I.1",
        "1"
      ],
      [
        "▁[_Exit",
        "_,"
      ],
      [
        "▁then",
        ","
      ],
      [
        "ren",
        "ce"
      ],
      [
        "▁cour",
        "se"
      ],
      [
        "▁GUILDENSTERN",
        ","
      ],
      [
        "▁vi",
        "ol"
      ],
      [
        "▁ter",
        "m"
      ],
      [
        "▁maj",
        "esty"
      ],
      [
        "get",
        "her"
      ],
      [
        "tend",
        "ant"
      ],
      [
        "▁ret",
        "urn"
      ],
      [
        "▁Pol",
        "onius"
      ],
      [
        "!",
        "_]"
      ],
      [
        ",",
        "--\r\n"
      ],
      [
        "-",
        "night"
      ],
      [
        ".",
        ","
      ],
      [
        "A",
        "T"
      ],
      [
        "b",
        "ably"
      ],
      [
        "c",
        "u"
      ],
      [
        "e",
        "re"
      ],
      [
        "h",
        ","
      ],
      [
        "i",
        "ke"
      ],
      [
        "s",
        ";"
      ],
      [
        "u",
        "ght"
      ],
      [
        "y",
        ".\r\n"
      ],
      [
        "Ã",
        "©"
      ],
      [
        "▁",
        "id"
      ],
      [
        "▁t",
        "ears"
      ],
      [
        "▁_",
        "be"
      ],
      [
        "▁s",
        "at"
      ],
      [
        "▁s",
        "im"
      ],
      [
        "▁s",
        "ong"
      ],
      [
        "▁m",
        "ark"
      ],
      [
        "▁w",
        "at"
      ],
      [
        "▁b",
        "us"
      ],
      [
        "▁I",
        "N"
      ],
      [
        "en",
        "c"
      ],
      [
        "▁f",
        "un"
      ],
      [
        "▁f",
        "ig"
      ],
      [
        "▁f",
        "ull"
      ],
      [
        "▁f",
        "oil"
      ],
      [
        "▁f",
        "ash"
      ],
      [
        "▁c",
        "ur"
      ],
      [
        "es",
        "s,"
      ],
      [
        "▁d",
        "am"
      ],
      [
        "▁d",
        "oth"
      ],
      [
        "▁to",
        "-night"
      ],
      [
        "▁p",
        "e"
      ],
      [
        "▁p",
        "ri"
      ],
      [
        "ing",
        ".]\r\n"
      ],
      [
        "▁you",
        "?\r\n"
      ],
      [
        "▁g",
        "one"
      ],
      [
        "▁_H",
        "e"
      ],
      [
        "le",
        "ct"
      ],
      [
        "as",
        "ion"
      ],
      [
        "as",
        "ure"
      ],
      [
        "--",
        "A"
      ],
      [
        "▁not",
        ".\r\n"
      ],
      [
        "ea",
        "ce"
      ],
      [
        "▁with",
        "\r\n"
      ],
      [
        "▁for",
        "t"
      ],
      [
        "▁re",
        "g"
      ],
      [
        "▁re",
        "venge"
      ],
      [
        "▁O",
        "ur"
      ],
      [
        "▁S",
        "ir"
      ],
      [
        "▁we",
        "ar"
      ],
      [
        "▁k",
        "ill"
      ],
      [
        "▁this",
        "\r\n"
      ],
      [
        "▁M",
        "ad"
      ],
      [
        "▁M",
        "ake"
      ],
      [
        "▁him",
        ".\r\n"
      ],
      [
        "▁li",
        "ber"
      ],
      [
        "'d",
        ",\r\n"
      ],
      [
        "▁[_",
        "S"
      ],
      [
        "ess",
        "ion"
      ],
      [
        "if",
        "e"
      ],
      [
        "[1",
        "0"
      ],
      [
        "▁v",
        "o"
      ],
      [
        "▁D",
        "id"
      ],
      [
        "▁ma",
        "id"
      ],
      [
        "▁_P",
        "."
      ],
      [
        "▁Th",
        "ou"
      ],
      [
        "▁com",
        "p"
      ],
      [
        ",[",
        "5"
      ],
      [
        "▁man",
        "y"
      ],
      [
        "▁po",
        "int"
      ],
      [
        "▁ar",
        "g"
      ],
      [
        "▁ar",
        "ras"
      ],
      [
        "▁love",
        ","
      ],
      [
        "▁qu",
        "i"
      ],
      [
        "▁'t",
        "w"
      ],
      [
        "▁cha",
        "r"
      ],
      [
        "▁sa",
        "w"
      ],
      [
        "▁There",
        "'s"
      ],
      [
        ",--",
        "--\r\n"
      ],
      [
        "▁gentle",
        "men"
      ],
      [
        "▁thought",
        "s"
      ],
      [
        "▁POLONIUS",
        ","
      ],
      [
        "▁sec",
        "ret"
      ],
      [
        "▁sk",
        "ull"
      ],
      [
        "pos",
        "ition"
      ],
      [
        "ump",
        "et"
      ],
      [
        "▁jud",
        "gment"
      ],
      [
        "▁John",
        "son"
      ],
      [
        "▁auth",
        "or"
      ],
      [
        "▁[_To",
        "_"
      ],
      [
        "▁hus",
        "band"
      ],
      [
        "▁dam",
        "n"
      ],
      [
        "-",
        "s"
      ],
      [
        "-",
        "t"
      ],
      [
        ":",
        "[5"
      ],
      [
        "A",
        "N"
      ],
      [
        "O",
        "M"
      ],
      [
        "W",
        "ith"
      ],
      [
        "_",
        ")"
      ],
      [
        "a",
        "il"
      ],
      [
        "d",
        ","
      ],
      [
        "i",
        "ble"
      ],
      [
        "k",
        "ing"
      ],
      [
        "l",
        "f"
      ],
      [
        "l",
        "se"
      ],
      [
        "m",
        "e"
      ],
      [
        "m",
        "ed"
      ],
      [
        "n",
        "ow"
      ],
      [
        "n",
        "ers"
      ],
      [
        "r",
        "ont"
      ],
      [
        "s",
        "._]\r\n"
      ],
      [
        "u",
        "al"
      ],
      [
        "u",
        "pp"
      ],
      [
        "u",
        "ff"
      ],
      [
        "v",
        "i"
      ],
      [
        "v",
        "ent"
      ],
      [
        "}",
        "\r\n"
      ],
      [
        "▁",
        "ut"
      ],
      [
        "▁t",
        "em"
      ],
      [
        "▁t",
        "able"
      ],
      [
        "▁a",
        "ge"
      ],
      [
        "▁a",
        "ud"
      ],
      [
        "▁_",
        "V"
      ],
      [
        "▁_",
        "to"
      ],
      [
        "ou",
        "p"
      ],
      [
        "▁m",
        "er"
      ],
      [
        "▁m",
        "om"
      ],
      [
        "▁m",
        "ount"
      ],
      [
        "▁w",
        "he"
      ],
      [
        "▁w",
        "in"
      ],
      [
        "re",
        "w"
      ],
      [
        "re",
        "qu"
      ],
      [
        "re",
        "sent"
      ],
      [
        "▁the",
        "e,"
      ],
      [
        "▁o",
        "p"
      ],
      [
        "is",
        "hed"
      ],
      [
        "er",
        "s,"
      ],
      [
        "▁b",
        "es"
      ],
      [
        "en",
        "ber"
      ],
      [
        "▁f",
        "it"
      ],
      [
        "▁f",
        "ur"
      ],
      [
        "▁f",
        "oul"
      ],
      [
        "▁c",
        "old"
      ],
      [
        "▁c",
        "rown"
      ],
      [
        "▁c",
        "unn"
      ],
      [
        "▁d",
        "ull"
      ],
      [
        "▁d",
        "oubt"
      ],
      [
        "▁p",
        "ast"
      ],
      [
        "▁p",
        "ower"
      ],
      [
        "▁l",
        "ack"
      ],
      [
        "▁you",
        "th"
      ],
      [
        "▁h",
        "or"
      ],
      [
        "at",
        "t"
      ],
      [
        "at",
        "in"
      ],
      [
        "at",
        "ive"
      ],
      [
        "ed",
        ",\r\n"
      ],
      [
        "▁th",
        "ri"
      ],
      [
        "an",
        "cy"
      ],
      [
        "▁in",
        "c"
      ],
      [
        "ow",
        "ers"
      ],
      [
        "▁he",
        "'s"
      ],
      [
        "▁he",
        "al"
      ],
      [
        "▁_H",
        "is"
      ],
      [
        "▁H",
        "is"
      ],
      [
        "▁be",
        "g"
      ],
      [
        "▁be",
        "ard"
      ],
      [
        "▁be",
        "gin"
      ],
      [
        "▁n",
        "ear"
      ],
      [
        "le",
        "x"
      ],
      [
        "le",
        "\r\n"
      ],
      [
        "▁e",
        "re"
      ],
      [
        "▁e",
        "lse"
      ],
      [
        "▁ha",
        "ng"
      ],
      [
        "▁u",
        "s,"
      ],
      [
        "as",
        "y"
      ],
      [
        "▁me",
        ";"
      ],
      [
        "▁me",
        "et"
      ],
      [
        "▁his",
        "t"
      ],
      [
        "▁that",
        "'s"
      ],
      [
        "ly",
        ".]\r\n"
      ],
      [
        "▁st",
        "ay"
      ],
      [
        "▁st",
        "op"
      ],
      [
        "▁re",
        "ason"
      ],
      [
        "▁re",
        "ceive"
      ],
      [
        "▁The",
        "y"
      ],
      [
        "ad",
        "e"
      ],
      [
        "id",
        "d"
      ],
      [
        "▁M",
        "ore"
      ],
      [
        "ur",
        "y"
      ],
      [
        "▁him",
        "\r\n"
      ],
      [
        "▁an",
        "\r\n"
      ],
      [
        "▁mo",
        "d"
      ],
      [
        "▁P",
        "r"
      ],
      [
        "▁P",
        "ro"
      ],
      [
        "▁G",
        "ert"
      ],
      [
        "▁_i.e._",
        ",\r\n"
      ],
      [
        "▁D",
        "r."
      ],
      [
        "▁_T",
        "here"
      ],
      [
        "li",
        "c"
      ],
      [
        "▁pl",
        "ace"
      ],
      [
        "ic",
        "ular"
      ],
      [
        "▁r",
        "ank"
      ],
      [
        "▁ex",
        "t"
      ],
      [
        ".[",
        "4"
      ],
      [
        "▁pro",
        "f"
      ],
      [
        "▁Y",
        "et"
      ],
      [
        "▁see",
        "k"
      ],
      [
        "▁What",
        ","
      ],
      [
        "ag",
        "es"
      ],
      [
        "ag",
        "ant"
      ],
      [
        "▁say",
        ","
      ],
      [
        "▁say",
        "s"
      ],
      [
        "▁qu",
        "ick"
      ],
      [
        "▁ad",
        "d"
      ],
      [
        "▁word",
        "s"
      ],
      [
        "▁en",
        "c"
      ],
      [
        "▁hon",
        "esty"
      ],
      [
        "ran",
        "._"
      ],
      [
        "▁des",
        "ire"
      ],
      [
        "▁_F",
        "ran._"
      ],
      [
        "▁br",
        "ing"
      ],
      [
        "▁ey",
        "e"
      ],
      [
        "▁mar",
        "ri"
      ],
      [
        "▁ch",
        "ur"
      ],
      [
        "▁ch",
        "ristian"
      ],
      [
        "▁bre",
        "ak"
      ],
      [
        "▁spir",
        "its"
      ],
      [
        "▁sec",
        "ond"
      ],
      [
        "▁ro",
        "se"
      ],
      [
        "▁har",
        "d"
      ],
      [
        "ert",
        "ain"
      ],
      [
        "-m",
        "ak"
      ],
      [
        "▁dre",
        "ad"
      ],
      [
        "▁Sp",
        "eak"
      ],
      [
        "▁anci",
        "ently"
      ],
      [
        "▁dra",
        "w"
      ],
      [
        "▁At",
        "tendant"
      ],
      [
        "▁beaut",
        "y"
      ],
      [
        "▁under",
        "st"
      ],
      [
        "▁Play",
        "._"
      ],
      [
        "▁consid",
        "er"
      ],
      [
        "▁_U",
        "n"
      ],
      [
        "▁pati",
        "ence"
      ],
      [
        "▁virt",
        "ue"
      ],
      [
        "▁charact",
        "er"
      ],
      [
        "▁_Y",
        "ou"
      ],
      [
        "▁occ",
        "asion"
      ],
      [
        "gn",
        "ant"
      ],
      [
        "▁hel",
        "p"
      ],
      [
        "▁fash",
        "ion"
      ],
      [
        "▁Sir",
        ","
      ],
      [
        "▁vo",
        "ice"
      ],
      [
        "enber",
        "g"
      ],
      [
        "▁Gert",
        "r"
      ],
      [
        "-",
        "f"
      ],
      [
        ":",
        "[2"
      ],
      [
        ";",
        "[2"
      ],
      [
        "D",
        "O"
      ],
      [
        "G",
        "host"
      ],
      [
        "T",
        ".\r\n"
      ],
      [
        "a",
        "x"
      ],
      [
        "a",
        "z"
      ],
      [
        "a",
        "id"
      ],
      [
        "a",
        "kes"
      ],
      [
        "b",
        "ed"
      ],
      [
        "e",
        "w"
      ],
      [
        "g",
        "ue"
      ],
      [
        "l",
        ","
      ],
      [
        "l",
        "as"
      ],
      [
        "l",
        "and"
      ],
      [
        "n",
        "er"
      ],
      [
        "p",
        "ing"
      ],
      [
        "p",
        "ic"
      ],
      [
        "r",
        "on"
      ],
      [
        "r",
        "am"
      ],
      [
        "r",
        "ung"
      ],
      [
        "s",
        "et"
      ],
      [
        "s",
        "pect"
      ],
      [
        "t",
        "ic"
      ],
      [
        "u",
        "ild"
      ],
      [
        "y",
        "ing"
      ],
      [
        "Ã",
        "¦"
      ],
      [
        "▁",
        "}"
      ],
      [
        "▁",
        "es"
      ],
      [
        "▁",
        "King"
      ],
      [
        "▁t",
        "en"
      ],
      [
        "▁t",
        "ouch"
      ],
      [
        "▁_",
        "E"
      ],
      [
        "▁_",
        "d"
      ],
      [
        "▁_",
        "p"
      ],
      [
        "▁_",
        "on"
      ],
      [
        "▁s",
        "it"
      ],
      [
        "▁s",
        "ound"
      ],
      [
        "▁m",
        "us"
      ],
      [
        "▁m",
        "ist"
      ],
      [
        "▁w",
        "ager"
      ],
      [
        "▁w",
        "ife"
      ],
      [
        "ot",
        "t"
      ],
      [
        "▁o",
        "ri"
      ],
      [
        "nd",
        "e"
      ],
      [
        "▁b",
        "ar"
      ],
      [
        "▁b",
        "ook"
      ],
      [
        "▁b",
        "orn"
      ],
      [
        "▁I",
        "nde"
      ],
      [
        "▁f",
        "ret"
      ],
      [
        "▁f",
        "requ"
      ],
      [
        "▁c",
        "al"
      ],
      [
        "▁c",
        "hi"
      ],
      [
        "▁c",
        "ap"
      ],
      [
        "▁c",
        "ens"
      ],
      [
        "▁c",
        "up"
      ],
      [
        "es",
        ".]\r\n"
      ],
      [
        "▁d",
        "en"
      ],
      [
        "▁d",
        "an"
      ],
      [
        "▁d",
        "ire"
      ],
      [
        "▁d",
        "eep"
      ],
      [
        "▁p",
        "ard"
      ],
      [
        "▁p",
        "ale"
      ],
      [
        "▁l",
        "ate"
      ],
      [
        "▁you",
        "\r\n"
      ],
      [
        "▁h",
        "ome"
      ],
      [
        "▁h",
        "igh"
      ],
      [
        "▁[",
        "H"
      ],
      [
        "▁th",
        "r"
      ],
      [
        "st",
        "ant"
      ],
      [
        "et",
        "y"
      ],
      [
        "▁g",
        "host"
      ],
      [
        "ow",
        "s"
      ],
      [
        "▁he",
        ","
      ],
      [
        "▁he",
        "ll"
      ],
      [
        "se",
        "qu"
      ],
      [
        "▁_H",
        "ow"
      ],
      [
        "▁be",
        "ll"
      ],
      [
        "im",
        "e"
      ],
      [
        "▁e",
        "ase"
      ],
      [
        "▁ha",
        "bit"
      ],
      [
        "▁W",
        "ould"
      ],
      [
        "▁W",
        "hich"
      ],
      [
        "ra",
        "w"
      ],
      [
        "ly",
        ".\r\n"
      ],
      [
        "▁for",
        ","
      ],
      [
        "▁your",
        "\r\n"
      ],
      [
        "▁st",
        "ar"
      ],
      [
        "▁st",
        "ory"
      ],
      [
        "oo",
        "f"
      ],
      [
        "oo",
        "se"
      ],
      [
        "al",
        ","
      ],
      [
        "▁we",
        "ep"
      ],
      [
        "▁L",
        "atin"
      ],
      [
        "▁lord",
        "ship"
      ],
      [
        "▁or",
        ","
      ],
      [
        "▁[_",
        "Asid"
      ],
      [
        "▁P",
        "ri"
      ],
      [
        "▁sp",
        "e"
      ],
      [
        "▁su",
        "ff"
      ],
      [
        "▁G",
        "o"
      ],
      [
        "▁de",
        "l"
      ],
      [
        "▁was",
        "\r\n"
      ],
      [
        "▁so",
        ".\r\n"
      ],
      [
        "▁lo",
        "se"
      ],
      [
        "ous",
        "in"
      ],
      [
        "▁sh",
        "ort"
      ],
      [
        "▁all",
        "usion"
      ],
      [
        "sel",
        "ves"
      ],
      [
        "▁Hamlet",
        ".\r\n"
      ],
      [
        "ure",
        ","
      ],
      [
        "▁her",
        "self"
      ],
      [
        "▁kn",
        "ave"
      ],
      [
        "▁(R",
        "."
      ],
      [
        "▁fa",
        "re"
      ],
      [
        "ence",
        ","
      ],
      [
        ",[",
        "6"
      ],
      [
        "▁pro",
        "cess"
      ],
      [
        "▁pro",
        "bably"
      ],
      [
        "▁our",
        "\r\n"
      ],
      [
        "▁dis",
        "position"
      ],
      [
        "▁man",
        "'s"
      ],
      [
        "ud",
        "es"
      ],
      [
        "▁king",
        ","
      ],
      [
        "▁know",
        "n"
      ],
      [
        "▁(L",
        ".H.)"
      ],
      [
        "▁po",
        "et"
      ],
      [
        "▁ar",
        "m"
      ],
      [
        "▁ar",
        "ms"
      ],
      [
        "▁_I",
        "f"
      ],
      [
        "ci",
        "ence"
      ],
      [
        "▁im",
        "age"
      ],
      [
        "▁_B",
        "ut"
      ],
      [
        "pt",
        "ed"
      ],
      [
        "able",
        ".]\r\n"
      ],
      [
        "▁_R",
        "e"
      ],
      [
        "▁ad",
        "mir"
      ],
      [
        "▁(_",
        "With"
      ],
      [
        "▁ab",
        "ove"
      ],
      [
        "▁night",
        ","
      ],
      [
        "▁_c",
        "rosses"
      ],
      [
        "▁We",
        "'ll"
      ],
      [
        "▁al",
        "most"
      ],
      [
        "iv",
        "ing"
      ],
      [
        "▁cont",
        "in"
      ],
      [
        "▁part",
        "icular"
      ],
      [
        ",[1",
        "0"
      ],
      [
        "▁RO",
        "OM"
      ],
      [
        "che",
        "s"
      ],
      [
        "▁V",
        "ery"
      ],
      [
        "▁[_T",
        "he"
      ],
      [
        "▁KING",
        ","
      ],
      [
        "▁show",
        "s"
      ],
      [
        "▁tra",
        "ged"
      ],
      [
        "▁rep",
        "resent"
      ],
      [
        "▁Engl",
        "ish"
      ],
      [
        "▁inde",
        "ed,"
      ],
      [
        "▁cor",
        "ru"
      ],
      [
        "▁dre",
        "am"
      ],
      [
        "▁anci",
        "ent"
      ],
      [
        "▁wo",
        "e"
      ],
      [
        "▁wo",
        "nder"
      ],
      [
        "▁mon",
        "th"
      ],
      [
        "▁ple",
        "ase"
      ],
      [
        "▁brain",
        "s"
      ],
      [
        "▁wis",
        "dom"
      ],
      [
        "▁remem",
        "ber"
      ],
      [
        "▁col",
        "our"
      ],
      [
        "▁welc",
        "ome"
      ],
      [
        "▁bless",
        "ing"
      ],
      [
        "▁obser",
        "v"
      ],
      [
        "▁offe",
        "nd"
      ],
      [
        "▁mem",
        "ory"
      ],
      [
        "▁wat",
        "er"
      ],
      [
        "▁liber",
        "t"
      ],
      [
        "▁qui",
        "et"
      ],
      [
        "▁aud",
        "ience"
      ],
      [
        "▁mount",
        "ain"
      ],
      [
        "▁fur",
        "ther"
      ],
      [
        "▁cunn",
        "ing"
      ],
      [
        "▁hor",
        "ri"
      ],
      [
        "▁heal",
        "th"
      ],
      [
        "▁ori",
        "gin"
      ],
      [
        "▁cens",
        "ure"
      ],
      [
        "▁dan",
        "ger"
      ],
      [
        "▁pard",
        "on"
      ],
      [
        "▁(_With",
        "out"
      ],
      [
        "!",
        "--\r\n"
      ],
      [
        "'",
        "lt"
      ],
      [
        ",",
        "\""
      ],
      [
        "-",
        "p"
      ],
      [
        ";",
        "[4"
      ],
      [
        "?",
        "--"
      ],
      [
        "A",
        "ST"
      ],
      [
        "F",
        "OR"
      ],
      [
        "R",
        "I"
      ],
      [
        "a",
        "is"
      ],
      [
        "a",
        "ir"
      ],
      [
        "a",
        "pp"
      ],
      [
        "b",
        "l"
      ],
      [
        "b",
        "let"
      ],
      [
        "c",
        "a"
      ],
      [
        "c",
        "on"
      ],
      [
        "c",
        "st"
      ],
      [
        "c",
        "han"
      ],
      [
        "e",
        "x"
      ],
      [
        "e",
        "pt"
      ],
      [
        "g",
        "u"
      ],
      [
        "g",
        "'d"
      ],
      [
        "i",
        "p"
      ],
      [
        "k",
        "in"
      ],
      [
        "m",
        "it"
      ],
      [
        "o",
        "b"
      ],
      [
        "o",
        "f"
      ],
      [
        "o",
        "le"
      ],
      [
        "r",
        "h"
      ],
      [
        "s",
        "o"
      ],
      [
        "s",
        "ar"
      ],
      [
        "s",
        "and"
      ],
      [
        "s",
        "'d"
      ],
      [
        "u",
        "nd"
      ],
      [
        "u",
        "le"
      ],
      [
        "v",
        "id"
      ],
      [
        "w",
        "ith"
      ],
      [
        "y",
        "p"
      ],
      [
        "y",
        "al"
      ],
      [
        "▁",
        "Queen"
      ],
      [
        "▁",
        "ign"
      ],
      [
        "▁t",
        "end"
      ],
      [
        "he",
        "s"
      ],
      [
        "▁a",
        "w"
      ],
      [
        "▁_",
        "b"
      ],
      [
        "▁_",
        "in"
      ],
      [
        "in",
        "e,"
      ],
      [
        "in",
        "ation"
      ],
      [
        "▁s",
        "y"
      ],
      [
        "▁s",
        "ight"
      ],
      [
        "▁s",
        "ister"
      ],
      [
        "▁m",
        "ot"
      ],
      [
        "▁m",
        "is"
      ],
      [
        "▁m",
        "ort"
      ],
      [
        "▁m",
        "orn"
      ],
      [
        "▁w",
        "eak"
      ],
      [
        "▁w",
        "ilt"
      ],
      [
        "re",
        "en"
      ],
      [
        "re",
        "ad"
      ],
      [
        "ot",
        "s"
      ],
      [
        "▁o",
        "'"
      ],
      [
        "▁o",
        "dd"
      ],
      [
        "er",
        "\r\n"
      ],
      [
        "it",
        "ter"
      ],
      [
        "it",
        "ude"
      ],
      [
        "▁b",
        "ent"
      ],
      [
        "▁b",
        "row"
      ],
      [
        "▁b",
        "ack"
      ],
      [
        "en",
        "st"
      ],
      [
        "on",
        "f"
      ],
      [
        "▁f",
        "ore"
      ],
      [
        "▁f",
        "ound"
      ],
      [
        "▁f",
        "ix"
      ],
      [
        "▁c",
        "o"
      ],
      [
        "▁c",
        "r"
      ],
      [
        "▁c",
        "ho"
      ],
      [
        "▁d",
        "ust"
      ],
      [
        "▁d",
        "ark"
      ],
      [
        "▁d",
        "iffe"
      ],
      [
        "▁to",
        ","
      ],
      [
        "▁to",
        "ld"
      ],
      [
        "▁to",
        "gether"
      ],
      [
        "▁p",
        "ract"
      ],
      [
        "▁p",
        "eace"
      ],
      [
        "▁l",
        "e"
      ],
      [
        "▁you",
        ":"
      ],
      [
        "▁h",
        "ot"
      ],
      [
        "▁h",
        "it"
      ],
      [
        "▁h",
        "ither"
      ],
      [
        "▁[",
        "Ghost"
      ],
      [
        "at",
        "s"
      ],
      [
        "ed",
        "s"
      ],
      [
        "▁th",
        "ir"
      ],
      [
        "▁T",
        "ill"
      ],
      [
        "▁T",
        "han"
      ],
      [
        "ve",
        "l"
      ],
      [
        "ve",
        "ll"
      ],
      [
        "▁g",
        "ave"
      ],
      [
        "om",
        "'d"
      ],
      [
        "ce",
        "ed"
      ],
      [
        "▁A",
        "d"
      ],
      [
        "▁H",
        "er"
      ],
      [
        "▁H",
        "old"
      ],
      [
        "▁be",
        "\r\n"
      ],
      [
        "▁n",
        "unn"
      ],
      [
        "▁my",
        "\r\n"
      ],
      [
        "▁it",
        ".]\r\n"
      ],
      [
        "ent",
        "er"
      ],
      [
        "ch",
        "o"
      ],
      [
        "▁me",
        ".]\r\n"
      ],
      [
        "▁me",
        "?\r\n"
      ],
      [
        "--",
        "a"
      ],
      [
        "ea",
        "l"
      ],
      [
        "ri",
        "es"
      ],
      [
        "ri",
        "ght"
      ],
      [
        "▁st",
        "ri"
      ],
      [
        "▁st",
        "ru"
      ],
      [
        "_,",
        "]\r\n"
      ],
      [
        "our",
        "n"
      ],
      [
        "al",
        "m"
      ],
      [
        "▁S",
        "he"
      ],
      [
        "▁S",
        "uch"
      ],
      [
        "▁The",
        "se"
      ],
      [
        "ro",
        "du"
      ],
      [
        "▁on",
        "'t"
      ],
      [
        "▁C",
        "H"
      ],
      [
        "▁C",
        "h"
      ],
      [
        "▁C",
        "Ã¦"
      ],
      [
        "▁C",
        "AST"
      ],
      [
        "▁M",
        "ust"
      ],
      [
        "ur",
        "t"
      ],
      [
        "▁wh",
        "y"
      ],
      [
        "▁B",
        "ERN"
      ],
      [
        "▁lord",
        ",\r\n"
      ],
      [
        "ol",
        "es"
      ],
      [
        "▁or",
        "der"
      ],
      [
        "'d",
        ".\r\n"
      ],
      [
        "▁[_",
        "R"
      ],
      [
        "ck",
        "ons"
      ],
      [
        "▁P",
        "l"
      ],
      [
        "▁P",
        "yr"
      ],
      [
        "▁do",
        ",\r\n"
      ],
      [
        "▁su",
        "cc"
      ],
      [
        "▁G",
        "od"
      ],
      [
        "▁G",
        "uild"
      ],
      [
        "il",
        "ar"
      ],
      [
        "▁de",
        "vil"
      ],
      [
        "us",
        "'"
      ],
      [
        "▁will",
        ".\r\n"
      ],
      [
        "▁so",
        ","
      ],
      [
        "▁thou",
        "sand"
      ],
      [
        "▁v",
        "al"
      ],
      [
        "▁v",
        "ice"
      ],
      [
        "▁lo",
        "ck"
      ],
      [
        "▁all",
        "ow"
      ],
      [
        "li",
        "ver"
      ],
      [
        "li",
        "ke"
      ],
      [
        "ard",
        ","
      ],
      [
        "▁no",
        "\r\n"
      ],
      [
        "▁un",
        "p"
      ],
      [
        "▁un",
        "s"
      ],
      [
        "▁pl",
        "ac"
      ],
      [
        "ul",
        "ate"
      ],
      [
        "ation",
        "\r\n"
      ],
      [
        "▁thy",
        "self"
      ],
      [
        "▁fa",
        "c"
      ],
      [
        "▁ex",
        "erc"
      ],
      [
        "▁II.",
        "7"
      ],
      [
        ".[",
        "2"
      ],
      [
        ".[",
        "8"
      ],
      [
        ".[",
        "9"
      ],
      [
        ",[",
        "7"
      ],
      [
        "▁pro",
        "per"
      ],
      [
        "▁go",
        "es"
      ],
      [
        "▁go",
        ".\r\n"
      ],
      [
        "hen",
        "s"
      ],
      [
        "▁which",
        "\r\n"
      ],
      [
        "▁know",
        ","
      ],
      [
        "▁_A",
        "ll"
      ],
      [
        "ies",
        "\r\n"
      ],
      [
        "▁_M",
        "y"
      ],
      [
        "▁love",
        ",\r\n"
      ],
      [
        "▁tr",
        "ans"
      ],
      [
        "▁tr",
        "umpet"
      ],
      [
        "ction",
        "s"
      ],
      [
        "_;",
        "]\r\n"
      ],
      [
        "▁let",
        "ter"
      ],
      [
        "age",
        ";"
      ],
      [
        "▁qu",
        "ant"
      ],
      [
        "▁im",
        "ag"
      ],
      [
        "▁wor",
        "n"
      ],
      [
        "▁_B",
        "y"
      ],
      [
        "▁cha",
        "ir"
      ],
      [
        "▁(_",
        "B"
      ],
      [
        "ON",
        "D"
      ],
      [
        "▁app",
        "ears"
      ],
      [
        "▁per",
        "fect"
      ],
      [
        "▁ob",
        "ey"
      ],
      [
        "▁I.1",
        "2"
      ],
      [
        "▁en",
        "ough"
      ],
      [
        "▁al",
        "one"
      ],
      [
        "▁_W",
        "ith"
      ],
      [
        "▁mother",
        "'s"
      ],
      [
        "▁des",
        "cri"
      ],
      [
        ".[1",
        "1"
      ],
      [
        "iv",
        "es"
      ],
      [
        "▁HAMLET",
        ","
      ],
      [
        "ract",
        "ed"
      ],
      [
        "AR",
        "DO"
      ],
      [
        "▁life",
        ","
      ],
      [
        "▁look",
        ","
      ],
      [
        "che",
        "d"
      ],
      [
        "▁disc",
        "ourse"
      ],
      [
        "▁bre",
        "ath"
      ],
      [
        "▁Horati",
        "o,"
      ],
      [
        "▁acc",
        "ent"
      ],
      [
        "▁af",
        "fection"
      ],
      [
        "ie",
        "ce"
      ],
      [
        "ix",
        "t"
      ],
      [
        "▁int",
        "rodu"
      ],
      [
        "▁bu",
        "ri"
      ],
      [
        "▁&c",
        "._]"
      ],
      [
        "▁clo",
        "se"
      ],
      [
        "▁jo",
        "y"
      ],
      [
        "▁em",
        "p"
      ],
      [
        "▁adv",
        "ice"
      ],
      [
        "▁ho",
        "pe"
      ],
      [
        "▁gener",
        "al"
      ],
      [
        "▁conce",
        "it"
      ],
      [
        "▁vis",
        "it"
      ],
      [
        "▁proverb",
        "ial"
      ],
      [
        "▁new",
        "s"
      ],
      [
        "▁remem",
        "b"
      ],
      [
        "▁sub",
        "ject"
      ],
      [
        "▁fal",
        "se"
      ],
      [
        "▁fee",
        "ling"
      ],
      [
        "▁guil",
        "t"
      ],
      [
        "▁bec",
        "ause"
      ],
      [
        "▁On",
        "e"
      ],
      [
        "▁Dan",
        "e"
      ],
      [
        "▁bon",
        "es"
      ],
      [
        "▁cons",
        "cience"
      ],
      [
        "▁Fare",
        "well"
      ],
      [
        "▁bus",
        "iness"
      ],
      [
        "▁pe",
        "op"
      ],
      [
        "▁pri",
        "v"
      ],
      [
        "▁mom",
        "ent"
      ],
      [
        "▁bes",
        "eech"
      ],
      [
        "▁_There",
        "'s"
      ],
      [
        "▁underst",
        "and"
      ],
      [
        "▁Inde",
        "ed,"
      ],
      [
        "▁admir",
        "ation"
      ],
      [
        "▁ign",
        "or"
      ],
      [
        "enst",
        "ern"
      ],
      [
        "▁pract",
        "ice"
      ],
      [
        "▁stru",
        "ck"
      ],
      [
        "▁CÃ¦",
        "sar"
      ],
      [
        "▁CAST",
        "LE"
      ],
      [
        "▁BERN",
        "ARDO"
      ],
      [
        "▁Pyr",
        "rh"
      ],
      [
        "▁Guild",
        "enstern"
      ],
      [
        "!",
        "_\r\n"
      ],
      [
        "-",
        "c"
      ],
      [
        "-",
        "w"
      ],
      [
        ":",
        "[3"
      ],
      [
        "C",
        ".]\r\n"
      ],
      [
        "E",
        "D"
      ],
      [
        "E",
        ".\r\n"
      ],
      [
        "I",
        "G"
      ],
      [
        "I",
        "R"
      ],
      [
        "I",
        "S"
      ],
      [
        "L",
        "A"
      ],
      [
        "_",
        ".\r\n"
      ],
      [
        "a",
        "im"
      ],
      [
        "a",
        "ith"
      ],
      [
        "a",
        "fe"
      ],
      [
        "c",
        "um"
      ],
      [
        "e",
        "ph"
      ],
      [
        "e",
        "hind"
      ],
      [
        "f",
        "ull"
      ],
      [
        "h",
        "y"
      ],
      [
        "i",
        "ers"
      ],
      [
        "i",
        "ance"
      ],
      [
        "i",
        "vers"
      ],
      [
        "k",
        "n"
      ],
      [
        "k",
        "ind"
      ],
      [
        "l",
        "ish"
      ],
      [
        "m",
        "on"
      ],
      [
        "m",
        "and"
      ],
      [
        "n",
        "on"
      ],
      [
        "n",
        "at"
      ],
      [
        "n",
        "el"
      ],
      [
        "n",
        "oc"
      ],
      [
        "o",
        "es"
      ],
      [
        "o",
        "ke"
      ],
      [
        "p",
        "or"
      ],
      [
        "p",
        "s,"
      ],
      [
        "s",
        "!"
      ],
      [
        "s",
        "!\r\n"
      ],
      [
        "s",
        "afe"
      ],
      [
        "t",
        "ha"
      ],
      [
        "u",
        "ed"
      ],
      [
        "u",
        "se"
      ],
      [
        "u",
        "nder"
      ],
      [
        "v",
        "ice"
      ],
      [
        "v",
        "es,"
      ],
      [
        "v",
        "agant"
      ],
      [
        "w",
        "k"
      ],
      [
        "y",
        ".]\r\n"
      ],
      [
        "y",
        ",\r\n"
      ],
      [
        "▁",
        "er"
      ],
      [
        "▁",
        "et"
      ],
      [
        "▁",
        "note"
      ],
      [
        "▁",
        "--"
      ],
      [
        "▁",
        "ver"
      ],
      [
        "▁",
        "EN"
      ],
      [
        "▁",
        "King._"
      ],
      [
        "he",
        "ad"
      ],
      [
        "▁a",
        "ught"
      ],
      [
        "▁_",
        "s"
      ],
      [
        "▁_",
        "lo"
      ],
      [
        "▁s",
        "in"
      ],
      [
        "▁s",
        "ing"
      ],
      [
        "▁s",
        "ol"
      ],
      [
        "▁s",
        "il"
      ],
      [
        "▁s",
        "ens"
      ],
      [
        "▁m",
        "ed"
      ],
      [
        "▁m",
        "et"
      ],
      [
        "▁m",
        "out"
      ],
      [
        "▁m",
        "eth"
      ],
      [
        "▁w",
        "ed"
      ],
      [
        "▁w",
        "ea"
      ],
      [
        "▁w",
        "ant"
      ],
      [
        "▁w",
        "ret"
      ],
      [
        "re",
        "ign"
      ],
      [
        "re",
        "hens"
      ],
      [
        "is",
        "es"
      ],
      [
        "is",
        "ed"
      ],
      [
        "er",
        "m"
      ],
      [
        "er",
        ".\r\n"
      ],
      [
        "er",
        "al"
      ],
      [
        "ha",
        "w"
      ],
      [
        "nd",
        "s"
      ],
      [
        "▁b",
        "ed"
      ],
      [
        "▁b",
        "ro"
      ],
      [
        "▁b",
        "os"
      ],
      [
        "▁b",
        "ound"
      ],
      [
        "▁b",
        "itter"
      ],
      [
        "▁I",
        "\r\n"
      ],
      [
        "en",
        "\r\n"
      ],
      [
        "en",
        "ance"
      ],
      [
        "en",
        "ry"
      ],
      [
        "or",
        "y,"
      ],
      [
        "▁f",
        "ish"
      ],
      [
        "▁c",
        "le"
      ],
      [
        "▁c",
        "ent"
      ],
      [
        "▁c",
        "ir"
      ],
      [
        "▁c",
        "ard"
      ],
      [
        "▁c",
        "ast"
      ],
      [
        "▁c",
        "ock"
      ],
      [
        "es",
        "h"
      ],
      [
        "▁d",
        "ri"
      ],
      [
        "▁d",
        "one,"
      ],
      [
        "▁d",
        "umb"
      ],
      [
        "▁d",
        "ais"
      ],
      [
        "▁to",
        "ward"
      ],
      [
        "▁p",
        "it"
      ],
      [
        "▁p",
        "ol"
      ],
      [
        "▁p",
        "os"
      ],
      [
        "▁p",
        "ick"
      ],
      [
        "▁p",
        "iece"
      ],
      [
        "▁l",
        "ay"
      ],
      [
        "▁l",
        "au"
      ],
      [
        "ar",
        "n"
      ],
      [
        "ing",
        "?"
      ],
      [
        "▁you",
        ";"
      ],
      [
        "▁you",
        ";\r\n"
      ],
      [
        "▁h",
        "o,"
      ],
      [
        "▁[",
        "P"
      ],
      [
        "at",
        "ing"
      ],
      [
        "▁th",
        "row"
      ],
      [
        "▁th",
        "rown"
      ],
      [
        "▁th",
        "ings"
      ],
      [
        "▁in",
        "f"
      ],
      [
        "▁in",
        "cl"
      ],
      [
        "▁T",
        "ake"
      ],
      [
        "am",
        "es"
      ],
      [
        "et",
        "t"
      ],
      [
        "ve",
        "y"
      ],
      [
        "▁g",
        "u"
      ],
      [
        "▁g",
        "et"
      ],
      [
        "▁g",
        "ir"
      ],
      [
        "▁g",
        "lo"
      ],
      [
        "▁g",
        "row"
      ],
      [
        "om",
        "p"
      ],
      [
        "ce",
        ","
      ],
      [
        "ce",
        "pt"
      ],
      [
        "ce",
        "iv"
      ],
      [
        "▁A",
        "r"
      ],
      [
        "▁A",
        "re"
      ],
      [
        "▁A",
        "lex"
      ],
      [
        "▁A",
        "las"
      ],
      [
        "▁H",
        "ad"
      ],
      [
        "▁H",
        "ath"
      ],
      [
        "▁H",
        "enry"
      ],
      [
        "▁n",
        "one"
      ],
      [
        "▁is",
        ",\r\n"
      ],
      [
        "▁is",
        "'t,"
      ],
      [
        "im",
        "es"
      ],
      [
        "▁it",
        "."
      ],
      [
        "ion",
        "'s"
      ],
      [
        "▁e",
        "as"
      ],
      [
        "▁e",
        "'en"
      ],
      [
        "▁ha",
        "pp"
      ],
      [
        "▁ha",
        "ving"
      ],
      [
        "▁ha",
        "lf"
      ],
      [
        "▁ha",
        "wk"
      ],
      [
        "as",
        "s,"
      ],
      [
        "▁me",
        ":"
      ],
      [
        "▁W",
        "ell"
      ],
      [
        "▁W",
        "itt"
      ],
      [
        "--",
        "T"
      ],
      [
        "--",
        "_"
      ],
      [
        "--",
        "to"
      ],
      [
        "--",
        "the"
      ],
      [
        "ra",
        "ight"
      ],
      [
        "ra",
        "ble"
      ],
      [
        "ra",
        "ction"
      ],
      [
        "▁for",
        "g"
      ],
      [
        "▁for",
        "th"
      ],
      [
        "▁st",
        "art"
      ],
      [
        "▁st",
        "raight"
      ],
      [
        "our",
        "ish"
      ],
      [
        "▁re",
        "f"
      ],
      [
        "▁re",
        "ck"
      ],
      [
        "▁re",
        "sol"
      ],
      [
        "al",
        "ent"
      ],
      [
        "▁S",
        "T"
      ],
      [
        "▁S",
        "ee"
      ],
      [
        "ver",
        "t"
      ],
      [
        "▁k",
        "ept"
      ],
      [
        "▁this",
        ","
      ],
      [
        "▁this",
        "?\r\n"
      ],
      [
        "▁on",
        "_"
      ],
      [
        "▁L",
        "ord"
      ],
      [
        "▁L",
        "ad"
      ],
      [
        "▁L",
        ".H."
      ],
      [
        "▁L",
        "ike"
      ],
      [
        "▁C",
        "."
      ],
      [
        "▁C",
        "l"
      ],
      [
        "▁C",
        "ha"
      ],
      [
        "▁C",
        "ome"
      ],
      [
        "▁C",
        "entre"
      ],
      [
        "▁M",
        "ay"
      ],
      [
        "▁M",
        "ost"
      ],
      [
        "ur",
        "p"
      ],
      [
        "ur",
        "ing"
      ],
      [
        "ur",
        "ative"
      ],
      [
        "and",
        "er"
      ],
      [
        "▁wh",
        "oles"
      ],
      [
        "▁B",
        "ern"
      ],
      [
        "▁li",
        "es"
      ],
      [
        "▁mo",
        "ck"
      ],
      [
        "▁mo",
        "der"
      ],
      [
        "est",
        ","
      ],
      [
        "▁[_",
        "D"
      ],
      [
        "▁[_",
        "G"
      ],
      [
        "▁[_",
        "P"
      ],
      [
        "▁P",
        "R"
      ],
      [
        "▁P",
        "el"
      ],
      [
        "▁R",
        "os"
      ],
      [
        "▁R",
        "ep"
      ],
      [
        "▁sp",
        "ring"
      ],
      [
        "▁do",
        ","
      ],
      [
        "▁do",
        "g"
      ],
      [
        "▁do",
        "st"
      ],
      [
        "▁con",
        "j"
      ],
      [
        "▁con",
        "vey"
      ],
      [
        "▁su",
        "re"
      ],
      [
        "▁su",
        "dd"
      ],
      [
        "ge",
        "l"
      ],
      [
        "▁G",
        "o,"
      ],
      [
        "▁F",
        "ollow"
      ],
      [
        "▁de",
        "g"
      ],
      [
        "▁de",
        "fe"
      ],
      [
        "us",
        "h"
      ],
      [
        "▁was",
        ","
      ],
      [
        "▁so",
        "\r\n"
      ],
      [
        "▁so",
        "ft"
      ],
      [
        "if",
        "ied"
      ],
      [
        "[1",
        "]"
      ],
      [
        "[1",
        "2]\r\n"
      ],
      [
        "ain",
        "st"
      ],
      [
        "ood",
        ","
      ],
      [
        "ss",
        "a"
      ],
      [
        "▁v",
        "ow"
      ],
      [
        "▁but",
        ","
      ],
      [
        "▁all",
        "udes"
      ],
      [
        "'t",
        ".\r\n"
      ],
      [
        "all",
        "s"
      ],
      [
        "li",
        "g"
      ],
      [
        "ble",
        "m"
      ],
      [
        "ard",
        "ed"
      ],
      [
        "qu",
        "est"
      ],
      [
        "▁ma",
        "king"
      ],
      [
        "▁un",
        "f"
      ],
      [
        "▁un",
        "w"
      ],
      [
        "▁un",
        "ivers"
      ],
      [
        "ul",
        "g"
      ],
      [
        "▁Th",
        "y"
      ],
      [
        "▁Th",
        "ough"
      ],
      [
        "ure",
        "s"
      ],
      [
        "▁her",
        "n"
      ],
      [
        "▁us",
        "es"
      ],
      [
        "▁r",
        "ue"
      ],
      [
        "▁r",
        "ather"
      ],
      [
        "▁That",
        ","
      ],
      [
        "▁That",
        "'s"
      ],
      [
        "ence",
        ".]\r\n"
      ],
      [
        ",[",
        "8"
      ],
      [
        "▁go",
        "d"
      ],
      [
        "▁tim",
        "es"
      ],
      [
        "ound",
        "ed"
      ],
      [
        "▁them",
        "\r\n"
      ],
      [
        "▁see",
        "ms"
      ],
      [
        "▁which",
        ","
      ],
      [
        "▁play",
        ","
      ],
      [
        "▁play",
        "ed"
      ],
      [
        "ud",
        "e,"
      ],
      [
        "▁king",
        "'s"
      ],
      [
        "ER",
        ".\r\n"
      ],
      [
        "▁j",
        "u"
      ],
      [
        "▁(L",
        ".H.U.E"
      ],
      [
        "ast",
        "e"
      ],
      [
        "▁would",
        "\r\n"
      ],
      [
        "▁ne",
        "g"
      ],
      [
        "▁ne",
        "ither"
      ],
      [
        "▁_and_",
        "\r\n"
      ],
      [
        "ef",
        "t"
      ],
      [
        "▁tr",
        "u"
      ],
      [
        "▁tr",
        "oub"
      ],
      [
        "▁_I",
        "t"
      ],
      [
        "▁_I",
        "'ll"
      ],
      [
        "▁say",
        "s,"
      ],
      [
        "▁IV.",
        "5"
      ],
      [
        "▁father",
        ".\r\n"
      ],
      [
        "▁well",
        ".\r\n"
      ],
      [
        "▁mean",
        ","
      ],
      [
        "▁mean",
        "s,"
      ],
      [
        "▁most",
        "\r\n"
      ],
      [
        "▁now",
        "!"
      ],
      [
        "▁time",
        ".]\r\n"
      ],
      [
        "th",
        "ing"
      ],
      [
        "▁'t",
        "were"
      ],
      [
        "▁fl",
        "esh"
      ],
      [
        "▁off",
        "ence"
      ],
      [
        "▁too",
        "k"
      ],
      [
        "▁(_",
        "Crosses"
      ],
      [
        "oll",
        "ect"
      ],
      [
        "▁were",
        "\r\n"
      ],
      [
        "▁night",
        ".\r\n"
      ],
      [
        "▁own",
[...]
